<unk>	0
<s>	0
</s>	0
,	-2.86697
s	-3.44749
:	-3.51328
.	-3.78203
▁	-3.91226
▁I	-4.11021
▁the	-4.13452
'	-4.15859
d	-4.34147
▁to	-4.3979
▁and	-4.5255
;	-4.55838
▁a	-4.60984
▁of	-4.64162
▁you	-4.77996
▁my	-4.85881
▁in	-4.94468
?	-4.94616
t	-4.94682
!	-5.07151
▁that	-5.16106
▁me	-5.16174
▁be	-5.16318
▁not	-5.18485
▁And	-5.19193
▁is	-5.19265
ing	-5.27009
e	-5.30362
▁for	-5.34086
▁with	-5.34896
▁it	-5.38106
▁your	-5.41264
er	-5.43833
ed	-5.46381
▁he	-5.46883
y	-5.47659
▁his	-5.49031
n	-5.5059
▁have	-5.55104
▁this	-5.60674
l	-5.62241
▁him	-5.66311
st	-5.66892
▁thou	-5.66919
p	-5.6756
▁so	-5.75965
ly	-5.77467
-	-5.83657
ll	-5.83725
▁as	-5.86396
a	-5.86555
▁will	-5.86674
r	-5.87767
▁thy	-5.8954
O	-5.94094
▁but	-5.94271
o	-5.95956
▁we	-5.96791
▁The	-5.97131
▁do	-5.97267
▁To	-5.99319
▁A	-6.01184
▁all	-6.02219
ar	-6.03055
▁her	-6.03818
▁O	-6.04596
▁'	-6.10118
▁no	-6.10163
f	-6.12365
▁shall	-6.13395
b	-6.13804
c	-6.13958
▁by	-6.14086
▁S	-6.14247
IO	-6.14475
▁thee	-6.15778
▁our	-6.17211
▁are	-6.19266
g	-6.21328
en	-6.22655
re	-6.23415
▁That	-6.24672
▁what	-6.26624
▁B	-6.2781
le	-6.28265
▁on	-6.29531
al	-6.31626
R	-6.31868
th	-6.32066
i	-6.32738
▁good	-6.33553
or	-6.34013
▁But	-6.34698
h	-6.35226
▁C	-6.37392
▁What	-6.42407
KING	-6.43481
in	-6.44546
▁was	-6.45332
on	-6.47113
▁from	-6.47735
m	-6.5042
▁For	-6.50733
▁more	-6.50956
▁love	-6.51354
▁lord	-6.52323
▁am	-6.52703
v	-6.54303
▁at	-6.54476
w	-6.54666
▁sir	-6.54945
▁if	-6.55096
▁now	-6.55136
k	-6.56412
▁would	-6.56545
▁she	-6.56747
ch	-6.5785
▁F	-6.59255
▁them	-6.60431
▁say	-6.61383
▁their	-6.63801
it	-6.64083
▁My	-6.6459
es	-6.66421
▁here	-6.66791
▁P	-6.67645
▁or	-6.69037
▁us	-6.69686
▁G	-6.69974
▁they	-6.7101
▁man	-6.71027
▁know	-6.71147
▁come	-6.72007
▁king	-6.72291
▁re	-6.73199
▁M	-6.73672
LO	-6.75868
▁may	-6.76965
S	-6.7767
▁then	-6.78803
▁go	-6.79012
▁one	-6.79535
▁well	-6.80172
▁p	-6.80927
IUS	-6.81026
▁make	-6.81199
▁let	-6.81567
▁hath	-6.82468
ent	-6.83082
▁un	-6.84324
ur	-6.8434
Y	-6.84341
▁there	-6.84507
▁You	-6.8534
▁As	-6.85348
▁He	-6.86509
▁like	-6.86825
▁must	-6.87275
▁T	-6.87715
A	-6.87798
▁an	-6.89535
▁were	-6.8975
▁should	-6.90397
an	-6.90986
▁than	-6.91703
ET	-6.91722
at	-6.91803
il	-6.92461
▁VI	-6.92721
NCE	-6.93611
▁father	-6.93928
▁f	-6.94974
▁see	-6.95027
▁had	-6.95247
▁upon	-6.95846
US	-6.98518
est	-6.98937
ri	-6.99528
ion	-7.00786
▁death	-7.01976
▁time	-7.02303
▁which	-7.02947
ce	-7.02966
▁speak	-7.04927
▁r	-7.04946
F	-7.04949
▁out	-7.06814
▁how	-7.0702
▁de	-7.07158
▁give	-7.08005
▁did	-7.08086
▁If	-7.08118
▁up	-7.08154
▁R	-7.08242
▁DUKE	-7.08999
▁too	-7.10382
▁heart	-7.10416
--	-7.10575
▁yet	-7.10654
▁With	-7.11458
se	-7.12827
▁RICHARD	-7.12886
▁some	-7.13753
▁when	-7.14296
▁Which	-7.14338
un	-7.14515
▁son	-7.14635
▁b	-7.15005
▁In	-7.15897
▁mine	-7.16227
ful	-7.16398
▁take	-7.17706
▁No	-7.17738
▁w	-7.19107
▁Why	-7.19208
ir	-7.19346
ro	-7.19547
▁con	-7.19558
▁can	-7.20278
▁hear	-7.20362
ve	-7.20748
▁o	-7.21027
▁God	-7.21109
▁such	-7.21146
▁First	-7.21539
N	-7.22907
ES	-7.22919
▁brother	-7.23122
ness	-7.2459
▁So	-7.24794
▁these	-7.26492
▁Of	-7.27132
ate	-7.27281
▁We	-7.28238
▁day	-7.28311
▁think	-7.28873
▁look	-7.28875
▁life	-7.29298
▁tell	-7.29304
▁How	-7.29346
▁Come	-7.29724
STE	-7.29728
ABE	-7.3015
RY	-7.30434
om	-7.30466
▁g	-7.3058
ous	-7.30762
▁Who	-7.31452
▁This	-7.31452
▁Be	-7.31881
UCE	-7.32257
▁m	-7.32487
id	-7.32682
ol	-7.33098
▁Lord	-7.34529
ic	-7.34903
▁Thou	-7.35426
am	-7.36164
tis	-7.36176
▁where	-7.36361
▁sp	-7.37031
ies	-7.37951
▁QUEEN	-7.38172
ck	-7.38853
▁art	-7.3888
▁honour	-7.39105
▁most	-7.39579
▁much	-7.40046
▁fair	-7.40073
▁made	-7.40333
▁Where	-7.4052
ow	-7.41171
ain	-7.41214
ra	-7.4281
ry	-7.43152
ver	-7.4394
▁Now	-7.44087
HEN	-7.44159
▁Y	-7.44747
▁J	-7.46389
▁name	-7.46389
▁great	-7.4639
▁noble	-7.47026
▁LA	-7.47095
te	-7.47664
▁never	-7.47941
▁ha	-7.488
ter	-7.48903
▁men	-7.49036
▁hand	-7.49399
▁who	-7.50305
el	-7.50644
as	-7.50777
▁Your	-7.51081
▁blood	-7.51142
▁H	-7.51393
ant	-7.51754
RK	-7.52126
▁call	-7.52629
▁any	-7.53458
▁true	-7.53703
IN	-7.53986
ish	-7.54381
et	-7.54668
▁cannot	-7.54793
B	-7.54807
V	-7.54873
▁Or	-7.54969
▁heaven	-7.55896
▁stand	-7.55899
▁live	-7.55985
▁PET	-7.56693
▁sweet	-7.57571
▁sh	-7.57943
▁EDWARD	-7.58136
▁t	-7.58526
age	-7.58928
▁been	-7.59217
▁part	-7.59329
ge	-7.5936
▁again	-7.59482
ie	-7.59647
▁bear	-7.59964
▁doth	-7.60197
pe	-7.60284
UM	-7.60305
▁own	-7.60439
▁LUC	-7.61126
is	-7.61688
▁die	-7.61776
▁done	-7.61782
▁AN	-7.6187
▁way	-7.62812
▁war	-7.63115
▁tr	-7.63281
▁br	-7.63317
▁other	-7.63409
▁head	-7.63661
TH	-7.63913
▁leave	-7.63971
▁nor	-7.64091
MENE	-7.6432
▁When	-7.64573
ive	-7.64874
OME	-7.65012
▁c	-7.65386
▁dis	-7.65543
▁soul	-7.664
▁Edward	-7.66401
▁very	-7.66413
▁fear	-7.66493
AP	-7.66729
▁world	-7.67018
▁before	-7.67019
▁both	-7.67142
▁night	-7.67638
▁queen	-7.67639
ence	-7.67924
▁Let	-7.68317
▁Ay	-7.68593
,--	-7.69171
▁E	-7.6931
▁By	-7.69333
able	-7.69335
▁ho	-7.69392
UCH	-7.69542
▁Do	-7.69772
um	-7.70011
▁down	-7.70166
▁dead	-7.70169
▁Ha	-7.70478
▁co	-7.70792
▁hast	-7.71207
im	-7.7155
D	-7.71686
em	-7.71799
▁Then	-7.71903
UL	-7.72127
▁grace	-7.72129
ill	-7.72745
ation	-7.72978
▁myself	-7.7319
he	-7.74068
▁It	-7.74489
▁pray	-7.7472
▁CORIOLANUS	-7.74739
▁thus	-7.74739
IZ	-7.7474
▁D	-7.75206
ment	-7.75267
econd	-7.75346
▁AU	-7.7552
▁sea	-7.75927
▁prince	-7.76085
ted	-7.76152
ers	-7.76385
NG	-7.76559
OLI	-7.76732
ot	-7.77074
ONT	-7.77169
▁mother	-7.77451
▁Go	-7.77873
▁old	-7.78269
z	-7.78532
▁LE	-7.78671
▁eyes	-7.78725
less	-7.78924
▁being	-7.78977
▁house	-7.79095
▁li	-7.79614
▁off	-7.79743
▁ever	-7.79889
our	-7.80058
▁Than	-7.80068
▁L	-7.80275
▁poor	-7.80361
▁wife	-7.80948
ld	-7.81066
INA	-7.81182
la	-7.81197
▁long	-7.8126
NTI	-7.81293
▁daughter	-7.81662
rt	-7.81749
II	-7.82287
▁away	-7.83107
if	-7.83263
LL	-7.83786
▁might	-7.8462
▁EL	-7.85252
▁stay	-7.85316
ig	-7.85472
ty	-7.85997
ance	-7.86182
me	-7.86295
ity	-7.86419
▁many	-7.87383
▁Warwick	-7.87567
▁crown	-7.87568
▁word	-7.88214
▁rest	-7.8827
▁His	-7.88445
▁sc	-7.89109
Tis	-7.89131
▁show	-7.89183
▁friends	-7.89282
EL	-7.89314
▁thought	-7.89681
ine	-7.89688
▁e	-7.90414
▁nothing	-7.90676
▁cr	-7.90714
WI	-7.90747
▁far	-7.90997
▁face	-7.91547
▁set	-7.91574
RAN	-7.91832
NT	-7.92159
▁comes	-7.92308
▁Romeo	-7.92421
▁Well	-7.92799
ULI	-7.93002
▁tongue	-7.93038
▁better	-7.93044
▁Here	-7.93164
▁W	-7.93267
▁Nay	-7.93845
▁duke	-7.93848
▁gone	-7.9396
▁pa	-7.94779
▁bu	-7.9525
ward	-7.95468
▁power	-7.95478
▁hope	-7.95553
NE	-7.95673
▁dear	-7.96069
ne	-7.96255
VOL	-7.96345
▁keep	-7.97137
▁thing	-7.97352
x	-7.97469
op	-7.983
▁those	-7.98838
▁ta	-7.98944
▁against	-7.99021
IC	-7.99071
▁news	-7.99208
▁Not	-7.99484
▁Citizen	-7.99679
▁little	-7.99679
▁hence	-7.99688
▁fe	-8.0041
▁master	-8.00542
▁hour	-8.00694
▁mean	-8.00873
ble	-8.01379
▁put	-8.01411
▁two	-8.01414
▁There	-8.02069
▁end	-8.02448
▁still	-8.03183
▁young	-8.03196
▁GRE	-8.03271
▁Sir	-8.03676
▁himself	-8.04334
▁best	-8.04581
ise	-8.04595
▁Thy	-8.05106
▁Richard	-8.05876
▁MAR	-8.05881
▁bo	-8.06166
ho	-8.06784
▁therefore	-8.06793
▁peace	-8.06794
▁unto	-8.06871
ail	-8.07016
▁thank	-8.07242
▁first	-8.0772
▁else	-8.07724
▁bid	-8.07899
TA	-8.07963
▁York	-8.08654
▁could	-8.08671
▁Will	-8.08706
▁till	-8.08752
▁Have	-8.08811
▁though	-8.08895
mo	-8.09258
KE	-8.09551
▁back	-8.09647
ti	-8.09686
man	-8.09735
▁earth	-8.09746
E	-8.09855
▁pro	-8.10073
NI	-8.10522
▁find	-8.10556
▁di	-8.10785
▁need	-8.10955
▁cause	-8.11511
▁lady	-8.11515
▁thine	-8.11515
H	-8.1163
ma	-8.11918
▁ye	-8.12173
▁bring	-8.12323
▁po	-8.12526
▁ex	-8.12531
▁home	-8.12544
▁seem	-8.13013
▁ga	-8.13102
▁friend	-8.1323
▁husband	-8.13462
▁Henry	-8.13463
▁Yet	-8.13583
▁An	-8.13605
▁words	-8.13618
▁gentle	-8.14393
▁Good	-8.14458
▁She	-8.14809
▁right	-8.15477
ice	-8.16003
L	-8.16276
▁people	-8.16462
▁came	-8.16467
▁mind	-8.16472
WAR	-8.16475
CK	-8.16476
ag	-8.16721
▁str	-8.17291
and	-8.17394
ASTI	-8.17482
▁Shall	-8.17483
▁follow	-8.17483
cu	-8.17814
GE	-8.17869
C	-8.17956
RUT	-8.17958
▁All	-8.18013
M	-8.18273
men	-8.19006
▁Nurse	-8.19555
▁joy	-8.19556
▁why	-8.19557
▁II	-8.20254
▁said	-8.20608
morrow	-8.20609
▁kind	-8.20617
rom	-8.20623
▁none	-8.20905
I	-8.20928
EN	-8.20957
ight	-8.21028
▁ne	-8.21067
ious	-8.21195
▁once	-8.2121
ied	-8.21212
ure	-8.22126
▁every	-8.22305
for	-8.2239
▁pre	-8.22408
▁forth	-8.22761
▁per	-8.22992
MIO	-8.22993
▁place	-8.23087
ound	-8.23534
▁Rome	-8.23585
LY	-8.23587
▁royal	-8.23834
▁shame	-8.23837
are	-8.23931
▁pass	-8.23978
▁They	-8.24539
UC	-8.2483
▁please	-8.24933
▁hands	-8.25074
ick	-8.25093
▁lie	-8.25723
▁du	-8.25727
▁light	-8.26051
▁help	-8.26064
▁since	-8.26124
BR	-8.26129
▁eye	-8.26232
▁sun	-8.26236
ling	-8.27103
▁fellow	-8.27362
▁whose	-8.27399
▁arm	-8.2742
▁tears	-8.28084
ite	-8.28308
TIS	-8.28314
LE	-8.28658
▁mis	-8.28695
▁boy	-8.28827
▁hate	-8.29098
▁Our	-8.29339
▁pardon	-8.29453
▁wrong	-8.29453
GAR	-8.29454
▁King	-8.29458
▁state	-8.29474
self	-8.2948
ave	-8.295
▁full	-8.29731
▁ear	-8.30025
ting	-8.30461
RIA	-8.30546
▁child	-8.30615
▁answer	-8.30616
▁land	-8.30629
▁PA	-8.31291
▁pr	-8.3152
AMILL	-8.31793
▁last	-8.32152
▁ere	-8.32347
▁sorrow	-8.32984
▁kill	-8.32988
CAL	-8.33043
▁hold	-8.33071
oo	-8.33158
▁heard	-8.33481
▁i	-8.33498
▁Nor	-8.33878
out	-8.34158
▁care	-8.34176
▁thousand	-8.34201
▁meet	-8.34443
▁grave	-8.34523
▁whom	-8.3453
ian	-8.34663
ub	-8.34779
▁prove	-8.35067
▁KAT	-8.35407
▁fortune	-8.35408
▁cousin	-8.35408
▁Re	-8.35642
ake	-8.36131
of	-8.36308
▁Clarence	-8.36642
▁hither	-8.36643
▁about	-8.36645
▁fool	-8.3668
▁weep	-8.36701
▁On	-8.36758
HAR	-8.36837
▁fall	-8.37373
OM	-8.37493
▁Un	-8.37827
▁lords	-8.37887
▁Marcius	-8.37892
▁maid	-8.37894
▁Eve	-8.379
▁gentleman	-8.37963
▁into	-8.38632
▁mi	-8.38752
▁less	-8.38963
HA	-8.38974
▁even	-8.39164
ther	-8.40077
▁ba	-8.40199
▁cur	-8.40317
▁Duke	-8.4044
▁gracious	-8.4044
▁grief	-8.4044
▁comfort	-8.4044
▁sin	-8.40635
▁new	-8.41339
ay	-8.41419
▁woman	-8.41739
▁talk	-8.4174
▁after	-8.41744
▁lo	-8.42419
AND	-8.4257
ist	-8.42688
ER	-8.42824
▁turn	-8.43056
▁com	-8.4337
▁la	-8.43574
▁use	-8.44312
▁DUCHESS	-8.44388
▁sleep	-8.44388
▁wilt	-8.4439
▁woe	-8.44402
day	-8.44586
▁sit	-8.44805
ster	-8.45601
▁body	-8.45747
ROS	-8.4575
▁over	-8.45963
RE	-8.4599
ERC	-8.46034
ach	-8.46261
▁lies	-8.46777
▁Angelo	-8.47109
▁fault	-8.47109
▁sound	-8.47204
▁sw	-8.47531
T	-8.47785
app	-8.47852
▁fa	-8.4813
▁traitor	-8.48498
▁another	-8.48498
▁indeed	-8.48499
▁false	-8.48499
▁play	-8.48499
▁law	-8.48587
▁dost	-8.48872
tain	-8.49806
j	-8.49874
▁Provost	-8.49906
▁horse	-8.49907
▁sword	-8.49909
▁beg	-8.4991
▁cl	-8.49911
▁Would	-8.49925
ship	-8.49932
▁wish	-8.50109
▁breath	-8.50425
like	-8.50793
▁high	-8.51264
▁HORTENSI	-8.51335
▁matter	-8.51335
▁fight	-8.51469
▁deed	-8.51734
ough	-8.5267
▁Upon	-8.52784
▁voice	-8.52784
▁while	-8.52784
▁prison	-8.52784
▁sovereign	-8.52784
▁three	-8.52784
▁knee	-8.52784
▁country	-8.52813
▁free	-8.5287
be	-8.5317
to	-8.53737
augh	-8.54247
▁welcome	-8.54255
▁swear	-8.54256
▁doubt	-8.54259
▁send	-8.54263
▁years	-8.54266
lack	-8.54315
▁rather	-8.54332
▁Take	-8.54378
ab	-8.54397
▁wear	-8.54547
tw	-8.54916
▁Murder	-8.55747
▁business	-8.55747
▁truth	-8.55747
▁want	-8.55974
▁Give	-8.56055
row	-8.56058
▁makes	-8.56525
▁has	-8.57005
TO	-8.57186
▁CLA	-8.57263
▁Third	-8.57263
▁reason	-8.57263
▁shalt	-8.57266
▁fire	-8.5727
▁grow	-8.57337
▁More	-8.57414
▁mad	-8.57857
▁nature	-8.58801
▁dream	-8.58801
▁command	-8.58801
▁Kate	-8.58802
▁Clow	-8.58803
▁court	-8.58809
▁NOR	-8.60363
▁only	-8.60449
▁hang	-8.6051
▁lay	-8.60891
UT	-8.61291
PER	-8.61884
▁proud	-8.61951
▁uncle	-8.61953
▁content	-8.61954
▁enough	-8.61955
▁mark	-8.62039
▁ten	-8.62163
▁pity	-8.62249
pose	-8.62691
▁holy	-8.62761
mi	-8.62848
▁wind	-8.63093
▁GR	-8.63166
▁arms	-8.6327
▁murder	-8.63564
▁strange	-8.63564
▁spirit	-8.63564
▁Did	-8.63732
led	-8.63759
▁dare	-8.63774
ENT	-8.64006
▁car	-8.64391
AM	-8.64608
▁present	-8.64889
▁Servant	-8.65203
▁foul	-8.65203
▁villain	-8.65203
▁save	-8.65295
ect	-8.65348
▁gods	-8.65472
▁get	-8.65482
▁Her	-8.65629
▁Were	-8.65995
▁imp	-8.66049
▁hu	-8.66122
▁At	-8.66664
▁POMP	-8.6687
▁change	-8.6687
▁mistress	-8.6687
▁revenge	-8.6687
▁kiss	-8.6687
▁sister	-8.6687
▁happy	-8.6687
▁saw	-8.66871
▁move	-8.66891
▁madam	-8.66939
ook	-8.67178
▁Was	-8.67466
▁Ne	-8.67818
▁De	-8.67903
IV	-8.68228
ier	-8.68295
ngman	-8.6841
▁beseech	-8.68564
▁subject	-8.68564
▁yield	-8.68564
▁break	-8.68583
▁city	-8.6869
ace	-8.68701
▁lives	-8.69023
gainst	-8.69279
▁pain	-8.6931
▁within	-8.69653
▁charge	-8.70289
▁service	-8.70289
▁serve	-8.7029
▁honest	-8.7029
▁oath	-8.70292
▁common	-8.7031
▁Look	-8.70332
▁woo	-8.70417
▁late	-8.70421
▁Say	-8.706
▁wit	-8.70652
▁born	-8.70937
▁England	-8.72043
▁Servi	-8.72043
▁faith	-8.72081
▁wound	-8.72169
▁Some	-8.72271
URE	-8.72483
▁curse	-8.72517
▁yourself	-8.72731
▁fie	-8.73113
▁bloody	-8.73447
▁things	-8.73485
ather	-8.73617
▁soldier	-8.73829
▁desire	-8.73831
ew	-8.73873
▁bar	-8.73959
▁age	-8.74126
BER	-8.74319
IAN	-8.74395
mon	-8.74556
▁means	-8.75169
▁pi	-8.75278
essenger	-8.75647
▁believe	-8.75647
▁children	-8.75649
▁person	-8.75656
▁Though	-8.75662
▁sure	-8.75769
▁May	-8.75827
ial	-8.76248
▁Can	-8.76412
eth	-8.76462
GON	-8.7723
▁BI	-8.77382
▁Tybalt	-8.77499
▁majesty	-8.77499
▁suit	-8.77499
▁purpose	-8.77499
▁Therefore	-8.77499
▁left	-8.77499
▁draw	-8.77502
▁tender	-8.77507
▁under	-8.77539
OND	-8.7754
empt	-8.77546
AN	-8.77853
ture	-8.77914
▁sight	-8.7812
Tw	-8.78465
side	-8.78774
CLIFF	-8.79386
▁warrant	-8.79386
▁foot	-8.79426
▁fr	-8.79616
▁win	-8.79758
▁Ah	-8.80295
▁soon	-8.80689
▁banish	-8.81144
time	-8.81237
▁farewell	-8.81309
▁mercy	-8.81309
▁nurse	-8.81309
▁report	-8.81309
▁return	-8.81309
▁promise	-8.81309
▁blow	-8.8131
▁gra	-8.81316
▁sad	-8.81324
ID	-8.81395
▁bless	-8.81545
▁near	-8.81773
▁beat	-8.81969
▁seen	-8.82059
▁told	-8.83199
▁through	-8.83269
▁become	-8.8327
▁heavy	-8.8327
▁together	-8.8327
▁cap	-8.83292
▁deep	-8.83301
▁marry	-8.83316
▁gold	-8.83631
▁does	-8.83839
night	-8.84051
▁without	-8.84055
lock	-8.84225
▁foe	-8.84892
▁Clifford	-8.85269
▁Juliet	-8.85269
▁PRINCE	-8.85269
▁remember	-8.85269
▁touch	-8.85269
▁deserve	-8.8527
▁safe	-8.8527
▁cold	-8.85418
▁lost	-8.85838
▁ask	-8.86424
ORD	-8.8727
▁Bolingbroke	-8.8731
▁pluck	-8.8731
▁learn	-8.87311
▁Tell	-8.87322
▁justice	-8.87334
▁liege	-8.87408
▁thyself	-8.87803
▁j	-8.88004
right	-8.88484
▁Signior	-8.89394
▁counsel	-8.89394
▁Should	-8.89394
▁Away	-8.89394
▁point	-8.89396
▁water	-8.89406
▁hard	-8.89409
▁loss	-8.89559
▁Had	-8.89584
▁star	-8.89591
read	-8.89609
▁Br	-8.89619
▁See	-8.89642
▁haste	-8.89671
▁fit	-8.90333
▁One	-8.90866
▁ears	-8.90956
▁Mo	-8.91062
ca	-8.9109
XE	-8.91434
▁Farewell	-8.91521
▁Montague	-8.91521
▁entreat	-8.91521
▁trust	-8.91521
▁ground	-8.91522
▁devil	-8.91522
▁friar	-8.91523
▁heir	-8.91743
▁begin	-8.9178
aking	-8.91996
kin	-8.92149
▁ill	-8.92205
▁cry	-8.92907
▁air	-8.92978
▁sup	-8.93552
▁Like	-8.93695
▁Senator	-8.93695
▁general	-8.93695
▁straight	-8.93695
▁Master	-8.93696
▁France	-8.93696
▁slain	-8.93696
X	-8.93731
▁Pray	-8.9379
▁bold	-8.93812
▁fly	-8.93838
▁found	-8.93895
▁sent	-8.94163
▁letter	-8.9423
▁run	-8.94247
▁fast	-8.94734
G	-8.94896
press	-8.95266
▁beauty	-8.95917
▁deliver	-8.95917
▁confess	-8.95917
▁widow	-8.95918
▁alone	-8.95918
▁married	-8.95918
▁strong	-8.95918
▁open	-8.95994
▁worthy	-8.963
ON	-8.96735
ixt	-8.9702
▁toward	-8.97032
▁fo	-8.97322
LOR	-8.97573
▁These	-8.97856
ash	-8.98144
▁Claudio	-8.9819
▁enemy	-8.9819
▁brought	-8.9819
▁grant	-8.98207
▁rich	-8.98214
▁writ	-8.98242
▁brave	-8.98294
▁side	-8.98318
TON	-8.9854
▁ready	-8.98595
▁sing	-8.98834
▁seek	-8.99285
▁past	-9.00113
eep	-9.00355
▁virtue	-9.00516
▁spoke	-9.00516
▁wonder	-9.00522
▁duty	-9.00606
▁lose	-9.00688
▁Make	-9.00743
CA	-9.01093
▁itself	-9.01465
ERS	-9.02204
▁SE	-9.02699
▁canst	-9.02805
▁Gloucester	-9.02897
▁Madam	-9.02897
▁Shepherd	-9.02897
▁strength	-9.02897
▁strike	-9.02897
▁twenty	-9.02897
▁MARCIUS	-9.02897
▁speed	-9.02909
▁harm	-9.02915
hood	-9.0297
▁feel	-9.03081
▁fearful	-9.03204
▁tale	-9.03468
igh	-9.04405
▁read	-9.04772
▁worth	-9.04919
▁Camillo	-9.05336
▁issue	-9.05336
▁marriage	-9.05336
▁behold	-9.05336
▁work	-9.05337
▁half	-9.05339
▁mock	-9.0534
▁course	-9.0534
▁short	-9.05344
▁field	-9.05399
▁enter	-9.05431
OW	-9.05513
▁bad	-9.05582
▁da	-9.05645
nder	-9.06834
▁office	-9.07668
▁Buckingham	-9.07836
▁pleasure	-9.07836
▁wretch	-9.07836
▁flatter	-9.07836
▁Hastings	-9.07836
▁plain	-9.07839
▁bosom	-9.07841
▁cut	-9.07871
▁each	-9.07926
▁bound	-9.08031
▁wise	-9.08085
ize	-9.08872
▁post	-9.09103
MER	-9.10211
▁just	-9.1037
▁Norfolk	-9.104
▁Thus	-9.104
▁company	-9.104
▁guilt	-9.104
▁appear	-9.104
▁attend	-9.104
▁join	-9.104
▁watch	-9.10401
▁lead	-9.10401
▁women	-9.10401
▁title	-9.10401
▁something	-9.10406
▁burn	-9.10407
▁worse	-9.10409
▁vow	-9.10415
▁order	-9.10477
▁highness	-9.10531
▁brow	-9.10806
eath	-9.10903
▁mar	-9.11539
▁known	-9.12356
K	-9.12933
▁Lucentio	-9.13031
▁battle	-9.13031
▁flower	-9.13031
▁knew	-9.13031
▁Roman	-9.13033
▁loving	-9.13033
▁cheer	-9.13033
▁gentlemen	-9.13109
▁sake	-9.13167
DIO	-9.14564
ept	-9.15397
▁Lancaster	-9.15734
▁cloud	-9.15734
▁enemies	-9.15734
▁suffer	-9.15734
▁broke	-9.15735
▁sign	-9.15735
▁close	-9.15735
▁sense	-9.15735
▁Marry	-9.15736
ZA	-9.15764
▁stir	-9.15787
▁Th	-9.15928
▁didst	-9.15989
▁CA	-9.16184
▁bow	-9.16645
▁won	-9.16866
rch	-9.16904
ould	-9.18293
▁music	-9.18512
▁Bianca	-9.18512
▁next	-9.18512
▁slave	-9.18513
▁Lady	-9.18517
▁gates	-9.18537
▁HER	-9.18629
TES	-9.18732
entleman	-9.19096
▁pale	-9.1917
▁coming	-9.19627
LAU	-9.20652
▁cheek	-9.21369
▁consul	-9.21369
▁quarrel	-9.21369
▁themselves	-9.21369
▁patience	-9.21369
▁receive	-9.21369
ERDI	-9.2139
▁consent	-9.21395
▁either	-9.2141
▁lips	-9.21414
▁jest	-9.2151
▁sick	-9.21537
▁weak	-9.21542
▁La	-9.21749
▁gave	-9.21789
▁four	-9.21919
▁Aufidius	-9.2431
▁Petruchio	-9.2431
▁Tranio	-9.2431
▁breast	-9.2431
▁speech	-9.2431
▁further	-9.2431
▁poison	-9.2431
▁piece	-9.24312
▁sworn	-9.24312
▁remain	-9.24312
▁same	-9.24313
▁Since	-9.24313
▁stone	-9.24314
twere	-9.24317
▁throw	-9.24318
▁humbl	-9.24321
▁wall	-9.24322
▁merry	-9.24322
▁cast	-9.24331
▁forget	-9.24334
▁Call	-9.24336
▁LORD	-9.24372
▁soft	-9.24391
twas	-9.24449
▁MI	-9.24629
BRA	-9.24677
▁rage	-9.24807
▁along	-9.24985
▁rid	-9.25218
▁took	-9.25702
DA	-9.25963
▁act	-9.26723
▁count	-9.27311
▁JOHN	-9.2734
▁already	-9.2734
▁morning	-9.2734
▁request	-9.2734
▁visit	-9.2734
▁mouth	-9.27341
▁worship	-9.27341
▁Hereford	-9.27342
▁Alas	-9.27381
▁dangerous	-9.27392
AG	-9.27487
▁book	-9.27495
▁often	-9.27509
ray	-9.27881
▁goes	-9.28661
spect	-9.28695
awn	-9.28816
▁Richmond	-9.30465
▁between	-9.30465
▁Speak	-9.30466
▁Before	-9.30466
▁frown	-9.30467
▁feast	-9.30473
▁case	-9.30477
▁Tower	-9.30486
▁neither	-9.30492
▁stop	-9.30494
▁black	-9.30643
▁base	-9.31206
▁Yes	-9.31452
▁pay	-9.32371
▁breathe	-9.32562
pen	-9.32883
▁sigh	-9.3289
▁whe	-9.33499
▁Because	-9.33691
▁Must	-9.33691
▁Welcome	-9.33691
▁quit	-9.33691
▁servant	-9.33691
▁favour	-9.33691
▁brief	-9.33692
▁bitter	-9.33692
▁dark	-9.33693
▁presence	-9.33696
▁having	-9.33699
▁chance	-9.33704
▁dread	-9.33731
▁manner	-9.33746
▁Unless	-9.33802
firm	-9.33918
▁thence	-9.34909
▁hap	-9.36174
ILI	-9.37024
▁Coriolanus	-9.37024
▁London	-9.37024
▁Margaret	-9.37024
▁While	-9.37024
▁throne	-9.37024
▁victor	-9.37024
▁drink	-9.37025
▁mortal	-9.37025
▁Keep	-9.37025
▁Saint	-9.37035
▁Both	-9.37036
▁deny	-9.37044
▁town	-9.37112
▁respect	-9.37162
aving	-9.37165
ither	-9.37238
▁offence	-9.37262
▁fla	-9.37814
love	-9.38625
hrew	-9.38829
▁dam	-9.38985
▁Gentle	-9.39665
PS	-9.40193
BALT	-9.40473
▁George	-9.40473
▁Volsce	-9.40473
▁ancient	-9.40473
▁chamber	-9.40473
▁drunk	-9.40473
▁knock	-9.40473
▁sudden	-9.40473
▁Baptista	-9.40473
▁Isabel	-9.40473
▁smile	-9.40473
▁drop	-9.40474
▁cross	-9.40475
▁Paris	-9.40475
▁bawd	-9.40478
▁moon	-9.40489
▁action	-9.40579
▁lament	-9.40598
▁prayers	-9.4078
▁Lest	-9.40963
▁eat	-9.4124
OP	-9.41349
▁Ere	-9.41588
AT	-9.43736
claim	-9.44026
▁knave	-9.44044
▁success	-9.44044
▁triumph	-9.44044
▁trouble	-9.44044
▁valiant	-9.44044
▁flesh	-9.44044
▁defend	-9.44044
▁hide	-9.44044
▁patient	-9.44044
▁sacr	-9.44044
▁certain	-9.44045
▁prepare	-9.44045
▁fresh	-9.44045
▁beggar	-9.44046
▁scorn	-9.44048
▁fetch	-9.44049
▁Stand	-9.4405
▁usurp	-9.4405
▁kingdom	-9.44058
shape	-9.4409
▁witness	-9.44197
▁coward	-9.44246
▁low	-9.44494
▁presently	-9.44749
▁sli	-9.44842
W	-9.45454
3	-9.47748
▁Christ	-9.47748
▁Hortensio	-9.47748
▁Oxford	-9.47748
▁prithee	-9.47748
▁secret	-9.47748
▁tribunes	-9.47748
▁slaughter	-9.47748
▁accuse	-9.47748
▁Think	-9.47748
▁least	-9.47749
▁colour	-9.47749
▁walk	-9.47751
▁crave	-9.47873
▁boot	-9.47942
▁fine	-9.48438
bear	-9.50281
▁Bohemia	-9.51594
▁Katharina	-9.51594
▁Northumberland	-9.51594
▁Pompey	-9.51594
▁dishonour	-9.51594
▁execution	-9.51594
▁resolve	-9.51594
▁shepherd	-9.51594
▁almost	-9.51594
▁labour	-9.51594
▁small	-9.51595
▁pretty	-9.51595
▁depart	-9.51596
▁thither	-9.51598
▁Hark	-9.51599
▁nay	-9.51621
▁beast	-9.51706
▁march	-9.5181
▁wake	-9.51842
▁officer	-9.52035
hose	-9.52228
▁tear	-9.524
▁whence	-9.52548
RG	-9.54911
▁danger	-9.55526
▁Sweet	-9.55594
▁awhile	-9.55594
▁slander	-9.55594
▁trumpet	-9.55594
▁virtuous	-9.55594
▁perform	-9.55594
▁match	-9.55596
▁Peace	-9.55596
▁birth	-9.55596
▁proceed	-9.55596
▁living	-9.55598
▁glad	-9.556
▁Hold	-9.55602
▁fond	-9.55632
▁neck	-9.55847
▁quickly	-9.55849
▁fill	-9.56236
fold	-9.565
▁leisure	-9.59761
▁quiet	-9.59761
▁quo	-9.59761
▁treason	-9.59761
▁church	-9.59761
▁drum	-9.59761
▁measure	-9.59762
▁womb	-9.59762
▁angry	-9.59763
▁swift	-9.59764
▁slew	-9.59764
▁Stay	-9.59766
▁worst	-9.59768
▁Yea	-9.59773
▁wild	-9.59777
▁offend	-9.5978
▁affection	-9.5981
▁winter	-9.59904
▁rob	-9.59931
▁mild	-9.59937
▁sometime	-9.59939
▁lawful	-9.60002
▁owe	-9.61049
RIS	-9.62968
▁English	-9.64109
▁Gremio	-9.64109
▁Grumio	-9.64109
▁Out	-9.64109
▁Padua	-9.64109
▁Plantagenet	-9.64109
▁because	-9.64109
▁condemn	-9.64109
▁encounter	-9.64109
▁liberty	-9.64109
▁ourselves	-9.64109
▁embrace	-9.64109
▁behind	-9.64109
▁Watch	-9.6411
▁steel	-9.6411
▁ladies	-9.64112
▁saint	-9.64118
▁forbid	-9.6412
scape	-9.64129
▁reign	-9.64192
▁sentence	-9.64205
▁banishment	-9.64213
▁dance	-9.64267
▁stain	-9.64382
▁rough	-9.64393
▁fled	-9.64451
▁second	-9.64532
long	-9.65639
head	-9.66689
aith	-9.6858
▁Gaunt	-9.68654
▁choose	-9.68654
▁conscience	-9.68654
▁dispatch	-9.68654
▁grieve	-9.68654
▁hundred	-9.68654
▁instrument	-9.68654
▁judge	-9.68654
▁summer	-9.68654
▁prosper	-9.68654
▁seven	-9.68654
▁direct	-9.68654
▁white	-9.68655
▁Sirrah	-9.68655
▁groan	-9.68655
▁evil	-9.68655
▁obey	-9.68655
▁greet	-9.68656
▁steal	-9.68656
▁bride	-9.68657
▁double	-9.68657
void	-9.68658
▁infect	-9.68659
▁teach	-9.68659
▁bones	-9.68666
▁laugh	-9.68677
▁deceiv	-9.68677
▁Fear	-9.6868
▁vain	-9.68682
▁proclaim	-9.68694
▁finger	-9.68721
▁Unto	-9.68739
▁babe	-9.68754
▁odd	-9.68878
▁laid	-9.6891
▁dry	-9.68911
ARI	-9.72637
▁Capulet	-9.73416
▁Catesby	-9.73416
▁citizens	-9.73416
▁complain	-9.73416
▁despair	-9.73416
▁desperate	-9.73416
▁effect	-9.73416
▁glory	-9.73416
▁kinsman	-9.73416
▁lust	-9.73416
▁rule	-9.73416
▁shadow	-9.73416
▁wisdom	-9.73416
▁yourselves	-9.73416
▁advise	-9.73416
▁knowledge	-9.73416
▁divine	-9.73416
▁excuse	-9.73416
▁precious	-9.73416
▁drown	-9.73416
▁stood	-9.73416
tract	-9.73417
▁praise	-9.73417
▁commend	-9.73417
▁pride	-9.73417
▁loath	-9.73419
▁DOR	-9.7342
▁forgot	-9.73423
▁trembl	-9.73428
▁spring	-9.73431
▁wench	-9.73445
▁entertain	-9.73459
▁shake	-9.73618
▁quick	-9.78096
▁Aumerle	-9.78416
▁John	-9.78416
▁Mowbray	-9.78416
▁creature	-9.78416
▁cruel	-9.78416
▁enjoy	-9.78416
▁fruit	-9.78416
▁guess	-9.78416
▁guest	-9.78416
▁methinks	-9.78416
▁struck	-9.78416
▁utter	-9.78416
▁whip	-9.78416
▁bastard	-9.78416
▁money	-9.78416
▁understand	-9.78416
▁storm	-9.78416
▁lamb	-9.78417
▁mount	-9.78418
▁fought	-9.78418
▁intend	-9.78419
▁plant	-9.7842
▁kept	-9.78421
▁vice	-9.78432
▁corn	-9.78432
▁Love	-9.78438
▁health	-9.78441
▁idle	-9.78473
▁alive	-9.78478
eign	-9.795
house	-9.81699
struction	-9.83648
▁Mercutio	-9.83679
▁Prince	-9.83679
▁account	-9.83679
▁guard	-9.83679
▁neighbour	-9.83679
▁number	-9.83679
▁truly	-9.83679
▁valour	-9.83679
▁Lewis	-9.83679
▁Pardon	-9.83679
▁charity	-9.83679
▁perceive	-9.83679
▁perfect	-9.83679
▁humour	-9.83679
▁blame	-9.83679
▁Made	-9.83681
▁scarce	-9.83681
▁Heaven	-9.83681
▁mourn	-9.83681
▁girl	-9.83683
▁priest	-9.83685
▁awake	-9.83685
▁demand	-9.83686
▁raise	-9.8369
▁among	-9.83694
▁kindred	-9.83699
▁rock	-9.837
▁root	-9.83704
▁butcher	-9.83725
▁assure	-9.83766
▁EX	-9.83811
▁six	-9.84
▁tune	-9.84017
born	-9.87291
fall	-9.87342
tree	-9.88391
▁Cominius	-9.89235
▁Know	-9.89235
▁abroad	-9.89235
▁abuse	-9.89235
▁blush	-9.89235
▁condition	-9.89235
▁custom	-9.89235
▁determine	-9.89235
▁dwell	-9.89235
▁judgment	-9.89235
▁minister	-9.89235
▁plague	-9.89235
▁private	-9.89235
▁provost	-9.89235
▁question	-9.89235
▁satisfied	-9.89235
▁vengeance	-9.89235
▁view	-9.89235
▁stroke	-9.89235
▁throat	-9.89235
▁envy	-9.89235
▁malice	-9.89235
▁glass	-9.89235
▁wherefore	-9.89236
▁Harry	-9.89238
▁hung	-9.89238
▁seize	-9.89239
▁convey	-9.89239
▁Show	-9.89241
▁month	-9.8925
▁ease	-9.89262
▁term	-9.89277
▁nine	-9.89296
▁roar	-9.89321
▁urge	-9.89445
▁suppl	-9.89604
eak	-9.90833
▁Corioli	-9.95117
▁Mantua	-9.95117
▁Methinks	-9.95117
▁Paulina	-9.95117
▁Rutland	-9.95117
▁True	-9.95117
▁Vincentio	-9.95117
▁Whilst	-9.95117
▁deputy	-9.95117
▁occasion	-9.95117
▁thunder	-9.95117
▁tyrant	-9.95117
▁Please	-9.95117
▁Thomas	-9.95117
▁blind	-9.95117
▁afford	-9.95117
▁countenance	-9.95117
▁vile	-9.95117
▁remove	-9.95118
▁easy	-9.9512
▁plot	-9.95121
▁corse	-9.95122
▁After	-9.95124
▁lend	-9.95125
▁arriv	-9.95126
▁agree	-9.95126
▁Peter	-9.95131
▁chide	-9.95134
▁bird	-9.95134
▁gown	-9.95135
▁sport	-9.95135
▁frame	-9.95141
▁shore	-9.95147
▁rose	-9.95172
board	-9.95242
govern	-9.95308
ctor	-9.95925
IST	-9.97428
place	-9.99376
▁Caius	-10.0137
▁Mistress	-10.0137
▁Stanley	-10.0137
▁THOMAS	-10.0137
▁Verona	-10.0137
▁always	-10.0137
▁continue	-10.0137
▁discover	-10.0137
▁innocent	-10.0137
▁length	-10.0137
▁rude	-10.0137
▁simple	-10.0137
▁temper	-10.0137
▁whilst	-10.0137
▁profess	-10.0137
▁choice	-10.0137
▁remedy	-10.0137
▁thrive	-10.0137
▁modest	-10.0137
▁prevail	-10.0137
▁stoop	-10.0137
▁silence	-10.0137
▁Brother	-10.0137
▁devise	-10.0137
▁prevent	-10.0137
▁punish	-10.0137
▁gross	-10.0137
▁consider	-10.0137
▁hollow	-10.0137
▁ghost	-10.0137
▁wicked	-10.0137
▁senate	-10.0137
▁Jove	-10.0137
▁twice	-10.0137
▁sirrah	-10.0137
lthough	-10.0137
▁buried	-10.0137
▁gift	-10.0137
▁Wilt	-10.0137
▁Friar	-10.0137
▁wait	-10.0137
▁Besides	-10.0137
▁import	-10.0137
▁repent	-10.0138
▁blest	-10.0144
banished	-10.0177
▁ski	-10.0581
▁Apollo	-10.0803
▁Barnardine	-10.0803
▁Capitol	-10.0803
▁Menenius	-10.0803
▁Musician	-10.0803
▁Prithee	-10.0803
▁Somerset	-10.0803
▁advantage	-10.0803
▁benefit	-10.0803
▁execute	-10.0803
▁extreme	-10.0803
▁ignorant	-10.0803
▁oracle	-10.0803
▁practise	-10.0803
▁renown	-10.0803
▁rotten	-10.0803
▁vantage	-10.0803
▁violent	-10.0803
▁approach	-10.0803
▁conquer	-10.0803
▁degree	-10.0803
▁despite	-10.0803
▁enforce	-10.0803
▁design	-10.0803
▁garden	-10.0803
▁plead	-10.0803
▁Indeed	-10.0803
shire	-10.0803
▁motion	-10.0803
▁absence	-10.0803
▁trade	-10.0803
▁crack	-10.0804
▁delight	-10.0804
▁Offic	-10.0804
▁loyal	-10.0804
▁Cousin	-10.0804
▁glori	-10.0804
▁retire	-10.0804
▁inform	-10.0804
▁troth	-10.0804
▁knight	-10.0804
▁sharp	-10.0804
▁Turn	-10.0804
▁clear	-10.0805
▁proper	-10.0805
▁anger	-10.0806
▁instruct	-10.0807
▁exile	-10.0807
P	-10.0813
▁taste	-10.082
▁pierc	-10.0827
cloth	-10.0842
▁ripe	-10.0849
▁Hermione	-10.1518
▁Thursday	-10.1518
▁authority	-10.1518
▁burthen	-10.1518
▁disgrace	-10.1518
▁disposition	-10.1518
▁envious	-10.1518
▁jealous	-10.1518
▁possible	-10.1518
▁rascal	-10.1518
▁rogue	-10.1518
▁stuff	-10.1518
▁thrust	-10.1518
▁chief	-10.1518
▁garments	-10.1518
▁several	-10.1518
▁RICH	-10.1518
▁Rivers	-10.1518
▁resign	-10.1518
▁tidings	-10.1518
▁undone	-10.1518
▁stock	-10.1518
▁large	-10.1518
▁mistake	-10.1518
▁profit	-10.1518
▁Three	-10.1518
▁street	-10.1518
▁troop	-10.1518
▁slow	-10.1518
▁wander	-10.1518
▁asleep	-10.1518
▁woful	-10.1518
▁damned	-10.1518
▁Pisa	-10.1518
▁deposed	-10.1518
▁credit	-10.1518
▁supper	-10.1518
▁Great	-10.1518
▁steed	-10.1518
▁tedious	-10.1518
▁fatal	-10.1519
▁forgive	-10.1519
▁solemn	-10.1522
▁hunt	-10.1522
▁Prov	-10.1538
▁affect	-10.2278
▁heavi	-10.2286
▁physic	-10.2287
▁Believe	-10.2287
▁Biondello	-10.2287
▁Polixenes	-10.2287
▁accept	-10.2287
▁contrary	-10.2287
▁corrupt	-10.2287
▁cunning	-10.2287
▁equal	-10.2287
▁forsworn	-10.2287
▁gentlewoman	-10.2287
▁language	-10.2287
▁natural	-10.2287
▁opinion	-10.2287
▁petition	-10.2287
▁pleasant	-10.2287
▁quench	-10.2287
▁remembrance	-10.2287
▁require	-10.2287
▁twelve	-10.2287
▁unnatural	-10.2287
▁access	-10.2287
▁dinner	-10.2287
▁weapon	-10.2287
▁apparel	-10.2287
▁chair	-10.2287
▁terror	-10.2287
▁whither	-10.2287
▁undertake	-10.2287
▁silver	-10.2287
▁miserable	-10.2287
▁Tailor	-10.2287
▁palace	-10.2287
▁wrath	-10.2287
▁flight	-10.2287
▁wreck	-10.2287
▁courtesy	-10.2287
▁denied	-10.2287
▁Worth	-10.2287
▁desert	-10.2287
HOR	-10.2287
▁beheld	-10.2287
▁purse	-10.2287
▁limit	-10.2287
▁delay	-10.2288
▁teeth	-10.2288
▁step	-10.2288
▁wedding	-10.2288
▁protest	-10.2288
▁angel	-10.2288
▁tide	-10.2289
▁store	-10.2289
▁fact	-10.2522
▁ARCH	-10.312
▁compass	-10.312
▁counterfeit	-10.312
▁particular	-10.312
▁swallow	-10.312
▁AEdile	-10.312
▁Beseech	-10.312
▁Marshal	-10.312
▁censure	-10.312
▁conclude	-10.312
▁conduct	-10.312
▁dagger	-10.312
▁destroy	-10.312
▁discontent	-10.312
▁employ	-10.312
▁excellent	-10.312
▁happiness	-10.312
▁hereafter	-10.312
▁minute	-10.312
▁obedience	-10.312
▁pronounce	-10.312
▁protector	-10.312
▁public	-10.312
▁pursue	-10.312
▁repair	-10.312
▁senators	-10.312
▁smooth	-10.312
▁study	-10.312
▁French	-10.312
▁assurance	-10.312
▁ballad	-10.312
▁provide	-10.312
▁advance	-10.312
▁stabb	-10.312
▁sceptre	-10.312
▁fashion	-10.312
▁hatred	-10.312
▁stamp	-10.312
▁expect	-10.312
nointed	-10.312
▁naked	-10.312
▁south	-10.312
▁courage	-10.312
▁government	-10.312
▁beyond	-10.312
▁story	-10.312
▁catch	-10.312
▁calm	-10.3121
▁spoil	-10.3121
▁attempt	-10.3121
bility	-10.3121
▁marvel	-10.3131
▁gaze	-10.3143
Thanks	-10.3365
▁special	-10.3544
Z	-10.4016
▁Boatswain	-10.4029
▁Exeter	-10.4029
▁Lucio	-10.4029
▁Naples	-10.4029
▁Sicilia	-10.4029
▁commission	-10.4029
▁giving	-10.4029
▁increase	-10.4029
▁knife	-10.4029
▁monstrous	-10.4029
▁perpetual	-10.4029
▁resolution	-10.4029
▁suspicion	-10.4029
▁temple	-10.4029
▁treacherous	-10.4029
▁treasure	-10.4029
▁unknown	-10.4029
▁vault	-10.4029
▁vouch	-10.4029
▁Dorset	-10.4029
▁behalf	-10.4029
▁enmity	-10.4029
▁reverend	-10.4029
▁thief	-10.4029
▁virgin	-10.4029
&	-13.3314
Q	-13.3315
J	-13.3316
q	-13.3317
U	-13.3318
$	-13.3319
u	-13.3319
