<unk>	0
<pad>	0
<s>	0
</s>	0
▁t	-0
he	-1
▁a	-2
in	-3
▁the	-4
er	-5
on	-6
▁,	-7
re	-8
▁s	-9
▁o	-10
▁w	-11
ed	-12
nd	-13
▁.	-14
at	-15
or	-16
▁c	-17
it	-18
▁f	-19
en	-20
is	-21
▁of	-22
es	-23
▁b	-24
▁in	-25
ar	-26
an	-27
al	-28
▁and	-29
▁p	-30
ing	-31
as	-32
▁to	-33
▁m	-34
ro	-35
ic	-36
▁d	-37
▁h	-38
ion	-39
ou	-40
le	-41
▁T	-42
▁=	-43
▁"	-44
▁re	-45
▁""	-46
▁th	-47
ent	-48
▁A	-49
▁1	-50
il	-51
▁S	-52
st	-53
▁l	-54
om	-55
▁e	-56
▁n	-57
▁@	-58
am	-59
▁C	-60
el	-61
ad	-62
▁was	-63
ac	-64
▁The	-65
▁on	-66
▁be	-67
ur	-68
ly	-69
▁M	-70
▁'	-71
▁I	-72
▁g	-73
▁for	-74
iv	-75
ol	-76
ter	-77
▁B	-78
-@	-79
▁@-@	-80
im	-81
id	-82
ir	-83
▁as	-84
ct	-85
ig	-86
th	-87
ow	-88
ith	-89
▁st	-90
▁H	-91
us	-92
▁2	-93
ay	-94
▁that	-95
▁with	-96
her	-97
ot	-98
ce	-99
ver	-100
ut	-101
ation	-102
et	-103
▁is	-104
▁P	-105
▁wh	-106
ch	-107
▁by	-108
▁R	-109
▁)	-110
▁(	-111
▁al	-112
un	-113
▁F	-114
▁D	-115
▁con	-116
em	-117
ul	-118
▁W	-119
▁at	-120
▁it	-121
▁19	-122
and	-123
ain	-124
rom	-125
os	-126
▁N	-127
▁an	-128
▁G	-129
▁L	-130
ers	-131
▁he	-132
est	-133
ag	-134
av	-135
00	-136
▁J	-137
▁se	-138
um	-139
▁de	-140
▁his	-141
▁r	-142
▁from	-143
od	-144
▁O	-145
ri	-146
▁com	-147
▁E	-148
pe	-149
ist	-150
▁pro	-151
if	-152
ld	-153
ere	-154
ies	-155
ort	-156
▁v	-157
res	-158
▁su	-159
ore	-160
▁were	-161
ill	-162
▁In	-163
ap	-164
ong	-165
ew	-166
op	-167
igh	-168
ich	-169
▁or	-170
ate	-171
art	-172
all	-173
ard	-174
ak	-175
▁ch	-176
ber	-177
ame	-178
▁ex	-179
gh	-180
ab	-181
ud	-182
▁pl	-183
se	-184
ated	-185
ant	-186
ity	-187
▁are	-188
rou	-189
oc	-190
ive	-191
ess	-192
qu	-193
▁sh	-194
▁had	-195
▁k	-196
ack	-197
▁which	-198
▁U	-199
red	-200
▁y	-201
▁K	-202
▁le	-203
ov	-204
pt	-205
our	-206
▁not	-207
ast	-208
ment	-209
ip	-210
▁St	-211
rit	-212
ord	-213
ear	-214
▁tr	-215
ge	-216
ally	-217
ian	-218
ther	-219
ost	-220
ine	-221
ave	-222
ight	-223
▁u	-224
oun	-225
ell	-226
▁3	-227
ish	-228
pp	-229
cl	-230
ary	-231
▁Ch	-232
▁200	-233
ust	-234
irst	-235
ia	-236
▁;	-237
te	-238
▁comp	-239
▁their	-240
▁but	-241
cc	-242
so	-243
ction	-244
fter	-245
▁first	-246
ous	-247
▁un	-248
ure	-249
▁its	-250
ould	-251
ra	-252
▁–	-253
ide	-254
▁whe	-255
▁cont	-256
▁ar	-257
ue	-258
ical	-259
ome	-260
og	-261
wo	-262
hed	-263
▁20	-264
▁:	-265
ial	-266
ie	-267
▁her	-268
▁also	-269
ition	-270
▁int	-271
ub	-272
▁V	-273
own	-274
▁cl	-275
ru	-276
ater	-277
out	-278
ign	-279
▁us	-280
orm	-281
ork	-282
per	-283
▁ab	-284
▁ad	-285
ok	-286
ff	-287
▁have	-288
age	-289
ire	-290
▁He	-291
▁one	-292
ass	-293
▁has	-294
▁rec	-295
low	-296
mer	-297
ime	-298
▁ro	-299
▁been	-300
du	-301
▁two	-302
▁4	-303
▁res	-304
▁18	-305
▁Th	-306
.@	-307
▁@.@	-308
▁per	-309
ond	-310
▁5	-311
ree	-312
▁who	-313
ence	-314
uring	-315
ough	-316
land	-317
▁this	-318
are	-319
▁bec	-320
ile	-321
ult	-322
pl	-323
ry	-324
ory	-325
ance	-326
ect	-327
▁It	-328
ans	-329
▁sc	-330
▁bo	-331
▁play	-332
▁Al	-333
▁they	-334
clud	-335
▁year	-336
▁201	-337
▁part	-338
▁ag	-339
ade	-340
▁des	-341
ations	-342
ount	-343
▁man	-344
ric	-345
▁other	-346
▁dis	-347
▁te	-348
ely	-349
▁after	-350
ach	-351
▁j	-352
act	-353
▁ser	-354
ound	-355
▁over	-356
over	-357
▁off	-358
,@	-359
▁@,@	-360
ang	-361
▁includ	-362
▁sp	-363
ions	-364
▁en	-365
ite	-366
urn	-367
▁im	-368
ace	-369
ice	-370
iz	-371
ib	-372
wn	-373
▁out	-374
▁up	-375
ke	-376
ress	-377
▁Y	-378
ark	-379
▁time	-380
nder	-381
▁ne	-382
▁into	-383
▁fin	-384
rough	-385
▁pre	-386
▁ev	-387
ced	-388
round	-389
port	-390
we	-391
▁On	-392
▁spe	-393
ces	-394
▁more	-395
▁would	-396
▁she	-397
▁comm	-398
ted	-399
ason	-400
▁att	-401
ward	-402
▁all	-403
ren	-404
ose	-405
one	-406
ail	-407
ited	-408
▁him	-409
amp	-410
▁we	-411
tern	-412
ied	-413
ens	-414
oin	-415
ased	-416
▁6	-417
▁Un	-418
▁cent	-419
rib	-420
▁Re	-421
▁work	-422
ents	-423
▁Se	-424
ild	-425
ix	-426
▁me	-427
ood	-428
ase	-429
les	-430
ings	-431
ts	-432
man	-433
▁7	-434
▁fe	-435
▁them	-436
able	-437
ious	-438
▁when	-439
▁bet	-440
▁song	-441
ake	-442
ors	-443
▁sec	-444
als	-445
ates	-446
vel	-447
▁ear	-448
▁rem	-449
▁An	-450
old	-451
ubl	-452
iss	-453
▁kn	-454
form	-455
▁most	-456
▁during	-457
fer	-458
gan	-459
ath	-460
aus	-461
▁only	-462
ilm	-463
▁new	-464
▁game	-465
oy	-466
ved	-467
ered	-468
ember	-469
ve	-470
orth	-471
ollow	-472
ween	-473
▁199	-474
reat	-475
▁As	-476
way	-477
outh	-478
▁Ar	-479
▁9	-480
▁8	-481
▁rel	-482
▁can	-483
▁about	-484
ters	-485
▁again	-486
▁season	-487
▁three	-488
▁cons	-489
▁than	-490
▁En	-491
ick	-492
ug	-493
▁Mar	-494
▁between	-495
att	-496
aw	-497
ral	-498
▁record	-499
▁some	-500
ational	-501
▁under	-502
ons	-503
▁char	-504
cted	-505
ular	-506
fore	-507
▁through	-508
ind	-509
ict	-510
▁later	-511
hip	-512
iew	-513
▁col	-514
▁num	-515
▁00	-516
▁Com	-517
ft	-518
ision	-519
▁De	-520
▁writ	-521
▁produ	-522
▁while	-523
▁pos	-524
▁film	-525
▁rele	-526
▁ver	-527
ames	-528
▁end	-529
▁inter	-530
ished	-531
▁ap	-532
ey	-533
▁pe	-534
▁made	-535
▁pr	-536
▁form	-537
▁fl	-538
ning	-539
▁reg	-540
▁ass	-541
orld	-542
▁where	-543
▁so	-544
▁spec	-545
▁New	-546
▁mov	-547
ever	-548
meric	-549
▁Americ	-550
ury	-551
▁lar	-552
bum	-553
▁ac	-554
▁app	-555
▁ret	-556
ron	-557
▁bu	-558
▁follow	-559
ener	-560
▁no	-561
▁such	-562
▁def	-563
▁second	-564
ived	-565
▁four	-566
ock	-567
aid	-568
▁mus	-569
▁qu	-570
▁acc	-571
▁used	-572
▁sub	-573
olog	-574
▁inc	-575
▁act	-576
ike	-577
▁At	-578
rop	-579
▁day	-580
▁This	-581
ars	-582
▁Le	-583
▁publ	-584
ific	-585
▁am	-586
ual	-587
▁call	-588
▁album	-589
▁ind	-590
hes	-591
▁000	-592
▁before	-593
▁do	-594
▁appe	-595
ob	-596
ily	-597
oh	-598
▁being	-599
ank	-600
▁gr	-601
▁co	-602
any	-603
▁years	-604
▁Eng	-605
▁there	-606
▁supp	-607
ck	-608
owever	-609
ating	-610
ane	-611
▁found	-612
▁0	-613
▁ele	-614
▁high	-615
▁set	-616
iel	-617
ife	-618
▁ep	-619
ics	-620
orn	-621
hen	-622
▁sy	-623
ird	-624
▁ent	-625
other	-626
iver	-627
▁sur	-628
ained	-629
▁10	-630
▁series	-631
igin	-632
▁number	-633
pen	-634
ten	-635
ll	-636
end	-637
ause	-638
ince	-639
▁loc	-640
ph	-641
ros	-642
▁dec	-643
▁pres	-644
velop	-645
▁both	-646
ode	-647
▁sever	-648
ities	-649
cept	-650
▁12	-651
▁then	-652
▁including	-653
ines	-654
▁epis	-655
son	-656
▁Brit	-657
▁/	-658
▁against	-659
▁well	-660
▁became	-661
▁known	-662
ject	-663
▁—	-664
ised	-665
▁po	-666
▁charac	-667
▁add	-668
▁desc	-669
▁perform	-670
ton	-671
▁sing	-672
▁bl	-673
▁go	-674
▁cap	-675
▁198	-676
▁dire	-677
urch	-678
▁Joh	-679
aj	-680
▁16	-681
ale	-682
▁back	-683
▁many	-684
▁Sh	-685
▁pop	-686
pr	-687
▁main	-688
ident	-689
though	-690
▁United	-691
▁inv	-692
▁stud	-693
its	-694
▁long	-695
ise	-696
ather	-697
ures	-698
row	-699
▁trans	-700
▁origin	-701
io	-702
▁John	-703
▁Br	-704
iet	-705
ement	-706
▁century	-707
▁mon	-708
▁team	-709
ober	-710
▁After	-711
ool	-712
▁Sc	-713
▁est	-714
▁show	-715
▁develop	-716
ann	-717
▁min	-718
ield	-719
ek	-720
ert	-721
ower	-722
▁em	-723
ier	-724
elf	-725
▁194	-726
air	-727
ute	-728
▁cre	-729
▁several	-730
▁She	-731
▁lead	-732
▁17	-733
uch	-734
ared	-735
▁began	-736
▁196	-737
ful	-738
ivers	-739
▁11	-740
▁15	-741
▁mill	-742
▁dif	-743
▁contin	-744
▁197	-745
overn	-746
▁sign	-747
ually	-748
ram	-749
▁sm	-750
view	-751
ired	-752
up	-753
▁may	-754
ative	-755
▁ship	-756
▁comple	-757
▁br	-758
▁could	-759
▁early	-760
led	-761
▁crit	-762
▁did	-763
ern	-764
▁called	-765
ains	-766
ross	-767
▁art	-768
▁episode	-769
til	-770
▁near	-771
▁ob	-772
▁Ind	-773
▁hist	-774
▁pol	-775
▁describ	-776
▁bel	-777
emb	-778
ued	-779
▁rece	-780
ople	-781
iam	-782
une	-783
▁run	-784
▁along	-785
ins	-786
▁ter	-787
imes	-788
ments	-789
▁dep	-790
ccess	-791
ley	-792
▁Wh	-793
▁said	-794
▁feat	-795
▁American	-796
roup	-797
▁bro	-798
▁down	-799
ven	-800
▁Is	-801
▁inst	-802
▁these	-803
aking	-804
▁May	-805
der	-806
▁mil	-807
▁dist	-808
▁Aust	-809
▁though	-810
gest	-811
▁Ger	-812
▁disc	-813
yl	-814
▁British	-815
▁oper	-816
▁until	-817
▁Z	-818
ove	-819
oot	-820
▁start	-821
anc	-822
▁city	-823
▁same	-824
ting	-825
rap	-826
▁inf	-827
ured	-828
▁prev	-829
▁released	-830
els	-831
▁gener	-832
ty	-833
ange	-834
▁exp	-835
▁own	-836
ized	-837
▁any	-838
▁return	-839
amed	-840
▁They	-841
▁War	-842
ially	-843
▁km	-844
ided	-845
▁land	-846
▁design	-847
▁rep	-848
▁war	-849
▁music	-850
▁prov	-851
▁imp	-852
▁million	-853
▁because	-854
ajor	-855
▁use	-856
▁area	-857
▁Con	-858
tend	-859
▁car	-860
▁fam	-861
▁air	-862
az	-863
▁Aug	-864
▁August	-865
oman	-866
au	-867
▁like	-868
▁open	-869
▁success	-870
▁mat	-871
osed	-872
▁sim	-873
▁Fr	-874
▁Chr	-875
▁occ	-876
erson	-877
ink	-878
ep	-879
enn	-880
▁const	-881
ook	-882
▁people	-883
▁count	-884
ull	-885
▁eff	-886
hy	-887
ium	-888
▁ins	-889
chool	-890
▁pass	-891
▁offic	-892
stem	-893
ible	-894
xt	-895
▁195	-896
▁six	-897
▁support	-898
▁Bl	-899
▁Be	-900
▁around	-901
my	-902
▁small	-903
▁However	-904
ah	-905
▁win	-906
▁%	-907
▁Sept	-908
▁adv	-909
▁north	-910
▁dam	-911
▁group	-912
▁str	-913
▁Car	-914
▁each	-915
▁poin	-916
▁September	-917
ony	-918
ues	-919
▁consid	-920
▁met	-921
ouse	-922
▁following	-923
▁Pl	-924
▁character	-925
▁Ju	-926
ists	-927
wards	-928
▁World	-929
▁life	-930
ms	-931
erv	-932
▁ed	-933
▁Austral	-934
uc	-935
▁head	-936
▁13	-937
aining	-938
▁mod	-939
▁five	-940
▁contro	-941
▁attack	-942
▁govern	-943
ole	-944
▁193	-945
ording	-946
▁result	-947
▁Comm	-948
ient	-949
ales	-950
▁var	-951
oss	-952
▁All	-953
▁Te	-954
▁will	-955
▁large	-956
uth	-957
ution	-958
▁ever	-959
ets	-960
▁191	-961
▁II	-962
▁Her	-963
▁gu	-964
▁Col	-965
▁ann	-966
▁report	-967
ague	-968
▁conc	-969
ural	-970
▁US	-971
▁Me	-972
▁Cl	-973
rote	-974
lish	-975
▁June	-976
▁book	-977
▁North	-978
▁Eu	-979
und	-980
aving	-981
aced	-982
ash	-983
▁For	-984
▁tit	-985
▁German	-986
dom	-987
▁since	-988
▁States	-989
ik	-990
ble	-991
▁prom	-992
ped	-993
▁south	-994
▁received	-995
▁final	-996
▁major	-997
ilt	-998
med	-999
▁name	-1000
ately	-1001
▁Jan	-1002
ivision	-1003
▁Ad	-1004
pect	-1005
▁Oct	-1006
▁partic	-1007
▁system	-1008
▁South	-1009
▁public	-1010
..	-1011
▁care	-1012
▁state	-1013
▁dr	-1014
▁Christ	-1015
▁King	-1016
▁what	-1017
ives	-1018
▁direct	-1019
uary	-1020
▁hel	-1021
▁last	-1022
▁described	-1023
hel	-1024
tle	-1025
▁ext	-1026
▁October	-1027
ored	-1028
▁14	-1029
▁line	-1030
▁$	-1031
▁appear	-1032
▁...	-1033
▁Can	-1034
▁rest	-1035
▁batt	-1036
▁week	-1037
▁Fe	-1038
▁played	-1039
cess	-1040
▁class	-1041
▁incre	-1042
▁took	-1043
ropical	-1044
▁Nov	-1045
▁now	-1046
arl	-1047
▁[	-1048
▁]	-1049
▁build	-1050
▁York	-1051
gin	-1052
aged	-1053
▁world	-1054
▁July	-1055
ages	-1056
▁late	-1057
▁wrote	-1058
▁Tr	-1059
empt	-1060
iving	-1061
ional	-1062
▁won	-1063
ology	-1064
▁species	-1065
ideo	-1066
▁stru	-1067
aim	-1068
▁child	-1069
▁25	-1070
▁much	-1071
▁During	-1072
ody	-1073
▁due	-1074
ified	-1075
▁Gu	-1076
▁serv	-1077
pril	-1078
▁April	-1079
▁single	-1080
▁camp	-1081
▁allow	-1082
ats	-1083
iod	-1084
min	-1085
▁short	-1086
▁differ	-1087
▁port	-1088
▁vers	-1089
▁death	-1090
▁just	-1091
ball	-1092
▁ty	-1093
▁mar	-1094
▁another	-1095
▁included	-1096
▁Euro	-1097
▁poss	-1098
▁January	-1099
▁old	-1100
ility	-1101
ively	-1102
▁storm	-1103
get	-1104
▁even	-1105
▁gun	-1106
▁within	-1107
▁England	-1108
▁list	-1109
ission	-1110
▁left	-1111
ism	-1112
omin	-1113
▁position	-1114
▁named	-1115
▁based	-1116
▁estab	-1117
▁if	-1118
ants	-1119
▁arr	-1120
▁conf	-1121
▁vis	-1122
▁although	-1123
▁prog	-1124
▁attempt	-1125
ax	-1126
ont	-1127
▁30	-1128
▁very	-1129
▁appro	-1130
ina	-1131
▁third	-1132
▁games	-1133
by	-1134
akes	-1135
ital	-1136
▁And	-1137
▁ref	-1138
▁top	-1139
▁belie	-1140
ple	-1141
ctions	-1142
▁track	-1143
▁March	-1144
ner	-1145
▁lit	-1146
▁family	-1147
▁previous	-1148
▁Ge	-1149
▁Mus	-1150
▁Pro	-1151
▁November	-1152
▁Gr	-1153
▁power	-1154
▁tri	-1155
▁event	-1156
▁period	-1157
▁review	-1158
▁Q	-1159
▁best	-1160
▁home	-1161
ilar	-1162
mber	-1163
▁way	-1164
urric	-1165
▁resp	-1166
▁school	-1167
▁Ro	-1168
▁Europe	-1169
▁water	-1170
▁His	-1171
▁government	-1172
ances	-1173
ograp	-1174
ently	-1175
▁Dece	-1176
▁expl	-1177
▁December	-1178
▁192	-1179
▁men	-1180
ret	-1181
▁those	-1182
avy	-1183
raft	-1184
▁By	-1185
▁There	-1186
ger	-1187
▁turn	-1188
▁constru	-1189
ract	-1190
▁hum	-1191
ience	-1192
▁place	-1193
▁City	-1194
▁organ	-1195
ulation	-1196
▁sl	-1197
▁built	-1198
ards	-1199
pend	-1200
▁bre	-1201
ature	-1202
ians	-1203
urther	-1204
▁great	-1205
ides	-1206
▁story	-1207
▁prote	-1208
▁command	-1209
ached	-1210
▁kill	-1211
▁month	-1212
▁When	-1213
▁colle	-1214
ched	-1215
hest	-1216
▁sent	-1217
▁person	-1218
▁original	-1219
ript	-1220
iversity	-1221
itary	-1222
▁make	-1223
▁hand	-1224
eder	-1225
▁100	-1226
▁opp	-1227
▁2009	-1228
▁2010	-1229
▁med	-1230
▁video	-1231
▁National	-1232
▁2008	-1233
▁auth	-1234
▁requ	-1235
▁hal	-1236
ention	-1237
▁present	-1238
oci	-1239
aur	-1240
▁mark	-1241
▁ph	-1242
▁sug	-1243
ham	-1244
▁eng	-1245
▁club	-1246
ences	-1247
riend	-1248
por	-1249
iven	-1250
elt	-1251
aster	-1252
ene	-1253
▁view	-1254
▁Mc	-1255
ically	-1256
self	-1257
▁River	-1258
▁moved	-1259
▁led	-1260
▁capt	-1261
▁role	-1262
▁addition	-1263
▁stand	-1264
▁still	-1265
▁leg	-1266
▁came	-1267
▁local	-1268
▁iss	-1269
rench	-1270
▁repl	-1271
gy	-1272
ense	-1273
aff	-1274
▁often	-1275
urricane	-1276
▁history	-1277
▁common	-1278
▁We	-1279
ival	-1280
▁caus	-1281
▁dest	-1282
▁cour	-1283
ae	-1284
▁Pr	-1285
ison	-1286
▁Man	-1287
aken	-1288
▁dem	-1289
▁effect	-1290
ery	-1291
▁few	-1292
be	-1293
▁Bo	-1294
ady	-1295
ops	-1296
▁No	-1297
▁2007	-1298
▁next	-1299
▁considered	-1300
▁Fl	-1301
▁trad	-1302
eng	-1303
ories	-1304
▁player	-1305
▁suggest	-1306
ling	-1307
lev	-1308
▁star	-1309
▁Sp	-1310
astern	-1311
▁exper	-1312
▁French	-1313
▁my	-1314
side	-1315
▁career	-1316
▁similar	-1317
▁One	-1318
▁recorded	-1319
▁English	-1320
uss	-1321
▁side	-1322
▁right	-1323
rown	-1324
▁Pe	-1325
ined	-1326
let	-1327
▁cr	-1328
▁init	-1329
▁import	-1330
▁Or	-1331
▁real	-1332
▁claim	-1333
que	-1334
▁Batt	-1335
▁company	-1336
ai	-1337
▁cover	-1338
▁published	-1339
▁deb	-1340
▁continued	-1341
rew	-1342
arn	-1343
idge	-1344
▁you	-1345
▁refer	-1346
▁bas	-1347
▁take	-1348
▁without	-1349
▁Ph	-1350
▁mid	-1351
▁sold	-1352
▁songs	-1353
▁different	-1354
ternational	-1355
▁ant	-1356
▁say	-1357
▁With	-1358
▁town	-1359
▁former	-1360
ior	-1361
▁Comp	-1362
▁held	-1363
▁wind	-1364
uted	-1365
atter	-1366
ister	-1367
▁Acc	-1368
▁among	-1369
ness	-1370
▁memb	-1371
▁level	-1372
lu	-1373
▁tot	-1374
▁arch	-1375
▁road	-1376
ne	-1377
▁tem	-1378
▁polit	-1379
▁field	-1380
ged	-1381
▁defe	-1382
▁written	-1383
arch	-1384
thing	-1385
▁State	-1386
bs	-1387
▁plan	-1388
▁every	-1389
ps	-1390
▁es	-1391
▁Port	-1392
▁half	-1393
alk	-1394
▁21	-1395
ampions	-1396
▁Division	-1397
▁tw	-1398
▁2011	-1399
▁release	-1400
resent	-1401
ves	-1402
iment	-1403
▁Will	-1404
estern	-1405
ead	-1406
▁fun	-1407
▁become	-1408
▁av	-1409
▁mag	-1410
▁2006	-1411
tended	-1412
▁commun	-1413
▁further	-1414
▁According	-1415
ensive	-1416
▁Although	-1417
▁west	-1418
▁church	-1419
▁however	-1420
▁23	-1421
▁days	-1422
▁Canad	-1423
▁strong	-1424
yle	-1425
itar	-1426
▁east	-1427
▁find	-1428
▁version	-1429
roy	-1430
lear	-1431
▁join	-1432
br	-1433
▁&	-1434
bru	-1435
ott	-1436
ried	-1437
▁title	-1438
▁Church	-1439
▁compet	-1440
▁Count	-1441
▁particular	-1442
pite	-1443
mp	-1444
▁low	-1445
▁military	-1446
▁par	-1447
▁del	-1448
par	-1449
▁beh	-1450
rodu	-1451
▁Roman	-1452
▁order	-1453
▁League	-1454
▁author	-1455
▁prop	-1456
▁Min	-1457
▁control	-1458
▁foot	-1459
aly	-1460
thern	-1461
▁Song	-1462
bruary	-1463
outhern	-1464
▁February	-1465
▁Per	-1466
▁Gener	-1467
▁times	-1468
fric	-1469
▁22	-1470
▁gave	-1471
▁less	-1472
▁!	-1473
▁26	-1474
▁sit	-1475
▁members	-1476
▁reported	-1477
raw	-1478
ylan	-1479
▁band	-1480
▁vict	-1481
▁Dylan	-1482
ots	-1483
▁24	-1484
▁Geor	-1485
▁chang	-1486
▁Ab	-1487
▁fore	-1488
▁nort	-1489
▁produced	-1490
ches	-1491
▁2012	-1492
levision	-1493
▁prof	-1494
▁el	-1495
▁total	-1496
augh	-1497
ices	-1498
▁Old	-1499
ailed	-1500
▁Park	-1501
urs	-1502
▁West	-1503
▁stat	-1504
aces	-1505
iety	-1506
line	-1507
▁popular	-1508
▁production	-1509
▁fre	-1510
▁decl	-1511
ception	-1512
▁Bar	-1513
▁tropical	-1514
ront	-1515
▁nov	-1516
hern	-1517
oung	-1518
▁project	-1519
▁sol	-1520
▁forces	-1521
apan	-1522
itions	-1523
▁Japan	-1524
▁point	-1525
▁children	-1526
▁cur	-1527
▁cult	-1528
▁Par	-1529
▁having	-1530
▁include	-1531
reen	-1532
▁obs	-1533
▁critic	-1534
▁histor	-1535
pec	-1536
ler	-1537
▁28	-1538
▁invol	-1539
▁X	-1540
alion	-1541
▁lost	-1542
▁influ	-1543
ering	-1544
▁given	-1545
▁want	-1546
▁Ass	-1547
inc	-1548
ression	-1549
▁country	-1550
sh	-1551
▁fr	-1552
▁fire	-1553
▁signific	-1554
▁represent	-1555
▁manag	-1556
ape	-1557
ize	-1558
omen	-1559
▁2013	-1560
chn	-1561
▁Sim	-1562
omet	-1563
▁seen	-1564
▁site	-1565
osp	-1566
▁Des	-1567
▁eight	-1568
▁program	-1569
▁Am	-1570
vers	-1571
▁never	-1572
▁making	-1573
▁far	-1574
▁Miss	-1575
▁establ	-1576
▁stated	-1577
▁Ed	-1578
▁det	-1579
▁comb	-1580
▁Afric	-1581
▁press	-1582
▁General	-1583
▁body	-1584
▁should	-1585
▁aff	-1586
▁Cent	-1587
▁While	-1588
▁match	-1589
ither	-1590
▁fact	-1591
ploy	-1592
▁returned	-1593
reet	-1594
▁Dav	-1595
▁pat	-1596
ising	-1597
▁University	-1598
rent	-1599
▁fem	-1600
craft	-1601
enc	-1602
▁ord	-1603
▁ft	-1604
ours	-1605
▁Pol	-1606
▁post	-1607
▁190	-1608
▁These	-1609
▁America	-1610
▁Ear	-1611
▁ships	-1612
▁established	-1613
sequ	-1614
▁how	-1615
▁earl	-1616
▁sound	-1617
▁island	-1618
ampionship	-1619
▁announ	-1620
▁population	-1621
▁Ste	-1622
▁equ	-1623
▁struct	-1624
▁reached	-1625
▁Jack	-1626
▁chart	-1627
▁50	-1628
ably	-1629
ades	-1630
▁Ire	-1631
▁soc	-1632
▁away	-1633
▁noted	-1634
▁Ireland	-1635
▁Ha	-1636
▁Air	-1637
igade	-1638
play	-1639
▁too	-1640
ope	-1641
▁god	-1642
▁across	-1643
▁friend	-1644
▁ground	-1645
▁thought	-1646
▁developed	-1647
▁throughout	-1648
▁Ev	-1649
▁light	-1650
ox	-1651
fic	-1652
▁seven	-1653
me	-1654
▁27	-1655
▁gen	-1656
ondon	-1657
▁London	-1658
▁introdu	-1659
▁div	-1660
▁using	-1661
▁himself	-1662
ground	-1663
▁development	-1664
▁Ne	-1665
▁William	-1666
▁good	-1667
▁destroy	-1668
▁la	-1669
▁Feder	-1670
aint	-1671
ford	-1672
▁hig	-1673
▁lim	-1674
ument	-1675
ese	-1676
most	-1677
▁Mich	-1678
▁felt	-1679
▁significant	-1680
reek	-1681
used	-1682
▁Australia	-1683
yn	-1684
ctor	-1685
idence	-1686
ological	-1687
▁performed	-1688
▁important	-1689
▁cast	-1690
amb	-1691
work	-1692
▁pra	-1693
▁writing	-1694
▁Atl	-1695
▁miles	-1696
arr	-1697
ords	-1698
▁cou	-1699
▁father	-1700
▁television	-1701
int	-1702
oon	-1703
ream	-1704
▁ide	-1705
▁Black	-1706
▁various	-1707
▁interest	-1708
atic	-1709
ivil	-1710
▁areas	-1711
▁human	-1712
imately	-1713
▁tour	-1714
▁black	-1715
▁night	-1716
ones	-1717
▁typ	-1718
▁died	-1719
▁full	-1720
utes	-1721
▁look	-1722
▁prot	-1723
▁went	-1724
ket	-1725
aren	-1726
▁rad	-1727
▁wat	-1728
▁Char	-1729
▁Rich	-1730
▁activ	-1731
▁white	-1732
▁does	-1733
▁successful	-1734
aign	-1735
▁Rober	-1736
▁events	-1737
▁Reg	-1738
▁need	-1739
ief	-1740
▁law	-1741
▁Road	-1742
aul	-1743
▁players	-1744
▁started	-1745
ges	-1746
▁Roy	-1747
▁James	-1748
▁modern	-1749
▁mm	-1750
▁ten	-1751
▁discover	-1752
▁see	-1753
▁feet	-1754
▁formed	-1755
▁cor	-1756
itive	-1757
▁poem	-1758
tain	-1759
antic	-1760
▁range	-1761
▁conv	-1762
▁County	-1763
▁performance	-1764
ung	-1765
▁mix	-1766
▁house	-1767
▁style	-1768
▁building	-1769
▁relations	-1770
▁ball	-1771
▁caused	-1772
▁cat	-1773
▁force	-1774
na	-1775
▁age	-1776
▁prim	-1777
▁read	-1778
▁put	-1779
ald	-1780
ster	-1781
▁Mount	-1782
▁El	-1783
▁Su	-1784
▁You	-1785
▁trav	-1786
▁vill	-1787
ration	-1788
▁techn	-1789
▁cy	-1790
alth	-1791
▁created	-1792
af	-1793
ael	-1794
ico	-1795
▁189	-1796
▁Pal	-1797
▁novel	-1798
▁official	-1799
con	-1800
▁2004	-1801
ublic	-1802
▁2005	-1803
▁suff	-1804
▁entire	-1805
isc	-1806
ogn	-1807
ush	-1808
▁To	-1809
▁ke	-1810
▁able	-1811
▁political	-1812
ec	-1813
ask	-1814
ourn	-1815
▁characters	-1816
▁get	-1817
▁sum	-1818
▁coast	-1819
▁relig	-1820
▁others	-1821
▁Mag	-1822
▁High	-1823
▁construction	-1824
omb	-1825
abor	-1826
aves	-1827
▁bird	-1828
▁begin	-1829
oll	-1830
iness	-1831
▁occur	-1832
ring	-1833
▁pit	-1834
▁pri	-1835
▁son	-1836
epend	-1837
▁Town	-1838
▁cert	-1839
day	-1840
▁Gl	-1841
ying	-1842
ressed	-1843
▁once	-1844
▁Ang	-1845
ample	-1846
▁remained	-1847
▁located	-1848
rest	-1849
▁ste	-1850
asing	-1851
isted	-1852
iting	-1853
▁Care	-1854
▁surv	-1855
▁becom	-1856
▁mount	-1857
ination	-1858
▁battle	-1859
▁promot	-1860
fall	-1861
▁Cor	-1862
▁lik	-1863
▁tro	-1864
ficult	-1865
▁works	-1866
▁scored	-1867
▁Kingdom	-1868
▁national	-1869
▁difficult	-1870
ected	-1871
▁Hist	-1872
▁produc	-1873
▁red	-1874
▁meet	-1875
▁Island	-1876
▁campaign	-1877
▁announced	-1878
▁completed	-1879
▁tradition	-1880
▁Australian	-1881
▁Cal	-1882
▁Sec	-1883
▁Som	-1884
▁rank	-1885
uck	-1886
▁stars	-1887
▁region	-1888
ator	-1889
▁fig	-1890
▁guns	-1891
▁hold	-1892
▁rock	-1893
▁Cup	-1894
▁Mor	-1895
▁redu	-1896
▁Company	-1897
rie	-1898
▁sk	-1899
iers	-1900
▁little	-1901
▁process	-1902
hem	-1903
▁Rec	-1904
▁fav	-1905
▁goal	-1906
▁help	-1907
▁fight	-1908
▁highway	-1909
▁instead	-1910
irc	-1911
ivid	-1912
▁tre	-1913
▁val	-1914
▁grow	-1915
▁pred	-1916
▁added	-1917
▁gl	-1918
ament	-1919
itted	-1920
rought	-1921
▁Ol	-1922
▁let	-1923
▁cross	-1924
▁least	-1925
▁followed	-1926
▁31	-1927
ounc	-1928
▁fac	-1929
▁peak	-1930
▁front	-1931
▁appeared	-1932
▁Ke	-1933
quad	-1934
▁rev	-1935
▁born	-1936
▁know	-1937
▁killed	-1938
leet	-1939
▁months	-1940
▁originally	-1941
reg	-1942
▁er	-1943
▁Army	-1944
▁wife	-1945
elling	-1946
▁comment	-1947
orse	-1948
▁David	-1949
▁southern	-1950
oice	-1951
▁cas	-1952
▁Bill	-1953
▁loss	-1954
▁Grand	-1955
enth	-1956
ries	-1957
▁Ham	-1958
▁fif	-1959
▁nuc	-1960
ality	-1961
enced	-1962
▁hurricane	-1963
▁women	-1964
▁associ	-1965
▁agre	-1966
▁Music	-1967
▁ident	-1968
▁eastern	-1969
bo	-1970
▁29	-1971
angu	-1972
▁relationship	-1973
▁2003	-1974
▁mass	-1975
▁critics	-1976
off	-1977
▁Some	-1978
▁accom	-1979
▁France	-1980
▁mother	-1981
▁eventually	-1982
acy	-1983
▁40	-1984
▁185	-1985
▁award	-1986
▁features	-1987
gr	-1988
idd	-1989
lect	-1990
▁bus	-1991
▁2015	-1992
▁Other	-1993
field	-1994
▁live	-1995
▁broad	-1996
com	-1997
▁aud	-1998
▁anim	-1999
▁cond	-2000
▁young	-2001
app	-2002
ray	-2003
▁cell	-2004
▁stri	-2005
▁route	-2006
▁taken	-2007
▁appoin	-2008
▁fourth	-2009
▁recogn	-2010
▁Two	-2011
▁served	-2012
here	-2013
▁bar	-2014
▁Ex	-2015
ully	-2016
emy	-2017
ota	-2018
▁estim	-2019
▁damage	-2020
▁profess	-2021
antry	-2022
▁lack	-2023
arliam	-2024
▁heavy	-2025
▁sw	-2026
inal	-2027
ique	-2028
▁sex	-2029
▁base	-2030
▁either	-2031
▁decided	-2032
▁Battalion	-2033
▁voc	-2034
osaur	-2035
▁Love	-2036
▁aver	-2037
▁proble	-2038
▁Sw	-2039
olution	-2040
▁behind	-2041
▁commer	-2042
▁condom	-2043
aper	-2044
azine	-2045
gether	-2046
▁believed	-2047
▁together	-2048
▁mor	-2049
▁separ	-2050
▁Robert	-2051
chie	-2052
▁arg	-2053
▁super	-2054
ille	-2055
▁God	-2056
ought	-2057
▁Carey	-2058
▁individ	-2059
▁playing	-2060
arliament	-2061
▁ve	-2062
▁impro	-2063
igned	-2064
ization	-2065
ouncil	-2066
▁Royal	-2067
▁creat	-2068
▁example	-2069
▁special	-2070
▁188	-2071
▁Mon	-2072
▁clos	-2073
▁move	-2074
▁close	-2075
▁almost	-2076
▁accept	-2077
lo	-2078
hys	-2079
▁Mex	-2080
▁quar	-2081
ements	-2082
▁leading	-2083
▁European	-2084
mar	-2085
cial	-2086
▁ask	-2087
▁burn	-2088
▁langu	-2089
▁Federer	-2090
▁service	-2091
▁generally	-2092
aching	-2093
▁mater	-2094
▁round	-2095
▁opened	-2096
▁towards	-2097
▁elements	-2098
▁hy	-2099
▁arm	-2100
▁fall	-2101
urb	-2102
▁Ber	-2103
▁Ser	-2104
▁dou	-2105
▁sour	-2106
▁weeks	-2107
▁Brigade	-2108
▁brought	-2109
▁non	-2110
▁miss	-2111
iction	-2112
▁finished	-2113
▁International	-2114
▁Cr	-2115
▁Ir	-2116
▁ce	-2117
▁ra	-2118
illa	-2119
rict	-2120
▁circ	-2121
▁laun	-2122
▁Wales	-2123
ceed	-2124
▁saw	-2125
icated	-2126
▁study	-2127
▁featured	-2128
▁Viet	-2129
▁host	-2130
▁respect	-2131
▁aircraft	-2132
▁Flor	-2133
iation	-2134
▁regular	-2135
ida	-2136
▁enc	-2137
▁draw	-2138
ests	-2139
iron	-2140
▁vol	-2141
▁White	-2142
▁points	-2143
▁general	-2144
ned	-2145
read	-2146
ston	-2147
ways	-2148
▁Hen	-2149
▁Part	-2150
▁rese	-2151
etwork	-2152
▁elect	-2153
▁contract	-2154
▁directed	-2155
ze	-2156
▁central	-2157
▁provided	-2158
▁Championship	-2159
hic	-2160
ordan	-2161
▁meas	-2162
▁action	-2163
val	-2164
▁35	-2165
▁Sy	-2166
▁Act	-2167
▁Har	-2168
▁Play	-2169
▁fund	-2170
▁upon	-2171
ography	-2172
▁inform	-2173
▁director	-2174
iol	-2175
▁Game	-2176
▁mean	-2177
▁wall	-2178
▁appearance	-2179
eum	-2180
umb	-2181
▁186	-2182
▁Bro	-2183
▁wid	-2184
▁East	-2185
▁coll	-2186
▁Follow	-2187
▁Jordan	-2188
▁earlier	-2189
▁mi	-2190
ency	-2191
odes	-2192
▁From	-2193
▁Thom	-2194
▁yard	-2195
▁2014	-2196
▁Pres	-2197
▁king	-2198
▁sequ	-2199
▁flood	-2200
▁female	-2201
▁rather	-2202
▁Atlantic	-2203
bit	-2204
ino	-2205
irl	-2206
medi	-2207
▁indust	-2208
▁troops	-2209
▁current	-2210
▁Du	-2211
▁largest	-2212
▁victory	-2213
▁Following	-2214
▁Jew	-2215
▁dev	-2216
▁ren	-2217
oring	-2218
▁reve	-2219
▁George	-2220
▁employ	-2221
▁manager	-2222
▁subsequ	-2223
▁Christian	-2224
▁operations	-2225
▁particularly	-2226
ming	-2227
▁Day	-2228
▁Mad	-2229
▁Hero	-2230
▁cost	-2231
▁House	-2232
▁achie	-2233
oid	-2234
ude	-2235
cher	-2236
uter	-2237
▁Rep	-2238
▁Mary	-2239
▁wanted	-2240
▁opening	-2241
stit	-2242
▁beg	-2243
▁condu	-2244
mb	-2245
eler	-2246
orts	-2247
▁Red	-2248
▁yards	-2249
▁evidence	-2250
iber	-2251
ouri	-2252
▁cut	-2253
▁exc	-2254
▁prob	-2255
ounter	-2256
▁river	-2257
▁reason	-2258
▁Command	-2259
▁Florida	-2260
▁northern	-2261
▁insp	-2262
▁stage	-2263
▁member	-2264
cast	-2265
▁500	-2266
ength	-2267
▁Rock	-2268
▁crew	-2269
▁Street	-2270
▁engine	-2271
▁allowed	-2272
▁outside	-2273
▁possible	-2274
oo	-2275
▁bi	-2276
▁foc	-2277
▁stren	-2278
▁saying	-2279
sel	-2280
▁Med	-2281
▁ill	-2282
ellow	-2283
▁Oliv	-2284
ania	-2285
▁hit	-2286
cript	-2287
erous	-2288
▁whom	-2289
atural	-2290
▁hours	-2291
anch	-2292
west	-2293
conom	-2294
▁case	-2295
ential	-2296
▁nomin	-2297
ators	-2298
▁2001	-2299
▁fort	-2300
▁deter	-2301
▁exist	-2302
▁regard	-2303
▁worked	-2304
▁account	-2305
▁Missouri	-2306
alt	-2307
▁Od	-2308
▁Most	-2309
▁pract	-2310
▁streng	-2311
ama	-2312
eal	-2313
atin	-2314
▁Bra	-2315
▁mot	-2316
▁length	-2317
▁territ	-2318
▁respons	-2319
▁working	-2320
▁My	-2321
cent	-2322
▁news	-2323
▁Gal	-2324
▁reb	-2325
board	-2326
artment	-2327
osition	-2328
▁material	-2329
ata	-2330
▁bur	-2331
▁gold	-2332
▁mach	-2333
▁poor	-2334
▁designed	-2335
ump	-2336
▁Bay	-2337
▁neg	-2338
▁rul	-2339
▁Paul	-2340
▁Tech	-2341
▁free	-2342
▁love	-2343
▁seem	-2344
ault	-2345
thod	-2346
▁Wal	-2347
▁stay	-2348
anding	-2349
▁praised	-2350
uel	-2351
▁Co	-2352
ights	-2353
▁Mark	-2354
ishing	-2355
▁First	-2356
▁avail	-2357
▁Indian	-2358
▁forced	-2359
▁remains	-2360
▁football	-2361
ores	-2362
▁187	-2363
▁1970	-2364
▁Best	-2365
▁Phil	-2366
ana	-2367
▁bill	-2368
▁think	-2369
▁winds	-2370
▁Michael	-2371
▁station	-2372
less	-2373
▁Wil	-2374
▁cop	-2375
▁goals	-2376
▁quick	-2377
▁treat	-2378
▁increased	-2379
aps	-2380
▁di	-2381
ened	-2382
heast	-2383
▁past	-2384
▁previously	-2385
ago	-2386
ica	-2387
ius	-2388
gypt	-2389
vest	-2390
▁gre	-2391
▁Egypt	-2392
▁above	-2393
▁replaced	-2394
gg	-2395
ule	-2396
xas	-2397
vert	-2398
▁But	-2399
▁Cap	-2400
▁soon	-2401
▁invest	-2402
▁Richard	-2403
▁ly	-2404
▁Bus	-2405
▁viol	-2406
▁civil	-2407
▁Despite	-2408
▁business	-2409
▁hon	-2410
▁interview	-2411
▁mer	-2412
▁2000	-2413
ession	-2414
▁Henry	-2415
ributed	-2416
▁threat	-2417
▁writer	-2418
▁commercial	-2419
hens	-2420
irth	-2421
▁mph	-2422
asion	-2423
erved	-2424
▁Hill	-2425
▁units	-2426
▁Canada	-2427
▁estimated	-2428
ara	-2429
▁Que	-2430
▁San	-2431
▁esc	-2432
anned	-2433
▁1990	-2434
▁clear	-2435
▁quarter	-2436
▁Kh	-2437
▁pain	-2438
▁somet	-2439
▁joined	-2440
▁claimed	-2441
▁highest	-2442
▁Japanese	-2443
utive	-2444
▁situ	-2445
▁surf	-2446
▁trib	-2447
▁Brown	-2448
▁Oldham	-2449
▁placed	-2450
▁involved	-2451
▁specific	-2452
wh	-2453
ye	-2454
▁z	-2455
▁lo	-2456
▁must	-2457
▁Times	-2458
▁signed	-2459
▁discuss	-2460
▁President	-2461
▁suggested	-2462
▁Dep	-2463
▁Tor	-2464
▁Vir	-2465
▁court	-2466
▁parts	-2467
▁react	-2468
oms	-2469
▁183	-2470
▁intens	-2471
▁Olivier	-2472
▁western	-2473
BC	-2474
clus	-2475
iter	-2476
▁priv	-2477
▁Carol	-2478
▁Vietn	-2479
▁itself	-2480
▁league	-2481
▁proper	-2482
▁Dr	-2483
wood	-2484
▁Cro	-2485
▁Whe	-2486
istic	-2487
▁pers	-2488
▁India	-2489
▁Later	-2490
▁Mexico	-2491
▁object	-2492
▁average	-2493
tt	-2494
thlet	-2495
▁Arab	-2496
▁shot	-2497
▁contr	-2498
▁change	-2499
▁taking	-2500
▁available	-2501
olic	-2502
▁McC	-2503
osing	-2504
▁come	-2505
▁cycl	-2506
ington	-2507
▁scene	-2508
▁Govern	-2509
▁School	-2510
▁introduced	-2511
▁Im	-2512
ving	-2513
▁fly	-2514
▁term	-2515
▁whose	-2516
▁village	-2517
▁recording	-2518
▁transport	-2519
ita	-2520
now	-2521
▁Val	-2522
▁inj	-2523
achel	-2524
▁Cong	-2525
▁heav	-2526
▁hous	-2527
▁Thomas	-2528
▁brother	-2529
▁transfer	-2530
bor	-2531
nes	-2532
▁Var	-2533
▁Hall	-2534
▁Irish	-2535
ximately	-2536
▁religious	-2537
quar	-2538
▁pen	-2539
ready	-2540
▁race	-2541
lected	-2542
porary	-2543
▁break	-2544
ibility	-2545
▁travel	-2546
AF	-2547
▁36	-2548
band	-2549
onst	-2550
▁Pac	-2551
▁don	-2552
acing	-2553
▁1960	-2554
▁slow	-2555
▁told	-2556
▁shows	-2557
▁Britain	-2558
▁damaged	-2559
▁network	-2560
▁-	-2561
lic	-2562
abit	-2563
▁Hel	-2564
rated	-2565
▁Card	-2566
▁exec	-2567
▁rail	-2568
▁stop	-2569
pected	-2570
▁names	-2571
▁remov	-2572
▁turned	-2573
▁Republic	-2574
▁increasing	-2575
▁Sun	-2576
▁That	-2577
▁give	-2578
▁mult	-2579
▁lines	-2580
▁subject	-2581
▁Hurricane	-2582
ett	-2583
▁Many	-2584
▁nine	-2585
▁Great	-2586
▁Guitar	-2587
▁Scient	-2588
▁defend	-2589
▁nearly	-2590
▁despite	-2591
▁appointed	-2592
▁Sm	-2593
oney	-2594
▁Not	-2595
▁pie	-2596
▁Zeal	-2597
▁feel	-2598
▁size	-2599
▁Zealand	-2600
▁complet	-2601
▁community	-2602
▁structure	-2603
▁op	-2604
elled	-2605
▁date	-2606
▁diss	-2607
▁educ	-2608
▁hard	-2609
▁phys	-2610
▁econom	-2611
▁passed	-2612
▁independ	-2613
▁surround	-2614
▁NY	-2615
▁Mac	-2616
▁pur	-2617
iding	-2618
ronic	-2619
▁Gold	-2620
▁Union	-2621
▁liter	-2622
ruction	-2623
pecially	-2624
▁certain	-2625
▁establish	-2626
▁initially	-2627
▁international	-2628
head	-2629
▁184	-2630
▁grad	-2631
▁going	-2632
▁withd	-2633
▁immedi	-2634
▁social	-2635
▁already	-2636
ume	-2637
▁60	-2638
▁Ac	-2639
anna	-2640
▁Rou	-2641
▁rap	-2642
inese	-2643
▁chap	-2644
▁deal	-2645
▁Early	-2646
▁Super	-2647
▁might	-2648
▁archae	-2649
▁assist	-2650
▁failed	-2651
▁Chinese	-2652
▁display	-2653
▁winning	-2654
▁45	-2655
▁Ever	-2656
▁type	-2657
hedral	-2658
▁occup	-2659
▁score	-2660
▁states	-2661
▁Pacific	-2662
▁capital	-2663
▁language	-2664
▁probably	-2665
▁training	-2666
▁according	-2667
▁especially	-2668
iff	-2669
▁Em	-2670
▁doc	-2671
arily	-2672
▁2002	-2673
▁Mont	-2674
▁food	-2675
▁Colle	-2676
▁debut	-2677
▁issue	-2678
▁minor	-2679
▁forest	-2680
for	-2681
urt	-2682
aled	-2683
▁III	-2684
▁Pre	-2685
▁fut	-2686
▁male	-2687
▁test	-2688
▁wood	-2689
▁daugh	-2690
▁studio	-2691
▁Os	-2692
rick	-2693
ties	-2694
▁Mos	-2695
▁tow	-2696
▁conn	-2697
▁spent	-2698
▁History	-2699
▁Wheeler	-2700
▁arrived	-2701
▁ordered	-2702
▁includes	-2703
▁Ag	-2704
▁Sl	-2705
pper	-2706
▁Jin	-2707
▁Film	-2708
▁army	-2709
▁visit	-2710
▁Awards	-2711
▁enough	-2712
▁Canadian	-2713
▁particip	-2714
▁remaining	-2715
onse	-2716
▁mem	-2717
odies	-2718
▁Cath	-2719
▁Navy	-2720
▁fail	-2721
▁mixed	-2722
▁forward	-2723
▁sometimes	-2724
ula	-2725
▁UK	-2726
▁cru	-2727
atory	-2728
▁Peter	-2729
▁reviews	-2730
▁complete	-2731
▁required	-2732
▁approximately	-2733
ays	-2734
nel	-2735
fect	-2736
▁Res	-2737
▁pot	-2738
aries	-2739
ulated	-2740
▁Creek	-2741
▁latter	-2742
▁Don	-2743
▁abs	-2744
▁Rose	-2745
▁Sing	-2746
▁rain	-2747
ference	-2748
ilities	-2749
▁Africa	-2750
▁Associ	-2751
▁center	-2752
▁remain	-2753
▁beginning	-2754
hib	-2755
ulf	-2756
▁Law	-2757
▁Angel	-2758
▁block	-2759
eth	-2760
ateg	-2761
▁anti	-2762
tation	-2763
▁lower	-2764
▁limited	-2765
▁decision	-2766
ste	-2767
chol	-2768
enes	-2769
▁Art	-2770
▁changes	-2771
▁usually	-2772
▁Regiment	-2773
▁additional	-2774
▁Mo	-2775
ites	-2776
rian	-2777
▁Jer	-2778
▁den	-2779
▁indic	-2780
▁journ	-2781
▁Rachel	-2782
▁Virgin	-2783
▁better	-2784
▁running	-2785
▁response	-2786
▁president	-2787
itz	-2788
▁Soc	-2789
▁key	-2790
▁ended	-2791
▁larger	-2792
▁positive	-2793
▁students	-2794
▁Nort	-2795
▁dead	-2796
▁woman	-2797
quadron	-2798
▁mention	-2799
▁magazine	-2800
▁supported	-2801
lymp	-2802
rics	-2803
▁Penn	-2804
▁Stud	-2805
▁Award	-2806
▁Olymp	-2807
▁Scott	-2808
▁notes	-2809
▁touch	-2810
▁police	-2811
▁pressure	-2812
▁depression	-2813
aval	-2814
▁Ver	-2815
▁cal	-2816
▁poet	-2817
▁wide	-2818
▁birds	-2819
▁amount	-2820
▁Charles	-2821
gl	-2822
edy	-2823
enty	-2824
▁1995	-2825
▁quest	-2826
▁shown	-2827
▁prevent	-2828
▁Billboard	-2829
aph	-2830
aker	-2831
ases	-2832
▁space	-2833
▁future	-2834
▁related	-2835
▁38	-2836
back	-2837
▁1980	-2838
▁fifth	-2839
▁provide	-2840
▁defeated	-2841
go	-2842
rd	-2843
arm	-2844
▁TV	-2845
▁Pri	-2846
▁Tom	-2847
▁hom	-2848
stant	-2849
▁face	-2850
uments	-2851
▁discovered	-2852
ih	-2853
tr	-2854
leg	-2855
owl	-2856
▁Ter	-2857
▁syn	-2858
▁Fort	-2859
▁Route	-2860
▁staff	-2861
▁temper	-2862
▁feature	-2863
men	-2864
▁80	-2865
▁anc	-2866
▁prior	-2867
▁becoming	-2868
co	-2869
ids	-2870
ifa	-2871
irt	-2872
ands	-2873
uals	-2874
▁aut	-2875
▁doll	-2876
▁birth	-2877
▁cm	-2878
▁Off	-2879
riage	-2880
▁exam	-2881
mitted	-2882
▁frequ	-2883
▁Western	-2884
▁section	-2885
▁smaller	-2886
aby	-2887
onc	-2888
bert	-2889
gely	-2890
inct	-2891
▁App	-2892
▁disp	-2893
▁idea	-2894
idents	-2895
▁groups	-2896
▁screen	-2897
▁intended	-2898
▁Scientology	-2899
unk	-2900
▁Inf	-2901
aring	-2902
ishop	-2903
stein	-2904
selves	-2905
▁Frank	-2906
▁Haifa	-2907
▁metres	-2908
▁mostly	-2909
▁conclud	-2910
▁percent	-2911
▁themselves	-2912
aut	-2913
ney	-2914
agon	-2915
▁Hot	-2916
▁Tur	-2917
anies	-2918
orial	-2919
quare	-2920
▁2016	-2921
▁Star	-2922
▁Year	-2923
▁fleet	-2924
▁likely	-2925
▁minutes	-2926
▁surface	-2927
▁captured	-2928
▁referred	-2929
▁research	-2930
▁La	-2931
enon	-2932
rief	-2933
▁fir	-2934
ching	-2935
iforn	-2936
▁word	-2937
▁Croat	-2938
▁Since	-2939
▁domin	-2940
▁office	-2941
▁largely	-2942
▁musical	-2943
▁problems	-2944
▁Association	-2945
▁professional	-2946
▁75	-2947
▁FI	-2948
down	-2949
rael	-2950
▁flow	-2951
▁Light	-2952
▁Under	-2953
▁media	-2954
▁entered	-2955
▁Parliament	-2956
ee	-2957
gar	-2958
▁sem	-2959
▁makes	-2960
▁contem	-2961
▁moving	-2962
▁broadcast	-2963
omm	-2964
ners	-2965
▁Sov	-2966
▁cer	-2967
▁der	-2968
▁emb	-2969
▁learn	-2970
▁radio	-2971
▁Portug	-2972
quarters	-2973
▁contains	-2974
▁constructed	-2975
gu	-2976
uk	-2977
oul	-2978
sec	-2979
▁ens	-2980
▁1999	-2981
▁Oper	-2982
▁keep	-2983
▁link	-2984
▁summer	-2985
▁Californ	-2986
uf	-2987
▁Je	-2988
bers	-2989
ises	-2990
ples	-2991
pped	-2992
▁Russ	-2993
▁cele	-2994
▁pair	-2995
▁money	-2996
▁guitar	-2997
▁effects	-2998
to	-2999
ios	-3000
cean	-3001
ergy	-3002
itte	-3003
▁How	-3004
▁sea	-3005
anish	-3006
ville	-3007
▁1950	-3008
isions	-3009
▁Earth	-3010
▁grant	-3011
▁voice	-3012
▁Israel	-3013
▁Jewish	-3014
▁listed	-3015
▁nature	-3016
▁observ	-3017
▁ranked	-3018
▁Council	-3019
▁stories	-3020
▁majority	-3021
▁lay	-3022
▁adop	-3023
▁self	-3024
veston	-3025
▁paren	-3026
▁arrang	-3027
▁create	-3028
▁Galveston	-3029
▁experience	-3030
den	-3031
uing	-3032
▁Met	-3033
▁Ott	-3034
eding	-3035
under	-3036
▁Wood	-3037
▁leaving	-3038
▁critical	-3039
▁Chic	-3040
▁thus	-3041
▁favor	-3042
▁primary	-3043
lor	-3044
ylv	-3045
ires	-3046
▁dro	-3047
owler	-3048
urity	-3049
▁gods	-3050
minist	-3051
▁lived	-3052
▁schol	-3053
▁agreed	-3054
▁always	-3055
▁lyrics	-3056
▁Another	-3057
▁consist	-3058
▁location	-3059
▁Go	-3060
aven	-3061
iest	-3062
reak	-3063
teen	-3064
▁Fin	-3065
▁lab	-3066
▁pay	-3067
imate	-3068
▁rare	-3069
▁runs	-3070
▁brief	-3071
▁compl	-3072
▁films	-3073
▁controll	-3074
▁launched	-3075
▁officers	-3076
▁California	-3077
tar	-3078
ping	-3079
pool	-3080
▁Bey	-3081
▁Camp	-3082
▁Serv	-3083
▁coin	-3084
▁sett	-3085
▁colon	-3086
▁teams	-3087
osaurus	-3088
▁culture	-3089
▁friends	-3090
▁quickly	-3091
▁Catholic	-3092
▁Hol	-3093
▁Brad	-3094
change	-3095
hester	-3096
▁meant	-3097
▁minute	-3098
▁episodes	-3099
▁occurred	-3100
▁proposed	-3101
key	-3102
oke	-3103
oor	-3104
pan	-3105
ror	-3106
urg	-3107
▁If	-3108
▁Up	-3109
arts	-3110
▁Ale	-3111
▁prem	-3112
▁equip	-3113
▁access	-3114
▁settle	-3115
▁attract	-3116
▁whether	-3117
▁assigned	-3118
▁increase	-3119
zy	-3120
kan	-3121
▁sat	-3122
▁vot	-3123
affic	-3124
▁adap	-3125
▁fans	-3126
▁pian	-3127
illery	-3128
▁Saint	-3129
▁forms	-3130
atively	-3131
▁defeat	-3132
▁appears	-3133
▁changed	-3134
▁traffic	-3135
ification	-3136
▁destroyed	-3137
▁Mr	-3138
imum	-3139
▁400	-3140
▁Nic	-3141
▁Nix	-3142
▁tons	-3143
▁earth	-3144
ability	-3145
ospital	-3146
▁longer	-3147
▁script	-3148
▁Central	-3149
▁Chicago	-3150
▁meaning	-3151
▁commission	-3152
asy	-3153
▁70	-3154
▁job	-3155
▁1940	-3156
▁Ross	-3157
▁theme	-3158
▁Battle	-3159
▁concern	-3160
▁numbers	-3161
▁soldiers	-3162
▁competition	-3163
sis	-3164
vey	-3165
aded	-3166
onym	-3167
ruit	-3168
▁Haw	-3169
▁mom	-3170
andon	-3171
▁Alice	-3172
▁bound	-3173
▁focus	-3174
▁leave	-3175
▁reach	-3176
▁trade	-3177
▁celebr	-3178
▁awarded	-3179
▁carried	-3180
▁Northern	-3181
▁33	-3182
▁Qu	-3183
▁hop	-3184
▁1998	-3185
▁girl	-3186
undred	-3187
▁Enter	-3188
▁Latin	-3189
▁private	-3190
▁daughter	-3191
▁conducted	-3192
bery	-3193
▁Lou	-3194
▁sil	-3195
▁Over	-3196
▁cred	-3197
▁deep	-3198
▁newsp	-3199
▁natural	-3200
▁records	-3201
▁underst	-3202
▁subsequently	-3203
▁300	-3204
▁Mey	-3205
▁ran	-3206
▁unc	-3207
ortun	-3208
▁1930	-3209
▁Scot	-3210
▁Villa	-3211
▁analy	-3212
▁cause	-3213
▁plans	-3214
▁tourn	-3215
▁consider	-3216
▁fighting	-3217
zz	-3218
ari	-3219
iva	-3220
oir	-3221
▁Dj	-3222
▁Mer	-3223
▁ded	-3224
itect	-3225
▁1993	-3226
▁bord	-3227
▁Alkan	-3228
▁shoot	-3229
▁takes	-3230
▁Polish	-3231
▁Second	-3232
▁overall	-3233
▁industry	-3234
▁commented	-3235
▁influence	-3236
▁Ma	-3237
ruct	-3238
▁Pat	-3239
▁cle	-3240
ption	-3241
▁Fore	-3242
▁Ital	-3243
▁bomb	-3244
usband	-3245
▁Liver	-3246
▁Nixon	-3247
▁asked	-3248
▁bring	-3249
▁concert	-3250
▁finally	-3251
▁serious	-3252
▁election	-3253
▁Liverpool	-3254
▁32	-3255
▁Tay	-3256
▁deg	-3257
▁imm	-3258
▁kil	-3259
▁Form	-3260
▁emer	-3261
tained	-3262
▁whole	-3263
▁ending	-3264
▁method	-3265
▁greater	-3266
▁compared	-3267
hou	-3268
oly	-3269
sen	-3270
▁BC	-3271
▁Its	-3272
▁done	-3273
▁Sever	-3274
▁Texas	-3275
stitute	-3276
▁double	-3277
▁unable	-3278
▁Christm	-3279
▁married	-3280
▁positions	-3281
well	-3282
▁Tre	-3283
▁inn	-3284
▁our	-3285
aches	-3286
anced	-3287
erset	-3288
inent	-3289
▁Lady	-3290
▁Tour	-3291
▁cann	-3292
▁upper	-3293
▁Somerset	-3294
▁buildings	-3295
umn	-3296
anks	-3297
gian	-3298
ills	-3299
▁che	-3300
▁got	-3301
▁sus	-3302
▁tar	-3303
▁yet	-3304
▁Mart	-3305
▁dram	-3306
▁thick	-3307
▁Mosley	-3308
▁centre	-3309
▁earned	-3310
▁flight	-3311
▁Tropical	-3312
unt	-3313
▁90	-3314
aily	-3315
▁Mil	-3316
▁big	-3317
▁env	-3318
▁1996	-3319
▁Cour	-3320
▁acqu	-3321
▁Busch	-3322
▁Three	-3323
▁nucle	-3324
▁party	-3325
▁rapid	-3326
▁begins	-3327
▁issued	-3328
▁living	-3329
▁counter	-3330
▁personal	-3331
▁standard	-3332
gen	-3333
▁Str	-3334
▁box	-3335
▁log	-3336
ittee	-3337
▁Tenn	-3338
▁kind	-3339
▁purch	-3340
▁terms	-3341
▁throw	-3342
▁marked	-3343
▁market	-3344
▁directly	-3345
dle	-3346
▁Sk	-3347
ails	-3348
amer	-3349
▁Bel	-3350
▁ult	-3351
▁Lake	-3352
▁hero	-3353
▁books	-3354
▁Taylor	-3355
▁health	-3356
▁scenes	-3357
▁status	-3358
▁Spanish	-3359
▁marriage	-3360
▁movement	-3361
▁Christmas	-3362
▁dom	-3363
▁Back	-3364
▁Fowler	-3365
▁helped	-3366
▁slight	-3367
▁Several	-3368
▁concept	-3369
▁portray	-3370
▁Jo	-3371
umed	-3372
▁und	-3373
▁tell	-3374
istics	-3375
▁sched	-3376
▁batter	-3377
▁experi	-3378
▁African	-3379
▁attacks	-3380
▁planned	-3381
▁schools	-3382
▁starting	-3383
▁suffered	-3384
▁information	-3385
▁traditional	-3386
iser	-3387
itor	-3388
▁Pit	-3389
▁dig	-3390
▁jud	-3391
alled	-3392
▁dark	-3393
▁Storm	-3394
▁speed	-3395
▁figure	-3396
▁giving	-3397
▁Infantry	-3398
▁inspired	-3399
▁associated	-3400
▁performances	-3401
AS	-3402
ma	-3403
▁x	-3404
▁Tw	-3405
▁Sam	-3406
athan	-3407
embly	-3408
itude	-3409
▁Arch	-3410
▁Jane	-3411
▁Party	-3412
▁Soviet	-3413
▁closed	-3414
▁source	-3415
▁abandon	-3416
▁condoms	-3417
▁husband	-3418
▁leaders	-3419
▁machine	-3420
▁division	-3421
▁presented	-3422
awn	-3423
▁mur	-3424
▁via	-3425
▁Foot	-3426
▁Series	-3427
▁raised	-3428
▁initial	-3429
▁determin	-3430
▁greatest	-3431
▁presence	-3432
II	-3433
iant	-3434
mium	-3435
▁Bob	-3436
aught	-3437
▁Vict	-3438
▁room	-3439
▁unit	-3440
▁uses	-3441
▁Cross	-3442
▁Paris	-3443
▁wound	-3444
ylvania	-3445
▁except	-3446
▁nearby	-3447
▁writers	-3448
▁Carolina	-3449
▁Rosebery	-3450
▁Virginia	-3451
▁continue	-3452
▁document	-3453
▁education	-3454
ks	-3455
ken	-3456
raf	-3457
iami	-3458
▁Boy	-3459
▁uns	-3460
▁Live	-3461
▁dism	-3462
▁norm	-3463
▁plot	-3464
▁Penns	-3465
▁image	-3466
itation	-3467
▁covered	-3468
▁cyclone	-3469
▁collection	-3470
olk	-3471
cing	-3472
▁Ant	-3473
▁Ben	-3474
▁Jam	-3475
incip	-3476
▁Just	-3477
▁rein	-3478
▁weap	-3479
▁Queen	-3480
▁chall	-3481
oration	-3482
▁annual	-3483
▁College	-3484
▁complex	-3485
▁hundred	-3486
▁composed	-3487
▁services	-3488
atre	-3489
erve	-3490
eway	-3491
oncé	-3492
▁Cer	-3493
▁Rob	-3494
▁1997	-3495
▁polic	-3496
▁bodies	-3497
▁really	-3498
▁Beyoncé	-3499
▁figures	-3500
▁extended	-3501
▁numerous	-3502
▁producer	-3503
▁cathedral	-3504
▁commander	-3505
▁territory	-3506
bar	-3507
joy	-3508
essa	-3509
etic	-3510
▁Six	-3511
▁tor	-3512
aging	-3513
icted	-3514
▁Open	-3515
▁fell	-3516
▁park	-3517
▁path	-3518
▁Miami	-3519
▁enjoy	-3520
▁Museum	-3521
▁depend	-3522
▁things	-3523
▁vocals	-3524
▁Germany	-3525
▁proteins	-3526
ift	-3527
▁39	-3528
erbe	-3529
▁sev	-3530
anded	-3531
ously	-3532
rical	-3533
▁Club	-3534
▁prep	-3535
▁waters	-3536
▁Nations	-3537
▁operation	-3538
▁something	-3539
anz	-3540
anas	-3541
▁Their	-3542
estival	-3543
▁highly	-3544
▁impact	-3545
▁Service	-3546
▁Through	-3547
▁morning	-3548
▁request	-3549
▁attacked	-3550
▁attempts	-3551
▁investig	-3552
▁strength	-3553
▁companies	-3554
ny	-3555
ses	-3556
▁Ill	-3557
▁Inn	-3558
▁era	-3559
ander	-3560
▁dise	-3561
▁talk	-3562
admium	-3563
▁metal	-3564
▁Prince	-3565
▁aspect	-3566
▁confir	-3567
▁financ	-3568
▁reject	-3569
▁transl	-3570
▁individual	-3571
▁immediately	-3572
▁Pennsylvania	-3573
apo	-3574
lim	-3575
▁Sur	-3576
▁pil	-3577
ademy	-3578
uries	-3579
▁Games	-3580
▁Inter	-3581
▁incor	-3582
▁piano	-3583
▁stone	-3584
▁artist	-3585
▁necess	-3586
▁interse	-3587
▁nuclear	-3588
▁removed	-3589
▁Squadron	-3590
▁allowing	-3591
▁distance	-3592
▁powerful	-3593
▁situation	-3594
NA	-3595
ipp	-3596
mon	-3597
olf	-3598
ibly	-3599
▁Hum	-3600
lands	-3601
vement	-3602
▁Water	-3603
▁habit	-3604
▁inside	-3605
▁needed	-3606
▁peaked	-3607
▁Jackson	-3608
▁advance	-3609
▁offered	-3610
▁recover	-3611
▁studies	-3612
▁variety	-3613
▁Scotland	-3614
▁interact	-3615
▁selected	-3616
▁artillery	-3617
TV	-3618
▁42	-3619
chan	-3620
pted	-3621
▁182	-3622
▁hot	-3623
▁1991	-3624
▁Jose	-3625
▁rate	-3626
▁Chris	-3627
▁Somal	-3628
▁means	-3629
▁attend	-3630
▁copies	-3631
▁native	-3632
▁attempted	-3633
▁countries	-3634
▁headquarters	-3635
ria	-3636
rol	-3637
▁AI	-3638
anta	-3639
pole	-3640
▁Los	-3641
▁saf	-3642
adium	-3643
ether	-3644
imony	-3645
track	-3646
▁kick	-3647
▁purp	-3648
▁China	-3649
▁coach	-3650
▁hands	-3651
▁casual	-3652
▁search	-3653
▁tracks	-3654
ribution	-3655
▁princip	-3656
▁scoring	-3657
▁architect	-3658
▁responsible	-3659
▁respectively	-3660
een	-3661
▁47	-3662
▁Out	-3663
▁Both	-3664
▁mole	-3665
▁purs	-3666
▁rule	-3667
▁symb	-3668
lement	-3669
▁Major	-3670
▁genus	-3671
▁advant	-3672
▁higher	-3673
▁widely	-3674
▁Anderson	-3675
▁describes	-3676
▁touchdown	-3677
▁Department	-3678
▁appearances	-3679
ha	-3680
cer	-3681
cend	-3682
▁Dan	-3683
▁Nor	-3684
andid	-3685
anger	-3686
▁1992	-3687
▁Crit	-3688
▁sets	-3689
▁spir	-3690
▁text	-3691
orship	-3692
▁Braat	-3693
▁Corps	-3694
▁course	-3695
▁sexual	-3696
▁heavily	-3697
▁Football	-3698
▁observed	-3699
▁controvers	-3700
of	-3701
oud	-3702
rey	-3703
▁44	-3704
reme	-3705
▁Are	-3706
▁amb	-3707
ports	-3708
▁1994	-3709
▁Alex	-3710
▁phot	-3711
▁pick	-3712
▁adult	-3713
▁below	-3714
▁xenon	-3715
▁middle	-3716
▁relief	-3717
▁meeting	-3718
▁reduced	-3719
iny	-3720
▁Li	-3721
▁ang	-3722
▁boy	-3723
▁Like	-3724
▁plat	-3725
icient	-3726
nesota	-3727
ricket	-3728
▁sixth	-3729
▁active	-3730
▁intern	-3731
▁secret	-3732
▁singer	-3733
▁matches	-3734
▁administ	-3735
▁audience	-3736
▁resulted	-3737
▁Minnesota	-3738
▁concluded	-3739
ga	-3740
aen	-3741
car	-3742
ils	-3743
lict	-3744
ship	-3745
▁Tem	-3746
▁sal	-3747
akapo	-3748
inkel	-3749
▁Time	-3750
▁true	-3751
▁Franc	-3752
▁lands	-3753
▁Victor	-3754
▁activity	-3755
▁activities	-3756
▁completely	-3757
cts	-3758
send	-3759
▁Del	-3760
▁ess	-3761
isher	-3762
▁Center	-3763
▁managed	-3764
▁stating	-3765
▁Southern	-3766
▁Townsend	-3767
▁opportun	-3768
▁revealed	-3769
▁contemporary	-3770
ems	-3771
ocr	-3772
like	-3773
▁Sea	-3774
▁fill	-3775
▁hour	-3776
atives	-3777
▁Colon	-3778
▁graph	-3779
▁trees	-3780
▁levels	-3781
▁Italian	-3782
▁quality	-3783
▁refused	-3784
▁declared	-3785
▁separate	-3786
gal	-3787
▁pu	-3788
rowd	-3789
▁Bec	-3790
▁Sir	-3791
▁bad	-3792
annel	-3793
iated	-3794
▁Long	-3795
▁Midd	-3796
▁blue	-3797
▁drum	-3798
erbeer	-3799
▁Force	-3800
▁Hawai	-3801
ication	-3802
ologist	-3803
▁Finkel	-3804
▁Because	-3805
▁Walpole	-3806
▁constit	-3807
▁question	-3808
▁Meyerbeer	-3809
▁Finkelstein	-3810
MS	-3811
ify	-3812
iqu	-3813
aped	-3814
▁Sol	-3815
athus	-3816
ining	-3817
peror	-3818
▁Shiva	-3819
▁Tessa	-3820
▁blood	-3821
▁carry	-3822
▁model	-3823
▁shell	-3824
▁today	-3825
▁instit	-3826
▁recent	-3827
▁parents	-3828
▁approach	-3829
▁contrast	-3830
▁featuring	-3831
▁typically	-3832
▁background	-3833
▁historical	-3834
▁university	-3835
oph	-3836
▁51	-3837
▁76	-3838
ares	-3839
▁Yue	-3840
▁ris	-3841
▁Cast	-3842
▁iron	-3843
▁Smith	-3844
▁paper	-3845
▁Nicole	-3846
▁issues	-3847
▁multip	-3848
▁Ottoman	-3849
▁Society	-3850
▁actions	-3851
▁descript	-3852
▁expected	-3853
▁conditions	-3854
hew	-3855
alty	-3856
ican	-3857
oint	-3858
rawn	-3859
utch	-3860
▁Bet	-3861
▁Lit	-3862
▁rhy	-3863
▁tax	-3864
force	-3865
▁Mill	-3866
▁Wild	-3867
▁entr	-3868
▁wing	-3869
▁peace	-3870
▁plays	-3871
▁compos	-3872
▁houses	-3873
▁mainly	-3874
▁weaken	-3875
▁assault	-3876
▁becomes	-3877
▁efforts	-3878
▁attention	-3879
▁reception	-3880
cle	-3881
▁37	-3882
▁Emp	-3883
▁Jim	-3884
▁pow	-3885
▁wit	-3886
ounds	-3887
shire	-3888
▁Balt	-3889
▁emot	-3890
▁subs	-3891
▁webs	-3892
▁brown	-3893
▁grand	-3894
▁offer	-3895
▁vehic	-3896
▁nation	-3897
▁specim	-3898
▁strugg	-3899
ervation	-3900
▁Highway	-3901
▁Braathens	-3902
▁residents	-3903
ado	-3904
isl	-3905
ging	-3906
rate	-3907
▁Dam	-3908
▁lot	-3909
ufact	-3910
▁Hait	-3911
▁	-3912
e	-3913
t	-3914
a	-3915
n	-3916
o	-3917
i	-3918
r	-3919
s	-3920
h	-3921
d	-3922
l	-3923
c	-3924
u	-3925
m	-3926
f	-3927
g	-3928
p	-3929
w	-3930
y	-3931
b	-3932
,	-3933
.	-3934
v	-3935
"	-3936
@	-3937
k	-3938
1	-3939
T	-3940
0	-3941
=	-3942
A	-3943
S	-3944
C	-3945
2	-3946
I	-3947
M	-3948
'	-3949
9	-3950
B	-3951
-	-3952
H	-3953
x	-3954
P	-3955
R	-3956
D	-3957
F	-3958
)	-3959
(	-3960
W	-3961
N	-3962
L	-3963
G	-3964
3	-3965
5	-3966
8	-3967
J	-3968
E	-3969
O	-3970
4	-3971
6	-3972
7	-3973
z	-3974
j	-3975
q	-3976
U	-3977
K	-3978
V	-3979
;	-3980
–	-3981
:	-3982
Y	-3983
/	-3984
—	-3985
Z	-3986
%	-3987
$	-3988
[	-3989
]	-3990
é	-3991
Q	-3992
X	-3993
&	-3994
!	-3995
