<unk>	0
<pad>	0
<s>	0
</s>	0
▁t	-0
▁a	-1
he	-2
in	-3
re	-4
▁s	-5
▁the	-6
on	-7
er	-8
▁w	-9
at	-10
▁o	-11
en	-12
▁c	-13
it	-14
or	-15
an	-16
is	-17
ed	-18
▁b	-19
▁f	-20
ing	-21
es	-22
▁p	-23
ou	-24
▁to	-25
ar	-26
▁an	-27
al	-28
▁in	-29
▁m	-30
▁of	-31
▁h	-32
as	-33
▁d	-34
ic	-35
▁and	-36
le	-37
▁th	-38
om	-39
ion	-40
▁T	-41
il	-42
ent	-43
▁re	-44
▁n	-45
id	-46
▁l	-47
st	-48
ve	-49
▁S	-50
▁be	-51
ro	-52
▁g	-53
▁A	-54
▁e	-55
ly	-56
▁I	-57
ay	-58
ac	-59
ot	-60
ut	-61
▁on	-62
▁C	-63
am	-64
▁for	-65
▁that	-66
ad	-67
et	-68
ig	-69
ow	-70
▁is	-71
ol	-72
im	-73
▁M	-74
ur	-75
ver	-76
se	-77
▁st	-78
un	-79
ct	-80
▁he	-81
▁B	-82
▁The	-83
▁y	-84
▁it	-85
ir	-86
el	-87
ter	-88
ith	-89
▁P	-90
ill	-91
ation	-92
▁wh	-93
▁with	-94
ce	-95
us	-96
▁W	-97
ch	-98
▁al	-99
▁H	-100
▁as	-101
ers	-102
▁we	-103
▁D	-104
ld	-105
▁R	-106
▁was	-107
▁F	-108
ul	-109
▁at	-110
ke	-111
▁con	-112
▁r	-113
ate	-114
ag	-115
oun	-116
▁N	-117
▁ha	-118
pp	-119
ment	-120
ri	-121
▁de	-122
▁2	-123
her	-124
ore	-125
▁com	-126
ort	-127
▁sa	-128
▁you	-129
est	-130
▁se	-131
▁pro	-132
ew	-133
and	-134
if	-135
▁G	-136
▁are	-137
op	-138
igh	-139
rom	-140
▁1	-141
▁L	-142
ain	-143
ist	-144
um	-145
res	-146
▁v	-147
▁said	-148
oo	-149
▁have	-150
art	-151
▁"	-152
▁by	-153
▁from	-154
ity	-155
▁not	-156
▁O	-157
ab	-158
▁ex	-159
▁E	-160
ould	-161
ear	-162
os	-163
▁sh	-164
▁has	-165
▁J	-166
oc	-167
em	-168
th	-169
▁(	-170
up	-171
ess	-172
ant	-173
ive	-174
▁this	-175
ight	-176
▁or	-177
ust	-178
▁le	-179
end	-180
ack	-181
▁ch	-182
▁will	-183
all	-184
▁pl	-185
ies	-186
qu	-187
▁su	-188
pe	-189
red	-190
out	-191
ast	-192
▁U	-193
our	-194
▁ab	-195
▁un	-196
00	-197
ak	-198
▁his	-199
ard	-200
ud	-201
ra	-202
▁j	-203
ial	-204
ice	-205
ome	-206
ost	-207
iv	-208
gh	-209
▁In	-210
ren	-211
ge	-212
ich	-213
▁who	-214
▁but	-215
ide	-216
▁they	-217
ff	-218
▁whe	-219
▁wor	-220
▁can	-221
▁out	-222
ell	-223
ep	-224
ans	-225
ap	-226
▁K	-227
▁k	-228
▁Th	-229
▁20	-230
▁tr	-231
ound	-232
od	-233
▁up	-234
▁all	-235
▁do	-236
ally	-237
▁ad	-238
ong	-239
▁go	-240
ough	-241
ia	-242
▁St	-243
▁off	-244
▁ne	-245
▁their	-246
age	-247
▁int	-248
ber	-249
ther	-250
cc	-251
ame	-252
ub	-253
▁more	-254
one	-255
▁comp	-256
ect	-257
ie	-258
ine	-259
day	-260
▁been	-261
ure	-262
ous	-263
▁about	-264
ions	-265
ike	-266
▁ar	-267
ated	-268
act	-269
ime	-270
so	-271
▁ag	-272
▁year	-273
▁201	-274
port	-275
ake	-276
▁cl	-277
ks	-278
ue	-279
▁us	-280
▁new	-281
ign	-282
▁which	-283
der	-284
use	-285
▁cont	-286
▁one	-287
ip	-288
▁me	-289
▁were	-290
ace	-291
▁had	-292
▁would	-293
▁inc	-294
ail	-295
ary	-296
ry	-297
fter	-298
ord	-299
▁sp	-300
▁im	-301
▁An	-302
iz	-303
ind	-304
▁It	-305
ite	-306
▁en	-307
mer	-308
▁Ch	-309
▁so	-310
very	-311
ays	-312
▁V	-313
og	-314
▁Y	-315
▁res	-316
▁pe	-317
▁also	-318
▁per	-319
▁te	-320
pt	-321
ile	-322
are	-323
pl	-324
▁man	-325
king	-326
ire	-327
ven	-328
own	-329
▁over	-330
ount	-331
ident	-332
▁app	-333
▁He	-334
▁like	-335
ree	-336
ople	-337
able	-338
ood	-339
ass	-340
ase	-341
ress	-342
▁pol	-343
▁its	-344
lic	-345
▁dis	-346
▁rec	-347
ations	-348
int	-349
ian	-350
ose	-351
▁after	-352
▁than	-353
ult	-354
▁3	-355
▁part	-356
▁other	-357
ib	-358
▁some	-359
▁people	-360
▁tw	-361
▁sc	-362
av	-363
▁when	-364
ence	-365
orm	-366
uc	-367
per	-368
▁there	-369
▁acc	-370
irst	-371
▁-	-372
aw	-373
▁qu	-374
▁your	-375
▁just	-376
ach	-377
▁time	-378
ens	-379
▁them	-380
ob	-381
vel	-382
▁get	-383
ors	-384
▁her	-385
▁bec	-386
▁any	-387
▁what	-388
ick	-389
ance	-390
,"	-391
▁our	-392
."	-393
▁kn	-394
▁gr	-395
reat	-396
▁play	-397
ical	-398
▁into	-399
ark	-400
ove	-401
ook	-402
ction	-403
▁pre	-404
ition	-405
ade	-406
old	-407
hed	-408
▁We	-409
ll	-410
▁if	-411
itt	-412
ond	-413
vers	-414
▁she	-415
ru	-416
ory	-417
ict	-418
low	-419
ning	-420
▁first	-421
rent	-422
amp	-423
ne	-424
▁no	-425
▁two	-426
▁ro	-427
▁att	-428
ates	-429
fe	-430
ang	-431
▁ser	-432
ish	-433
ov	-434
wn	-435
▁$	-436
▁could	-437
ft	-438
▁pr	-439
ild	-440
ious	-441
▁Un	-442
▁him	-443
▁my	-444
▁Tr	-445
ings	-446
ons	-447
▁report	-448
ause	-449
▁add	-450
▁Wh	-451
oy	-452
▁4	-453
form	-454
lud	-455
▁comm	-456
man	-457
▁dec	-458
▁back	-459
▁co	-460
ump	-461
ublic	-462
hing	-463
▁how	-464
▁But	-465
▁fe	-466
▁again	-467
iss	-468
▁bl	-469
▁spe	-470
▁inv	-471
▁act	-472
te	-473
▁This	-474
▁last	-475
▁now	-476
▁only	-477
ink	-478
▁am	-479
ec	-480
anc	-481
▁New	-482
▁work	-483
▁sec	-484
ek	-485
pect	-486
▁years	-487
▁5	-488
ater	-489
▁bet	-490
ok	-491
▁includ	-492
ise	-493
▁And	-494
▁want	-495
▁As	-496
▁cr	-497
tern	-498
rough	-499
▁under	-500
we	-501
ents	-502
ments	-503
▁state	-504
vern	-505
oup	-506
▁did	-507
▁supp	-508
ased	-509
▁des	-510
ason	-511
ual	-512
▁most	-513
▁show	-514
▁cons	-515
▁mon	-516
▁call	-517
ational	-518
fore	-519
▁offic	-520
▁say	-521
resident	-522
du	-523
▁em	-524
▁make	-525
▁po	-526
enc	-527
▁see	-528
aking	-529
urn	-530
ock	-531
uring	-532
xt	-533
▁ind	-534
arg	-535
▁because	-536
▁need	-537
gr	-538
ont	-539
▁being	-540
▁Re	-541
iew	-542
▁know	-543
ating	-544
..	-545
ited	-546
illion	-547
ues	-548
com	-549
▁bu	-550
▁even	-551
▁19	-552
▁rem	-553
row	-554
▁count	-555
ject	-556
▁right	-557
ince	-558
▁down	-559
ied	-560
lect	-561
▁every	-562
▁reg	-563
oss	-564
▁ev	-565
ities	-566
▁team	-567
▁don	-568
ph	-569
ters	-570
000	-571
▁may	-572
▁where	-573
▁br	-574
ved	-575
les	-576
▁ph	-577
ful	-578
▁Trump	-579
sel	-580
▁govern	-581
meric	-582
▁should	-583
rib	-584
▁Al	-585
ording	-586
als	-587
uch	-588
▁before	-589
ty	-590
ath	-591
rest	-592
▁law	-593
other	-594
▁made	-595
▁fin	-596
ts	-597
ward	-598
▁told	-599
▁end	-600
▁through	-601
oot	-602
▁well	-603
▁imp	-604
ting	-605
▁car	-606
▁these	-607
▁way	-608
ix	-609
▁hel	-610
▁against	-611
▁start	-612
hen	-613
▁those	-614
▁Americ	-615
any	-616
▁week	-617
ull	-618
▁own	-619
▁many	-620
ier	-621
▁ve	-622
▁fl	-623
▁6	-624
▁Sh	-625
▁sur	-626
ange	-627
▁min	-628
▁ke	-629
▁lead	-630
▁then	-631
land	-632
▁rel	-633
▁Le	-634
▁very	-635
▁ass	-636
io	-637
▁col	-638
▁stud	-639
▁help	-640
▁month	-641
ollow	-642
▁Ar	-643
▁while	-644
▁long	-645
▁De	-646
▁says	-647
erson	-648
,000	-649
ool	-650
ork	-651
▁sm	-652
ics	-653
ily	-654
und	-655
▁use	-656
ax	-657
▁Com	-658
atch	-659
▁Fr	-660
yst	-661
▁game	-662
▁sign	-663
ower	-664
▁much	-665
▁ac	-666
air	-667
▁def	-668
▁op	-669
▁You	-670
▁going	-671
ving	-672
ton	-673
▁set	-674
ames	-675
▁does	-676
ative	-677
ists	-678
▁dif	-679
▁Mar	-680
▁government	-681
ouse	-682
cent	-683
ible	-684
▁gu	-685
▁ear	-686
▁take	-687
uss	-688
▁prov	-689
oth	-690
ures	-691
bs	-692
▁found	-693
▁rele	-694
gan	-695
ife	-696
eral	-697
co	-698
ah	-699
▁world	-700
omet	-701
az	-702
ug	-703
▁three	-704
its	-705
▁10	-706
▁still	-707
▁police	-708
ble	-709
ner	-710
olog	-711
imes	-712
▁Cl	-713
▁If	-714
▁group	-715
ular	-716
▁ent	-717
▁good	-718
tain	-719
▁think	-720
ros	-721
▁200	-722
ank	-723
▁cour	-724
▁high	-725
▁mem	-726
▁For	-727
▁med	-728
ific	-729
pr	-730
▁support	-731
▁str	-732
▁bel	-733
velop	-734
ility	-735
ced	-736
way	-737
▁during	-738
▁inter	-739
read	-740
▁Is	-741
▁around	-742
▁7	-743
ee	-744
▁here	-745
ets	-746
▁cur	-747
▁[	-748
▁ann	-749
▁such	-750
ms	-751
rit	-752
▁num	-753
ually	-754
▁point	-755
▁run	-756
ween	-757
ys	-758
▁wom	-759
▁since	-760
▁ins	-761
med	-762
led	-763
hip	-764
The	-765
▁eff	-766
ever	-767
▁ret	-768
hes	-769
ale	-770
▁Rep	-771
ices	-772
son	-773
▁Ad	-774
▁vot	-775
▁invest	-776
▁iss	-777
▁public	-778
▁8	-779
ision	-780
▁conf	-781
▁ter	-782
▁gen	-783
ern	-784
▁between	-785
ystem	-786
ash	-787
▁million	-788
orth	-789
▁though	-790
▁day	-791
▁fam	-792
▁cap	-793
▁They	-794
irect	-795
cess	-796
iel	-797
),	-798
ives	-799
▁det	-800
▁trans	-801
▁leg	-802
▁'	-803
ave	-804
au	-805
▁hand	-806
▁follow	-807
▁Jo	-808
▁loc	-809
▁disc	-810
▁camp	-811
cial	-812
▁On	-813
▁prot	-814
▁post	-815
ered	-816
▁plan	-817
ution	-818
▁fil	-819
▁inst	-820
ivers	-821
▁big	-822
ines	-823
alth	-824
▁That	-825
▁news	-826
ked	-827
▁.	-828
▁contin	-829
uth	-830
ared	-831
▁percent	-832
▁same	-833
▁exp	-834
ying	-835
ces	-836
▁next	-837
▁official	-838
▁rep	-839
▁develop	-840
chool	-841
aj	-842
▁happ	-843
gg	-844
att	-845
▁used	-846
ather	-847
ox	-848
).	-849
▁sim	-850
▁find	-851
▁US	-852
min	-853
▁9	-854
ves	-855
lear	-856
▁home	-857
leg	-858
▁open	-859
▁fr	-860
▁cent	-861
▁season	-862
▁somet	-863
▁belie	-864
▁ext	-865
▁There	-866
ages	-867
wit	-868
bers	-869
▁war	-870
▁head	-871
▁including	-872
ott	-873
▁cre	-874
▁Bl	-875
ins	-876
▁Pro	-877
▁Sc	-878
▁resp	-879
▁company	-880
view	-881
▁recent	-882
▁read	-883
vice	-884
ex	-885
istr	-886
self	-887
▁really	-888
▁look	-889
akes	-890
ience	-891
▁great	-892
▁both	-893
▁system	-894
tt	-895
line	-896
ama	-897
▁put	-898
▁sub	-899
▁exper	-900
ital	-901
▁diffe	-902
▁bus	-903
▁ref	-904
▁real	-905
duct	-906
▁mod	-907
▁che	-908
ants	-909
▁av	-910
▁requ	-911
ling	-912
get	-913
ism	-914
▁according	-915
▁pass	-916
▁president	-917
orn	-918
▁Ind	-919
rem	-920
ric	-921
▁En	-922
▁allow	-923
▁country	-924
ense	-925
▁person	-926
▁Mr	-927
ross	-928
▁lot	-929
con	-930
▁come	-931
iness	-932
▁second	-933
▁vide	-934
▁opp	-935
▁another	-936
▁few	-937
cept	-938
▁commun	-939
ute	-940
▁She	-941
▁tal	-942
ars	-943
ck	-944
ene	-945
▁mark	-946
ient	-947
▁ed	-948
▁inform	-949
aim	-950
▁four	-951
▁tra	-952
▁dep	-953
urs	-954
arge	-955
▁expl	-956
▁inte	-957
▁So	-958
▁Z	-959
▁art	-960
ina	-961
▁How	-962
year	-963
ody	-964
ned	-965
▁direct	-966
ired	-967
▁fact	-968
rat	-969
▁attack	-970
▁poss	-971
gram	-972
▁child	-973
uck	-974
▁pri	-975
▁top	-976
▁win	-977
ger	-978
▁dri	-979
ention	-980
▁dem	-981
ik	-982
▁conc	-983
▁Mon	-984
riend	-985
▁called	-986
ized	-987
▁best	-988
▁far	-989
osed	-990
▁announ	-991
▁polit	-992
▁build	-993
▁near	-994
ised	-995
arch	-996
▁place	-997
▁Ph	-998
▁bro	-999
ral	-1000
▁loo	-1001
chn	-1002
▁pay	-1003
▁too	-1004
▁Pol	-1005
▁expect	-1006
▁rece	-1007
▁something	-1008
▁Ob	-1009
aign	-1010
▁power	-1011
oney	-1012
ata	-1013
▁mov	-1014
▁prev	-1015
▁current	-1016
hn	-1017
▁inf	-1018
▁reported	-1019
ency	-1020
ield	-1021
oci	-1022
resent	-1023
pped	-1024
▁number	-1025
duc	-1026
▁mil	-1027
▁won	-1028
▁care	-1029
ney	-1030
▁got	-1031
▁contro	-1032
▁let	-1033
atur	-1034
▁Q	-1035
▁President	-1036
▁quest	-1037
used	-1038
▁comple	-1039
ately	-1040
ret	-1041
ister	-1042
▁Pl	-1043
ically	-1044
▁project	-1045
▁Can	-1046
▁dr	-1047
▁city	-1048
inal	-1049
▁school	-1050
ittle	-1051
▁--	-1052
nes	-1053
▁tri	-1054
▁Be	-1055
▁sl	-1056
▁video	-1057
▁incre	-1058
ished	-1059
▁keep	-1060
▁claim	-1061
thing	-1062
▁stand	-1063
▁Republic	-1064
▁campaign	-1065
ajor	-1066
▁rest	-1067
▁each	-1068
▁Sp	-1069
witter	-1070
ready	-1071
urity	-1072
▁hop	-1073
▁gl	-1074
▁appro	-1075
▁cor	-1076
▁ob	-1077
▁adv	-1078
▁case	-1079
▁might	-1080
ize	-1081
▁At	-1082
▁mar	-1083
▁beh	-1084
▁program	-1085
▁hard	-1086
artment	-1087
▁move	-1088
▁information	-1089
reen	-1090
▁vis	-1091
▁met	-1092
▁12	-1093
outh	-1094
ider	-1095
▁life	-1096
▁without	-1097
gy	-1098
lection	-1099
▁left	-1100
▁list	-1101
▁United	-1102
▁different	-1103
▁never	-1104
▁Mc	-1105
▁things	-1106
▁feel	-1107
ety	-1108
▁prom	-1109
▁already	-1110
▁free	-1111
▁May	-1112
less	-1113
uthor	-1114
▁Br	-1115
▁result	-1116
iversity	-1117
uro	-1118
▁All	-1119
▁John	-1120
▁Chr	-1121
▁today	-1122
ission	-1123
ted	-1124
▁del	-1125
ured	-1126
oad	-1127
▁kill	-1128
ness	-1129
ract	-1130
▁Dem	-1131
rence	-1132
▁days	-1133
▁bre	-1134
▁interest	-1135
til	-1136
▁former	-1137
erv	-1138
▁seem	-1139
ploy	-1140
ided	-1141
▁feat	-1142
▁business	-1143
▁la	-1144
▁Comm	-1145
▁$1	-1146
iver	-1147
▁night	-1148
▁test	-1149
▁using	-1150
▁air	-1151
▁wr	-1152
▁little	-1153
iday	-1154
▁When	-1155
mber	-1156
iving	-1157
▁investig	-1158
▁turn	-1159
▁past	-1160
ird	-1161
▁rese	-1162
▁Im	-1163
▁proble	-1164
▁women	-1165
▁pop	-1166
▁What	-1167
ains	-1168
▁tax	-1169
▁Se	-1170
ony	-1171
▁import	-1172
ley	-1173
▁less	-1174
▁deal	-1175
▁health	-1176
▁partic	-1177
▁Don	-1178
▁el	-1179
ued	-1180
conom	-1181
▁record	-1182
oard	-1183
▁American	-1184
▁Col	-1185
▁2016	-1186
▁One	-1187
▁money	-1188
▁better	-1189
▁added	-1190
▁techn	-1191
ending	-1192
▁family	-1193
ald	-1194
▁ra	-1195
ined	-1196
book	-1197
▁oper	-1198
ology	-1199
--	-1200
ator	-1201
▁full	-1202
▁Sun	-1203
▁Obama	-1204
▁later	-1205
iol	-1206
▁pos	-1207
▁major	-1208
▁hum	-1209
▁sol	-1210
br	-1211
▁main	-1212
▁didn	-1213
▁design	-1214
▁15	-1215
▁Am	-1216
▁Min	-1217
ential	-1218
ocrat	-1219
ably	-1220
▁organ	-1221
▁elect	-1222
ior	-1223
▁job	-1224
▁Russ	-1225
ror	-1226
▁able	-1227
ways	-1228
▁story	-1229
aken	-1230
▁media	-1231
▁Car	-1232
▁intern	-1233
▁took	-1234
▁Sen	-1235
be	-1236
▁came	-1237
▁No	-1238
▁cost	-1239
▁process	-1240
▁change	-1241
▁making	-1242
▁grow	-1243
▁Or	-1244
une	-1245
▁i	-1246
▁House	-1247
▁friend	-1248
ians	-1249
▁Te	-1250
ailable	-1251
to	-1252
ury	-1253
▁11	-1254
ison	-1255
▁working	-1256
ague	-1257
ocial	-1258
▁,	-1259
▁games	-1260
ained	-1261
▁event	-1262
▁until	-1263
▁sit	-1264
atter	-1265
▁Con	-1266
iam	-1267
▁Pr	-1268
aring	-1269
▁happen	-1270
▁exc	-1271
arent	-1272
▁data	-1273
▁small	-1274
▁ide	-1275
ising	-1276
▁Gr	-1277
ertain	-1278
20	-1279
▁State	-1280
▁2015	-1281
▁least	-1282
-1	-1283
▁appear	-1284
▁sever	-1285
▁aff	-1286
side	-1287
▁York	-1288
app	-1289
▁clear	-1290
▁level	-1291
▁statement	-1292
by	-1293
▁months	-1294
ries	-1295
els	-1296
▁fund	-1297
...	-1298
ived	-1299
ands	-1300
ases	-1301
ann	-1302
▁meet	-1303
iting	-1304
▁five	-1305
▁away	-1306
oto	-1307
▁fun	-1308
ides	-1309
the	-1310
▁polic	-1311
aff	-1312
▁court	-1313
augh	-1314
ional	-1315
▁market	-1316
ush	-1317
▁men	-1318
▁jo	-1319
▁several	-1320
▁fac	-1321
ched	-1322
▁News	-1323
▁par	-1324
ane	-1325
We	-1326
▁deb	-1327
▁why	-1328
iven	-1329
▁form	-1330
▁Acc	-1331
▁eas	-1332
ode	-1333
▁members	-1334
▁econom	-1335
▁sk	-1336
▁Democrat	-1337
▁App	-1338
ubl	-1339
▁prof	-1340
▁Twitter	-1341
crib	-1342
ember	-1343
▁spec	-1344
sh	-1345
icle	-1346
ream	-1347
▁available	-1348
alf	-1349
▁With	-1350
▁old	-1351
▁Monday	-1352
▁Co	-1353
▁hour	-1354
▁doesn	-1355
▁pat	-1356
▁Euro	-1357
acy	-1358
▁chang	-1359
ware	-1360
▁local	-1361
▁Friday	-1362
let	-1363
ones	-1364
▁Dep	-1365
▁sus	-1366
▁char	-1367
▁viol	-1368
▁asked	-1369
iously	-1370
▁tell	-1371
uesday	-1372
acebook	-1373
▁give	-1374
▁press	-1375
▁view	-1376
▁seen	-1377
ederal	-1378
▁players	-1379
▁line	-1380
▁Tuesday	-1381
ief	-1382
▁effect	-1383
ober	-1384
ster	-1385
▁18	-1386
▁thing	-1387
▁bill	-1388
▁est	-1389
▁opt	-1390
▁cust	-1391
uper	-1392
▁2014	-1393
uture	-1394
ball	-1395
▁Cent	-1396
ead	-1397
ified	-1398
raft	-1399
▁saying	-1400
▁along	-1401
▁likely	-1402
ards	-1403
aining	-1404
▁2017	-1405
▁name	-1406
vert	-1407
▁large	-1408
▁fore	-1409
ium	-1410
▁return	-1411
▁whether	-1412
gin	-1413
▁hist	-1414
ER	-1415
▁Ex	-1416
BC	-1417
ended	-1418
▁sent	-1419
▁vers	-1420
ails	-1421
ering	-1422
oung	-1423
▁Wed	-1424
▁always	-1425
▁X	-1426
▁Sy	-1427
back	-1428
urch	-1429
ged	-1430
▁prop	-1431
▁University	-1432
▁bit	-1433
vices	-1434
▁must	-1435
▁released	-1436
▁After	-1437
rew	-1438
▁vict	-1439
▁went	-1440
▁Facebook	-1441
▁important	-1442
uly	-1443
▁having	-1444
reet	-1445
▁invol	-1446
▁Canad	-1447
▁times	-1448
▁To	-1449
▁author	-1450
▁sex	-1451
▁sure	-1452
ortun	-1453
▁fight	-1454
lier	-1455
irl	-1456
ourn	-1457
ursday	-1458
ots	-1459
▁protect	-1460
eb	-1461
nesday	-1462
ana	-1463
empt	-1464
▁early	-1465
▁ban	-1466
ron	-1467
ruct	-1468
▁Wednesday	-1469
▁yet	-1470
▁Thursday	-1471
▁order	-1472
▁community	-1473
▁series	-1474
for	-1475
gle	-1476
▁North	-1477
▁product	-1478
▁ca	-1479
▁across	-1480
▁pot	-1481
▁taken	-1482
ffic	-1483
▁charg	-1484
▁Fl	-1485
ality	-1486
here	-1487
▁sour	-1488
ashing	-1489
▁security	-1490
▁future	-1491
▁enough	-1492
▁miss	-1493
▁30	-1494
▁release	-1495
ats	-1496
▁children	-1497
▁Wor	-1498
▁announced	-1499
ten	-1500
▁issue	-1501
▁priv	-1502
▁crit	-1503
▁val	-1504
inton	-1505
▁Europe	-1506
▁milit	-1507
▁laun	-1508
ggest	-1509
▁City	-1510
▁suggest	-1511
hers	-1512
▁ago	-1513
▁While	-1514
▁cut	-1515
▁area	-1516
▁ever	-1517
▁become	-1518
▁actually	-1519
▁six	-1520
arc	-1521
▁political	-1522
▁Cal	-1523
▁class	-1524
osp	-1525
▁const	-1526
ories	-1527
▁rul	-1528
▁ll	-1529
▁water	-1530
idd	-1531
stand	-1532
▁es	-1533
▁among	-1534
rop	-1535
▁officials	-1536
▁perform	-1537
▁Aust	-1538
raph	-1539
▁0	-1540
yn	-1541
iqu	-1542
▁short	-1543
eng	-1544
▁Bro	-1545
▁var	-1546
▁lear	-1547
ept	-1548
ored	-1549
▁decision	-1550
enn	-1551
▁following	-1552
▁believe	-1553
▁comes	-1554
oll	-1555
▁inj	-1556
▁Clinton	-1557
▁However	-1558
▁Police	-1559
▁light	-1560
▁activ	-1561
▁social	-1562
iber	-1563
utes	-1564
▁death	-1565
▁Just	-1566
▁eng	-1567
▁ant	-1568
▁Christ	-1569
▁Ed	-1570
▁film	-1571
▁known	-1572
aged	-1573
nect	-1574
▁party	-1575
▁orig	-1576
▁ident	-1577
50	-1578
ai	-1579
▁dist	-1580
▁hold	-1581
▁Sec	-1582
▁bring	-1583
idence	-1584
etw	-1585
okes	-1586
▁gun	-1587
▁simp	-1588
▁ty	-1589
▁possible	-1590
▁employ	-1591
▁getting	-1592
▁Har	-1593
▁looking	-1594
▁National	-1595
verage	-1596
▁access	-1597
ators	-1598
▁gener	-1599
▁indust	-1600
ccess	-1601
▁alleg	-1602
▁foot	-1603
▁sing	-1604
▁According	-1605
ference	-1606
▁sal	-1607
igr	-1608
▁Man	-1609
▁custom	-1610
ization	-1611
▁States	-1612
▁close	-1613
▁doing	-1614
▁reports	-1615
▁arrest	-1616
▁strong	-1617
▁Jan	-1618
▁account	-1619
▁ce	-1620
▁question	-1621
rug	-1622
▁coming	-1623
▁Dav	-1624
▁Ab	-1625
▁kind	-1626
▁side	-1627
uff	-1628
▁Not	-1629
▁cond	-1630
▁fire	-1631
▁Ne	-1632
▁national	-1633
▁2013	-1634
▁Sunday	-1635
▁service	-1636
▁China	-1637
▁@	-1638
▁South	-1639
▁mor	-1640
most	-1641
▁given	-1642
▁addition	-1643
▁Ass	-1644
reed	-1645
▁bas	-1646
▁control	-1647
▁mean	-1648
erman	-1649
▁word	-1650
▁special	-1651
aps	-1652
▁started	-1653
urther	-1654
ensive	-1655
▁America	-1656
▁done	-1657
▁compet	-1658
▁once	-1659
▁publ	-1660
▁equ	-1661
aid	-1662
▁human	-1663
oogle	-1664
▁sum	-1665
▁14	-1666
ither	-1667
▁Res	-1668
inc	-1669
aper	-1670
▁course	-1671
uge	-1672
It	-1673
▁Ste	-1674
▁woman	-1675
ashington	-1676
IS	-1677
▁love	-1678
ilar	-1679
▁young	-1680
gress	-1681
▁occ	-1682
▁federal	-1683
ham	-1684
▁mus	-1685
ij	-1686
oint	-1687
▁Oct	-1688
aturday	-1689
▁Department	-1690
▁interview	-1691
▁thought	-1692
▁live	-1693
arm	-1694
▁threat	-1695
▁site	-1696
▁webs	-1697
▁Washington	-1698
▁concern	-1699
aul	-1700
▁mess	-1701
▁within	-1702
ministr	-1703
▁taking	-1704
ps	-1705
▁behind	-1706
ances	-1707
▁rights	-1708
aster	-1709
▁16	-1710
▁March	-1711
▁non	-1712
▁isn	-1713
AT	-1714
▁success	-1715
oon	-1716
▁Saturday	-1717
▁Me	-1718
▁13	-1719
▁Gu	-1720
▁cand	-1721
▁trying	-1722
▁confir	-1723
▁makes	-1724
▁Ge	-1725
ler	-1726
▁impro	-1727
▁study	-1728
▁based	-1729
▁effort	-1730
rael	-1731
lim	-1732
ocu	-1733
ounc	-1734
▁Part	-1735
▁hit	-1736
▁toget	-1737
▁complete	-1738
▁together	-1739
ature	-1740
por	-1741
▁Bar	-1742
▁World	-1743
▁certain	-1744
go	-1745
▁Inst	-1746
ery	-1747
ran	-1748
ids	-1749
▁hig	-1750
▁Sept	-1751
itive	-1752
itted	-1753
iron	-1754
▁Now	-1755
▁charac	-1756
▁Google	-1757
ounds	-1758
▁fail	-1759
▁trad	-1760
▁below	-1761
▁continue	-1762
ert	-1763
▁lim	-1764
anies	-1765
//	-1766
▁half	-1767
pping	-1768
▁Count	-1769
▁final	-1770
rote	-1771
▁shoot	-1772
▁tot	-1773
▁arg	-1774
ring	-1775
imate	-1776
▁Med	-1777
▁office	-1778
▁hope	-1779
alk	-1780
▁(@	-1781
▁recently	-1782
▁face	-1783
▁discuss	-1784
▁third	-1785
itions	-1786
▁attempt	-1787
fic	-1788
▁fav	-1789
▁spokes	-1790
▁low	-1791
▁means	-1792
.5	-1793
▁expected	-1794
▁wa	-1795
▁sw	-1796
▁June	-1797
▁space	-1798
▁prob	-1799
▁2012	-1800
▁vote	-1801
▁online	-1802
▁step	-1803
▁Israel	-1804
▁watch	-1805
▁problem	-1806
▁potential	-1807
OR	-1808
▁Go	-1809
▁aut	-1810
▁pres	-1811
▁foc	-1812
lease	-1813
▁July	-1814
▁often	-1815
IN	-1816
▁upd	-1817
▁creat	-1818
▁player	-1819
▁reason	-1820
▁Aug	-1821
amer	-1822
▁hours	-1823
reme	-1824
▁Apr	-1825
▁Intern	-1826
my	-1827
eks	-1828
▁front	-1829
ON	-1830
▁wrote	-1831
▁proper	-1832
though	-1833
▁others	-1834
ault	-1835
▁experience	-1836
ample	-1837
▁appe	-1838
raw	-1839
▁17	-1840
▁White	-1841
cl	-1842
▁Dr	-1843
wards	-1844
▁book	-1845
▁Pe	-1846
▁War	-1847
▁due	-1848
oice	-1849
▁Em	-1850
arter	-1851
ecut	-1852
▁Hill	-1853
▁try	-1854
▁stri	-1855
itor	-1856
▁election	-1857
▁Brit	-1858
▁Will	-1859
▁club	-1860
▁Red	-1861
▁Cour	-1862
off	-1863
30	-1864
▁lat	-1865
arth	-1866
▁billion	-1867
▁stop	-1868
▁food	-1869
umb	-1870
▁fall	-1871
ulation	-1872
▁include	-1873
▁comment	-1874
▁Republican	-1875
▁ris	-1876
▁repl	-1877
▁quick	-1878
head	-1879
▁candid	-1880
▁companies	-1881
ination	-1882
▁military	-1883
ivid	-1884
▁writ	-1885
▁host	-1886
▁April	-1887
ows	-1888
▁earlier	-1889
▁Eng	-1890
duction	-1891
▁shot	-1892
▁legal	-1893
attle	-1894
▁policy	-1895
▁West	-1896
▁plans	-1897
▁points	-1898
▁Af	-1899
://	-1900
▁Mus	-1901
lam	-1902
▁199	-1903
▁Mich	-1904
▁100	-1905
right	-1906
▁shows	-1907
fer	-1908
ager	-1909
pecial	-1910
▁mult	-1911
▁weeks	-1912
de	-1913
▁mom	-1914
▁states	-1915
ports	-1916
▁agree	-1917
sec	-1918
ender	-1919
lement	-1920
▁25	-1921
▁Che	-1922
▁further	-1923
▁black	-1924
amed	-1925
irc	-1926
▁targ	-1927
uary	-1928
pite	-1929
▁consider	-1930
▁z	-1931
▁version	-1932
▁house	-1933
▁action	-1934
now	-1935
▁address	-1936
▁reve	-1937
▁German	-1938
ript	-1939
▁provide	-1940
▁students	-1941
▁bene	-1942
▁cop	-1943
▁drug	-1944
▁pract	-1945
.,	-1946
Th	-1947
▁Par	-1948
▁docu	-1949
oud	-1950
▁forward	-1951
▁almost	-1952
▁history	-1953
▁enc	-1954
▁imm	-1955
▁leaders	-1956
▁connect	-1957
▁girl	-1958
▁staff	-1959
▁Austral	-1960
▁track	-1961
▁Donald	-1962
par	-1963
load	-1964
▁users	-1965
▁Here	-1966
▁similar	-1967
elf	-1968
▁building	-1969
▁Cong	-1970
▁someone	-1971
▁countries	-1972
▁pret	-1973
pro	-1974
▁Sm	-1975
▁latest	-1976
▁fans	-1977
isc	-1978
▁wanted	-1979
▁fig	-1980
▁idea	-1981
▁laws	-1982
ouncil	-1983
▁chall	-1984
▁Ser	-1985
.1	-1986
▁bad	-1987
▁More	-1988
▁begin	-1989
▁issues	-1990
tion	-1991
▁outside	-1992
▁received	-1993
▁Ke	-1994
▁Do	-1995
ittee	-1996
▁treat	-1997
ify	-1998
▁contract	-1999
asing	-2000
time	-2001
ached	-2002
of	-2003
aled	-2004
ming	-2005
ability	-2006
▁killed	-2007
▁website	-2008
▁running	-2009
ung	-2010
▁particular	-2011
▁ren	-2012
ournal	-2013
▁conv	-2014
ches	-2015
▁incident	-2016
▁research	-2017
▁tit	-2018
▁industry	-2019
wh	-2020
▁hom	-2021
▁Court	-2022
etwork	-2023
▁50	-2024
obal	-2025
▁County	-2026
ule	-2027
▁anything	-2028
▁anal	-2029
▁present	-2030
▁store	-2031
▁My	-2032
▁er	-2033
uation	-2034
cast	-2035
AS	-2036
▁minutes	-2037
duced	-2038
▁mass	-2039
▁currently	-2040
istrict	-2041
▁body	-2042
overed	-2043
▁pick	-2044
▁via	-2045
selves	-2046
▁His	-2047
▁development	-2048
▁Some	-2049
aces	-2050
▁jud	-2051
▁entire	-2052
viron	-2053
▁By	-2054
▁soon	-2055
not	-2056
▁21	-2057
▁morning	-2058
▁opportun	-2059
▁Calif	-2060
▁terror	-2061
ili	-2062
▁administr	-2063
▁TV	-2064
▁phot	-2065
▁Feb	-2066
▁land	-2067
▁played	-2068
▁ap	-2069
ners	-2070
ights	-2071
▁meas	-2072
▁held	-2073
▁share	-2074
▁sen	-2075
▁larg	-2076
aced	-2077
▁break	-2078
ried	-2079
▁htt	-2080
▁goal	-2081
ividual	-2082
▁role	-2083
▁victim	-2084
▁understand	-2085
AN	-2086
af	-2087
▁playing	-2088
▁email	-2089
▁position	-2090
AR	-2091
▁Syri	-2092
ergy	-2093
▁dead	-2094
ribut	-2095
cement	-2096
▁stat	-2097
▁probably	-2098
▁$2	-2099
▁technology	-2100
ades	-2101
duce	-2102
▁late	-2103
▁key	-2104
apan	-2105
▁24	-2106
▁field	-2107
isl	-2108
▁comb	-2109
▁poll	-2110
▁anim	-2111
▁travel	-2112
▁saw	-2113
▁director	-2114
▁San	-2115
▁Park	-2116
▁however	-2117
▁Gl	-2118
▁January	-2119
▁/	-2120
ivil	-2121
▁groups	-2122
▁bar	-2123
▁services	-2124
▁Congress	-2125
▁officers	-2126
▁single	-2127
▁coup	-2128
▁respond	-2129
▁dou	-2130
bor	-2131
▁dam	-2132
▁nothing	-2133
▁amount	-2134
▁describ	-2135
iet	-2136
iding	-2137
ees	-2138
▁September	-2139
ovember	-2140
▁friends	-2141
▁Apple	-2142
oke	-2143
▁ball	-2144
▁init	-2145
aily	-2146
▁create	-2147
icro	-2148
ences	-2149
ancial	-2150
▁block	-2151
ww	-2152
play	-2153
▁(1	-2154
▁individual	-2155
▁Paul	-2156
▁October	-2157
▁decl	-2158
orters	-2159
ibility	-2160
▁These	-2161
▁seems	-2162
▁represent	-2163
▁pack	-2164
▁music	-2165
▁profess	-2166
".	-2167
▁needs	-2168
▁consum	-2169
▁Japan	-2170
ES	-2171
▁room	-2172
▁November	-2173
ym	-2174
vironment	-2175
▁execut	-2176
joy	-2177
ospital	-2178
irt	-2179
▁everyone	-2180
medi	-2181
ape	-2182
▁matter	-2183
ilt	-2184
ival	-2185
▁white	-2186
ote	-2187
▁international	-2188
lex	-2189
reg	-2190
▁meeting	-2191
▁pretty	-2192
lev	-2193
▁stay	-2194
▁phone	-2195
▁price	-2196
▁respons	-2197
den	-2198
▁ste	-2199
▁signific	-2200
▁example	-2201
▁road	-2202
▁request	-2203
itting	-2204
▁popular	-2205
▁veh	-2206
aut	-2207
▁energy	-2208
▁Pal	-2209
key	-2210
▁Gen	-2211
▁began	-2212
fully	-2213
aker	-2214
▁red	-2215
abor	-2216
▁surpr	-2217
▁fir	-2218
▁rad	-2219
▁everything	-2220
elt	-2221
▁den	-2222
cember	-2223
rie	-2224
▁boo	-2225
▁ey	-2226
.)	-2227
lus	-2228
▁Street	-2229
▁general	-2230
sw	-2231
olution	-2232
ech	-2233
▁mot	-2234
▁wind	-2235
▁ur	-2236
▁boy	-2237
▁resident	-2238
cy	-2239
ift	-2240
▁sold	-2241
vertise	-2242
▁Russia	-2243
▁visit	-2244
▁Californ	-2245
▁investigation	-2246
▁Tex	-2247
▁pict	-2248
▁benef	-2249
▁compl	-2250
▁lost	-2251
▁either	-2252
▁Ag	-2253
▁India	-2254
▁rather	-2255
▁neg	-2256
▁Minister	-2257
ino	-2258
aur	-2259
istan	-2260
atic	-2261
▁himself	-2262
lish	-2263
▁Cont	-2264
▁August	-2265
ky	-2266
ams	-2267
▁else	-2268
▁wasn	-2269
▁Des	-2270
▁led	-2271
▁Kore	-2272
▁decided	-2273
▁soft	-2274
▁whole	-2275
▁inside	-2276
epend	-2277
▁mind	-2278
ients	-2279
▁page	-2280
▁total	-2281
ael	-2282
▁David	-2283
▁involved	-2284
▁Per	-2285
▁2011	-2286
rend	-2287
ively	-2288
▁port	-2289
▁parent	-2290
▁cred	-2291
▁member	-2292
▁December	-2293
itiz	-2294
▁offer	-2295
▁El	-2296
ently	-2297
▁review	-2298
▁board	-2299
▁comments	-2300
▁Read	-2301
based	-2302
▁coach	-2303
anger	-2304
▁pie	-2305
▁works	-2306
▁applic	-2307
▁leave	-2308
▁California	-2309
▁sell	-2310
▁dom	-2311
▁Sw	-2312
me	-2313
▁above	-2314
▁published	-2315
▁officer	-2316
hern	-2317
▁Canada	-2318
like	-2319
▁Times	-2320
ficult	-2321
▁target	-2322
rup	-2323
ogn	-2324
▁significant	-2325
▁mag	-2326
▁anti	-2327
▁relations	-2328
aint	-2329
▁favor	-2330
iod	-2331
lege	-2332
iddle	-2333
▁suspect	-2334
▁buy	-2335
▁Geor	-2336
onse	-2337
▁Act	-2338
▁Post	-2339
▁anyone	-2340
▁deter	-2341
▁leader	-2342
▁changes	-2343
▁broad	-2344
▁immedi	-2345
coin	-2346
obile	-2347
▁cult	-2348
▁difficult	-2349
uel	-2350
▁cle	-2351
▁Pat	-2352
gest	-2353
▁couple	-2354
▁thin	-2355
akers	-2356
▁Black	-2357
▁nearly	-2358
▁contact	-2359
▁Tw	-2360
aging	-2361
▁super	-2362
▁protest	-2363
sc	-2364
▁Islam	-2365
▁Senate	-2366
▁Up	-2367
▁wrong	-2368
▁increase	-2369
ique	-2370
▁twe	-2371
na	-2372
ese	-2373
▁private	-2374
.2	-2375
EN	-2376
-2	-2377
omb	-2378
pecially	-2379
yle	-2380
▁content	-2381
▁original	-2382
▁exist	-2383
▁League	-2384
anks	-2385
▁aud	-2386
▁alleged	-2387
▁Mark	-2388
ural	-2389
▁quite	-2390
ips	-2391
ging	-2392
▁squ	-2393
uters	-2394
▁Play	-2395
▁40	-2396
▁weap	-2397
▁evidence	-2398
yl	-2399
▁Ang	-2400
▁source	-2401
▁Image	-2402
▁Hol	-2403
asons	-2404
▁needed	-2405
▁personal	-2406
▁financial	-2407
alt	-2408
▁nation	-2409
aving	-2410
▁dest	-2411
▁legisl	-2412
vil	-2413
rap	-2414
▁Sand	-2415
▁Americans	-2416
▁Sch	-2417
▁First	-2418
▁22	-2419
▁Qu	-2420
▁focus	-2421
▁Je	-2422
▁mid	-2423
▁race	-2424
▁relig	-2425
▁UK	-2426
atives	-2427
lin	-2428
▁neigh	-2429
ograph	-2430
▁arri	-2431
▁Center	-2432
▁ground	-2433
▁impact	-2434
▁adm	-2435
ruary	-2436
▁enjoy	-2437
OS	-2438
▁instead	-2439
cer	-2440
ament	-2441
▁circ	-2442
▁Russian	-2443
eter	-2444
▁ep	-2445
▁chance	-2446
▁Texas	-2447
▁longer	-2448
itution	-2449
val	-2450
ctor	-2451
oved	-2452
▁tem	-2453
▁response	-2454
▁tou	-2455
▁heart	-2456
omm	-2457
▁talk	-2458
▁Cor	-2459
▁created	-2460
str	-2461
▁themselves	-2462
▁pull	-2463
▁features	-2464
raz	-2465
▁base	-2466
lebr	-2467
▁emer	-2468
▁Comp	-2469
▁Iran	-2470
ask	-2471
▁accept	-2472
▁February	-2473
oor	-2474
▁administration	-2475
▁check	-2476
ressed	-2477
roll	-2478
▁specific	-2479
▁period	-2480
▁summer	-2481
▁situation	-2482
▁McC	-2483
osing	-2484
▁article	-2485
▁age	-2486
▁star	-2487
▁respect	-2488
che	-2489
▁character	-2490
.9	-2491
▁results	-2492
▁abs	-2493
ought	-2494
▁happened	-2495
▁Republicans	-2496
ico	-2497
▁wants	-2498
▁worth	-2499
ops	-2500
rel	-2501
▁2010	-2502
▁heard	-2503
.0	-2504
uter	-2505
▁vol	-2506
uit	-2507
▁educ	-2508
▁oil	-2509
▁questions	-2510
ude	-2511
cript	-2512
FL	-2513
▁global	-2514
▁phys	-2515
▁especially	-2516
order	-2517
▁posted	-2518
▁cases	-2519
▁dig	-2520
▁simply	-2521
▁subs	-2522
▁Last	-2523
▁chief	-2524
▁Her	-2525
▁looks	-2526
▁itself	-2527
Ph	-2528
▁suff	-2529
▁infl	-2530
over	-2531
▁1,	-2532
▁il	-2533
ises	-2534
▁foreign	-2535
fect	-2536
down	-2537
▁collect	-2538
▁Rom	-2539
▁huge	-2540
▁Mor	-2541
▁affect	-2542
▁div	-2543
▁moment	-2544
▁arrested	-2545
oid	-2546
St	-2547
rought	-2548
▁European	-2549
▁included	-2550
▁civil	-2551
bed	-2552
▁scient	-2553
bit	-2554
unt	-2555
▁surve	-2556
ze	-2557
▁mater	-2558
▁higher	-2559
▁particip	-2560
ray	-2561
itten	-2562
ilities	-2563
▁teams	-2564
▁mother	-2565
▁average	-2566
▁demand	-2567
▁details	-2568
▁pred	-2569
▁Day	-2570
▁IS	-2571
▁thous	-2572
▁hon	-2573
▁rate	-2574
▁quarter	-2575
▁confirmed	-2576
▁prim	-2577
▁environment	-2578
▁career	-2579
▁Associ	-2580
▁letter	-2581
▁deep	-2582
▁events	-2583
▁Democratic	-2584
▁problems	-2585
ends	-2586
▁presidential	-2587
▁Mo	-2588
▁takes	-2589
▁Get	-2590
▁force	-2591
▁launch	-2592
▁products	-2593
▁link	-2594
▁intro	-2595
room	-2596
▁Off	-2597
▁purch	-2598
▁common	-2599
▁Of	-2600
▁search	-2601
iple	-2602
ires	-2603
▁Star	-2604
In	-2605
ession	-2606
uk	-2607
▁Party	-2608
ED	-2609
▁self	-2610
action	-2611
▁improve	-2612
ondon	-2613
▁cover	-2614
ope	-2615
retary	-2616
▁network	-2617
atory	-2618
▁conduct	-2619
▁dog	-2620
▁Tor	-2621
▁rac	-2622
▁exact	-2623
▁Advertise	-2624
upp	-2625
▁aw	-2626
▁seven	-2627
▁became	-2628
▁23	-2629
▁citiz	-2630
angu	-2631
▁critic	-2632
▁ways	-2633
▁areas	-2634
▁spent	-2635
▁biggest	-2636
▁worked	-2637
▁bur	-2638
▁mat	-2639
inese	-2640
▁Follow	-2641
ida	-2642
alled	-2643
▁celebr	-2644
▁researc	-2645
/1	-2646
▁cell	-2647
▁susp	-2648
ole	-2649
hood	-2650
▁customers	-2651
▁saf	-2652
▁safe	-2653
▁sched	-2654
▁living	-2655
▁charges	-2656
▁bud	-2657
▁typ	-2658
istic	-2659
▁true	-2660
▁previous	-2661
▁repe	-2662
▁risk	-2663
uclear	-2664
▁match	-2665
ites	-2666
ateg	-2667
▁camer	-2668
▁economic	-2669
▁hot	-2670
▁agency	-2671
▁turned	-2672
▁Cap	-2673
▁ord	-2674
▁indic	-2675
▁eight	-2676
ruction	-2677
ett	-2678
▁Cr	-2679
▁Tur	-2680
▁medical	-2681
▁pur	-2682
▁box	-2683
▁rev	-2684
▁carry	-2685
▁attacks	-2686
▁prep	-2687
▁coll	-2688
avy	-2689
.3	-2690
▁tried	-2691
▁material	-2692
----	-2693
▁London	-2694
▁movie	-2695
▁claims	-2696
▁workers	-2697
ened	-2698
▁trade	-2699
9,	-2700
ester	-2701
▁pan	-2702
▁prison	-2703
▁engine	-2704
body	-2705
▁whose	-2706
8,	-2707
unch	-2708
ampions	-2709
▁Chinese	-2710
▁Char	-2711
▁growth	-2712
▁immigr	-2713
▁opportunity	-2714
ills	-2715
▁ens	-2716
▁easy	-2717
▁town	-2718
▁quickly	-2719
▁Michael	-2720
▁crim	-2721
rain	-2722
▁require	-2723
atform	-2724
▁wide	-2725
▁safety	-2726
icles	-2727
▁James	-2728
▁hospital	-2729
hel	-2730
▁fell	-2731
▁illeg	-2732
ny	-2733
eth	-2734
mon	-2735
▁doll	-2736
▁gave	-2737
▁signed	-2738
▁reach	-2739
▁regard	-2740
.4	-2741
60	-2742
▁27	-2743
▁regular	-2744
▁dro	-2745
▁goes	-2746
▁conference	-2747
▁recogn	-2748
▁join	-2749
▁died	-2750
▁performance	-2751
iant	-2752
▁allowed	-2753
▁words	-2754
▁Muslim	-2755
BI	-2756
▁includes	-2757
▁answ	-2758
▁weekend	-2759
osition	-2760
▁authorities	-2761
venue	-2762
▁message	-2763
▁serious	-2764
light	-2765
▁Wind	-2766
▁William	-2767
▁reb	-2768
▁lives	-2769
AL	-2770
atural	-2771
▁Indian	-2772
▁voters	-2773
▁despite	-2774
▁pen	-2775
▁loss	-2776
▁brought	-2777
▁device	-2778
▁hands	-2779
uf	-2780
▁198	-2781
▁forces	-2782
▁coun	-2783
idge	-2784
ellig	-2785
ociety	-2786
▁Fin	-2787
▁log	-2788
▁paper	-2789
orney	-2790
▁numbers	-2791
unk	-2792
▁Dan	-2793
▁Afric	-2794
▁separ	-2795
▁Air	-2796
▁fair	-2797
▁ahead	-2798
OP	-2799
oph	-2800
▁son	-2801
▁screen	-2802
▁ple	-2803
▁showed	-2804
▁production	-2805
▁mis	-2806
▁mur	-2807
▁lack	-2808
▁leading	-2809
▁sat	-2810
▁Our	-2811
▁wal	-2812
▁ready	-2813
▁rules	-2814
▁model	-2815
▁cause	-2816
▁named	-2817
▁cannot	-2818
▁sexual	-2819
▁Democrats	-2820
uana	-2821
ening	-2822
▁sett	-2823
▁economy	-2824
oom	-2825
ully	-2826
▁learn	-2827
etro	-2828
▁necess	-2829
▁Super	-2830
▁From	-2831
▁becom	-2832
haps	-2833
▁British	-2834
▁King	-2835
▁father	-2836
▁prevent	-2837
▁nom	-2838
▁speech	-2839
▁ability	-2840
▁parents	-2841
▁relationship	-2842
uing	-2843
▁demon	-2844
▁rob	-2845
▁scene	-2846
▁assist	-2847
▁speed	-2848
▁shooting	-2849
zz	-2850
▁Bec	-2851
▁date	-2852
▁built	-2853
▁defin	-2854
▁sense	-2855
▁remain	-2856
come	-2857
▁football	-2858
ube	-2859
ijuana	-2860
▁Micro	-2861
▁executive	-2862
ston	-2863
▁hear	-2864
▁Spe	-2865
oring	-2866
▁spokesman	-2867
rect	-2868
▁sales	-2869
▁terms	-2870
▁feature	-2871
izing	-2872
▁High	-2873
mit	-2874
▁hy	-2875
▁previously	-2876
berg	-2877
▁round	-2878
▁Bit	-2879
▁card	-2880
▁nuclear	-2881
▁Rich	-2882
▁subject	-2883
▁pic	-2884
▁receive	-2885
▁Council	-2886
▁unc	-2887
▁capital	-2888
IC	-2889
▁smart	-2890
▁software	-2891
agement	-2892
▁lic	-2893
▁26	-2894
iers	-2895
▁copy	-2896
▁associ	-2897
▁starting	-2898
AC	-2899
▁paid	-2900
▁slow	-2901
▁image	-2902
la	-2903
▁fast	-2904
▁calls	-2905
▁region	-2906
▁Del	-2907
▁gas	-2908
▁jobs	-2909
▁tour	-2910
▁platform	-2911
ceed	-2912
▁revealed	-2913
▁regul	-2914
US	-2915
iter	-2916
▁disp	-2917
▁norm	-2918
▁training	-2919
▁independ	-2920
ago	-2921
▁obs	-2922
▁violence	-2923
itch	-2924
▁Angel	-2925
estern	-2926
wood	-2927
▁sound	-2928
raq	-2929
▁cal	-2930
▁Australia	-2931
▁cy	-2932
▁candidate	-2933
vent	-2934
▁:	-2935
ford	-2936
soft	-2937
▁Bel	-2938
▁adding	-2939
▁attention	-2940
▁value	-2941
EO	-2942
▁God	-2943
▁Even	-2944
▁ask	-2945
▁Hillary	-2946
.7	-2947
▁bank	-2948
▁song	-2949
▁Cons	-2950
▁code	-2951
▁Tod	-2952
▁Flor	-2953
▁document	-2954
▁lower	-2955
▁fem	-2956
undred	-2957
uty	-2958
ibly	-2959
rowd	-2960
rown	-2961
▁ill	-2962
▁journal	-2963
▁student	-2964
coming	-2965
face	-2966
▁Fox	-2967
▁text	-2968
▁Govern	-2969
▁station	-2970
▁perfect	-2971
ales	-2972
▁Iraq	-2973
▁immediately	-2974
▁minister	-2975
▁remains	-2976
▁continued	-2977
bur	-2978
rugg	-2979
▁manager	-2980
sp	-2981
ares	-2982
▁enfor	-2983
▁extra	-2984
▁senior	-2985
ux	-2986
▁Dis	-2987
board	-2988
iction	-2989
.6	-2990
round	-2991
secut	-2992
▁object	-2993
IT	-2994
hib	-2995
▁RE	-2996
▁Val	-2997
▁kids	-2998
▁estab	-2999
ara	-3000
▁bott	-3001
▁edit	-3002
resh	-3003
▁]	-3004
▁Green	-3005
▁Sa	-3006
uses	-3007
▁assault	-3008
▁sn	-3009
▁aim	-3010
▁hor	-3011
▁tool	-3012
▁tre	-3013
▁gets	-3014
▁conserv	-3015
▁...	-3016
field	-3017
▁levels	-3018
oper	-3019
where	-3020
▁School	-3021
▁challen	-3022
▁charge	-3023
▁stories	-3024
rim	-3025
▁additional	-3026
ban	-3027
ume	-3028
▁Scott	-3029
yan	-3030
▁happy	-3031
▁thousands	-3032
▁researchers	-3033
chie	-3034
▁Bay	-3035
▁Rob	-3036
reedom	-3037
▁blog	-3038
ructure	-3039
idered	-3040
▁size	-3041
▁appears	-3042
▁various	-3043
▁Bill	-3044
▁growing	-3045
▁Sim	-3046
▁East	-3047
▁Over	-3048
1,	-3049
erve	-3050
lick	-3051
▁title	-3052
▁pain	-3053
▁center	-3054
▁danger	-3055
▁passed	-3056
▁capt	-3057
▁initial	-3058
▁claimed	-3059
▁Jack	-3060
▁photo	-3061
▁Advertisement	-3062
▁lo	-3063
airs	-3064
▁tweet	-3065
▁lab	-3066
▁clos	-3067
nd	-3068
box	-3069
▁largest	-3070
▁langu	-3071
▁fear	-3072
▁charged	-3073
▁Rec	-3074
▁sort	-3075
▁Other	-3076
▁extreme	-3077
▁Florida	-3078
▁appeared	-3079
▁Bre	-3080
icted	-3081
ville	-3082
▁Rober	-3083
fort	-3084
▁giving	-3085
He	-3086
istry	-3087
▁Ham	-3088
▁league	-3089
ari	-3090
aught	-3091
▁Law	-3092
▁Let	-3093
hest	-3094
▁Sanders	-3095
roid	-3096
▁progress	-3097
oose	-3098
▁Mart	-3099
eed	-3100
▁disapp	-3101
▁tradition	-3102
▁Tom	-3103
▁cross	-3104
▁talking	-3105
▁prior	-3106
hi	-3107
ocked	-3108
▁Jer	-3109
▁simple	-3110
▁item	-3111
▁efforts	-3112
▁considered	-3113
ges	-3114
urt	-3115
▁EU	-3116
▁ran	-3117
▁finally	-3118
▁TH	-3119
▁Microsoft	-3120
astic	-3121
▁Mad	-3122
▁Since	-3123
▁International	-3124
▁Cup	-3125
▁Reg	-3126
▁communic	-3127
▁Mex	-3128
▁Smith	-3129
▁behav	-3130
▁accused	-3131
▁continues	-3132
oul	-3133
▁Franc	-3134
▁marijuana	-3135
▁encour	-3136
▁calling	-3137
omp	-3138
▁60	-3139
▁gam	-3140
ension	-3141
itness	-3142
▁agreement	-3143
This	-3144
▁crowd	-3145
▁designed	-3146
▁property	-3147
▁Add	-3148
enced	-3149
▁Photo	-3150
▁completely	-3151
▁mill	-3152
▁judge	-3153
aughter	-3154
aks	-3155
tr	-3156
▁range	-3157
▁table	-3158
▁mention	-3159
ha	-3160
▁di	-3161
▁fre	-3162
using	-3163
▁Bu	-3164
▁fix	-3165
elligence	-3166
▁multiple	-3167
gen	-3168
▁produc	-3169
AP	-3170
▁described	-3171
lying	-3172
▁criminal	-3173
▁spending	-3174
▁clean	-3175
▁defense	-3176
▁debate	-3177
▁approach	-3178
oe	-3179
▁driver	-3180
▁reached	-3181
▁Two	-3182
▁cars	-3183
▁firm	-3184
▁$3	-3185
.[	-3186
▁Ber	-3187
▁doub	-3188
▁prem	-3189
▁traffic	-3190
-0	-3191
ufact	-3192
40	-3193
illed	-3194
▁forced	-3195
▁band	-3196
▁meth	-3197
▁budget	-3198
▁Germany	-3199
ado	-3200
▁Ben	-3201
▁citizens	-3202
▁contribut	-3203
▁strugg	-3204
▁hous	-3205
▁Every	-3206
▁Trans	-3207
ews	-3208
▁occur	-3209
▁practice	-3210
▁roll	-3211
▁majority	-3212
▁Korea	-3213
▁sources	-3214
yond	-3215
▁residents	-3216
band	-3217
▁Gold	-3218
▁Well	-3219
OT	-3220
▁197	-3221
▁http	-3222
▁department	-3223
riage	-3224
ris	-3225
▁Port	-3226
▁Office	-3227
▁unf	-3228
▁exactly	-3229
▁shut	-3230
▁Windows	-3231
▁Rel	-3232
▁aren	-3233
anch	-3234
iles	-3235
▁Commission	-3236
vin	-3237
▁Oh	-3238
apt	-3239
rench	-3240
▁parts	-3241
▁systems	-3242
▁sens	-3243
▁spot	-3244
sey	-3245
▁guy	-3246
▁exam	-3247
▁noted	-3248
▁user	-3249
▁costs	-3250
▁Alex	-3251
▁written	-3252
▁treatment	-3253
201	-3254
ources	-3255
▁felt	-3256
ma	-3257
▁General	-3258
▁quality	-3259
▁increasing	-3260
AM	-3261
▁bi	-3262
▁Press	-3263
▁display	-3264
▁)	-3265
▁Mer	-3266
ram	-3267
▁failed	-3268
▁Justice	-3269
▁draw	-3270
▁touch	-3271
▁apparent	-3272
▁Syria	-3273
▁devices	-3274
FC	-3275
wide	-3276
bl	-3277
▁Ear	-3278
▁Ital	-3279
▁Brown	-3280
imately	-3281
▁hundred	-3282
AD	-3283
udi	-3284
▁although	-3285
.8	-3286
hol	-3287
▁NFL	-3288
▁tur	-3289
▁required	-3290
BS	-3291
aren	-3292
ground	-3293
▁launched	-3294
▁organization	-3295
▁propos	-3296
▁Mac	-3297
▁interesting	-3298
▁tick	-3299
ishing	-3300
▁vari	-3301
▁choice	-3302
sy	-3303
ctions	-3304
han	-3305
aves	-3306
ilies	-3307
anta	-3308
aries	-3309
arily	-3310
orter	-3311
▁wife	-3312
▁provided	-3313
▁sil	-3314
▁piece	-3315
▁convers	-3316
▁rock	-3317
GB	-3318
▁crime	-3319
ibr	-3320
▁cool	-3321
▁hack	-3322
▁middle	-3323
▁weapons	-3324
ification	-3325
pir	-3326
itute	-3327
▁owners	-3328
▁throughout	-3329
bum	-3330
irth	-3331
▁Then	-3332
▁select	-3333
iff	-3334
▁function	-3335
▁estim	-3336
▁illegal	-3337
NN	-3338
▁Why	-3339
▁achie	-3340
▁caused	-3341
▁looked	-3342
▁vehicle	-3343
set	-3344
▁blood	-3345
▁drive	-3346
▁liber	-3347
▁knew	-3348
▁district	-3349
▁Mike	-3350
inated	-3351
▁recomm	-3352
aby	-3353
▁cast	-3354
▁Earth	-3355
▁Also	-3356
▁movement	-3357
▁Att	-3358
▁Sam	-3359
▁fan	-3360
▁epis	-3361
▁moving	-3362
▁cris	-3363
▁surv	-3364
▁goals	-3365
ression	-3366
▁Please	-3367
▁download	-3368
yer	-3369
▁employees	-3370
▁particularly	-3371
rief	-3372
▁autom	-3373
▁figure	-3374
anced	-3375
▁type	-3376
▁stuff	-3377
▁climate	-3378
fl	-3379
▁stream	-3380
▁projects	-3381
▁exch	-3382
▁Most	-3383
▁pers	-3384
cle	-3385
rast	-3386
riff	-3387
▁Canadian	-3388
▁Op	-3389
iled	-3390
▁Art	-3391
▁sto	-3392
▁Union	-3393
▁sym	-3394
▁rout	-3395
▁chair	-3396
▁Health	-3397
▁funding	-3398
hold	-3399
isions	-3400
▁Android	-3401
▁issued	-3402
▁concerns	-3403
▁certainly	-3404
inn	-3405
▁wouldn	-3406
▁People	-3407
while	-3408
asc	-3409
▁natural	-3410
ING	-3411
ental	-3412
▁Like	-3413
▁mobile	-3414
ological	-3415
▁28	-3416
▁inn	-3417
▁partners	-3418
ona	-3419
rec	-3420
▁Sup	-3421
craft	-3422
▁Hall	-3423
▁influ	-3424
▁plant	-3425
▁guys	-3426
▁asking	-3427
-3	-3428
ga	-3429
▁allows	-3430
▁option	-3431
▁compared	-3432
▁directly	-3433
▁experi	-3434
▁(2	-3435
▁Your	-3436
▁Mil	-3437
▁cat	-3438
▁Chris	-3439
▁credit	-3440
▁Internet	-3441
▁Pak	-3442
▁George	-3443
▁promot	-3444
▁unique	-3445
▁legislation	-3446
▁CEO	-3447
▁Committee	-3448
▁arch	-3449
▁obv	-3450
▁mach	-3451
▁draft	-3452
▁mix	-3453
▁Amaz	-3454
▁cities	-3455
▁schools	-3456
▁families	-3457
▁ver	-3458
icago	-3459
▁controvers	-3460
▁maintain	-3461
▁increased	-3462
▁web	-3463
imum	-3464
▁manufact	-3465
▁education	-3466
10	-3467
▁hol	-3468
aches	-3469
▁Matt	-3470
▁brand	-3471
▁ensure	-3472
esterday	-3473
▁purp	-3474
▁neighbor	-3475
▁note	-3476
▁photos	-3477
▁computer	-3478
▁Los	-3479
▁wonder	-3480
rian	-3481
▁Although	-3482
omen	-3483
mb	-3484
ya	-3485
▁helped	-3486
▁demonstr	-3487
ota	-3488
▁$5	-3489
▁Johnson	-3490
pper	-3491
▁file	-3492
men	-3493
▁Mal	-3494
▁Francis	-3495
▁Sub	-3496
ource	-3497
▁Many	-3498
▁ones	-3499
4,	-3500
▁moved	-3501
▁followed	-3502
▁population	-3503
▁rap	-3504
iders	-3505
▁owner	-3506
▁committee	-3507
ero	-3508
oti	-3509
ously	-3510
▁Bank	-3511
▁filed	-3512
▁During	-3513
▁victims	-3514
▁tro	-3515
▁battle	-3516
▁reality	-3517
",	-3518
RE	-3519
utions	-3520
mp	-3521
▁beginning	-3522
ki	-3523
encies	-3524
▁agreed	-3525
▁bo	-3526
aked	-3527
SA	-3528
▁hearing	-3529
adem	-3530
▁wait	-3531
▁Today	-3532
▁Def	-3533
▁pus	-3534
▁French	-3535
▁detail	-3536
▁implement	-3537
ken	-3538
▁Jud	-3539
▁except	-3540
▁raised	-3541
▁Pakistan	-3542
▁believed	-3543
▁wall	-3544
▁refer	-3545
▁limited	-3546
ables	-3547
▁gone	-3548
▁Resear	-3549
▁actions	-3550
▁install	-3551
onto	-3552
ples	-3553
gency	-3554
▁options	-3555
7,	-3556
▁drop	-3557
▁meant	-3558
▁stage	-3559
▁lin	-3560
▁2008	-3561
▁Security	-3562
▁Lou	-3563
▁update	-3564
ipe	-3565
sequ	-3566
▁Ver	-3567
▁green	-3568
▁marriage	-3569
vest	-3570
▁sle	-3571
▁answer	-3572
▁restr	-3573
▁ult	-3574
phone	-3575
▁Prime	-3576
▁beaut	-3577
▁expand	-3578
▁changed	-3579
▁towards	-3580
▁pressure	-3581
olute	-3582
que	-3583
▁language	-3584
▁beyond	-3585
ayer	-3586
liam	-3587
▁crisis	-3588
▁opin	-3589
▁beat	-3590
▁Offic	-3591
▁Under	-3592
levision	-3593
▁picture	-3594
▁France	-3595
▁Inc	-3596
▁overall	-3597
▁Wil	-3598
▁annual	-3599
itely	-3600
▁poor	-3601
▁Chicago	-3602
▁II	-3603
5,	-3604
▁camera	-3605
▁images	-3606
ET	-3607
▁Phil	-3608
▁related	-3609
▁electric	-3610
▁Mag	-3611
▁Net	-3612
▁prices	-3613
▁showing	-3614
SP	-3615
▁train	-3616
▁border	-3617
▁income	-3618
▁Islamic	-3619
kn	-3620
ysis	-3621
▁wel	-3622
▁minor	-3623
▁brother	-3624
ander	-3625
▁believes	-3626
▁conditions	-3627
▁Mod	-3628
erved	-3629
▁term	-3630
▁massive	-3631
ustr	-3632
▁esc	-3633
▁Step	-3634
liament	-3635
▁toward	-3636
▁La	-3637
rows	-3638
▁send	-3639
▁ended	-3640
▁driving	-3641
▁leaving	-3642
erc	-3643
▁schedul	-3644
iced	-3645
▁jump	-3646
▁please	-3647
▁offered	-3648
▁supporters	-3649
▁har	-3650
▁park	-3651
aling	-3652
▁album	-3653
▁fully	-3654
▁subst	-3655
rypt	-3656
▁shown	-3657
roy	-3658
▁religious	-3659
mark	-3660
▁Toronto	-3661
▁imag	-3662
▁reportedly	-3663
ica	-3664
▁FBI	-3665
▁Vir	-3666
▁Wall	-3667
▁fine	-3668
▁2,	-3669
▁avoid	-3670
▁couldn	-3671
▁Jim	-3672
▁uns	-3673
▁door	-3674
▁Liber	-3675
▁closed	-3676
▁corpor	-3677
▁challenge	-3678
6,	-3679
BA	-3680
▁ten	-3681
▁injury	-3682
▁District	-3683
icks	-3684
ledge	-3685
▁feed	-3686
▁college	-3687
▁positive	-3688
▁gives	-3689
IA	-3690
uries	-3691
▁peace	-3692
oman	-3693
▁award	-3694
▁method	-3695
▁street	-3696
▁science	-3697
▁AP	-3698
▁Gal	-3699
▁Miss	-3700
▁reading	-3701
▁opened	-3702
▁Bitcoin	-3703
ipped	-3704
▁Watch	-3705
▁damage	-3706
▁England	-3707
▁Angeles	-3708
iny	-3709
▁stra	-3710
▁perhaps	-3711
urd	-3712
▁digital	-3713
▁fighting	-3714
ocks	-3715
▁rates	-3716
▁counter	-3717
▁Us	-3718
▁upon	-3719
▁brain	-3720
▁measure	-3721
going	-3722
▁push	-3723
▁Amazon	-3724
▁coal	-3725
▁save	-3726
▁attract	-3727
▁trust	-3728
▁primary	-3729
▁internet	-3730
mercial	-3731
9.	-3732
▁Int	-3733
▁und	-3734
▁birth	-3735
ocal	-3736
arian	-3737
▁miles	-3738
▁histor	-3739
▁restaur	-3740
▁benefits	-3741
▁developed	-3742
!!	-3743
▁grand	-3744
arks	-3745
pm	-3746
ampionship	-3747
▁organiz	-3748
▁location	-3749
▁policies	-3750
▁enforcement	-3751
▁opening	-3752
2,	-3753
▁flag	-3754
ores	-3755
▁Dec	-3756
▁Chief	-3757
igan	-3758
▁pun	-3759
▁favorite	-3760
▁spread	-3761
▁gay	-3762
▁Daily	-3763
bert	-3764
reng	-3765
▁victory	-3766
▁operations	-3767
estic	-3768
▁modern	-3769
▁origin	-3770
▁murder	-3771
▁highest	-3772
ID	-3773
▁Tim	-3774
▁Mont	-3775
▁argu	-3776
▁nice	-3777
▁explained	-3778
▁eventually	-3779
Wh	-3780
▁books	-3781
▁documents	-3782
▁qual	-3783
▁haven	-3784
EC	-3785
OU	-3786
▁Big	-3787
▁Pre	-3788
inary	-3789
▁Arab	-3790
▁Direct	-3791
▁female	-3792
▁Jeff	-3793
▁commit	-3794
olf	-3795
▁stre	-3796
▁replace	-3797
.'	-3798
rol	-3799
▁sites	-3800
▁English	-3801
▁Ms	-3802
▁Hum	-3803
▁ess	-3804
▁brief	-3805
▁Williams	-3806
▁standard	-3807
annel	-3808
▁discovered	-3809
orks	-3810
▁See	-3811
▁Ryan	-3812
▁reform	-3813
ple	-3814
▁gold	-3815
▁consist	-3816
▁missing	-3817
Re	-3818
▁Sil	-3819
▁acqu	-3820
▁cash	-3821
▁seeing	-3822
▁proposed	-3823
agon	-3824
▁kept	-3825
▁dise	-3826
▁pet	-3827
▁programs	-3828
▁dev	-3829
▁Fire	-3830
▁trail	-3831
▁reasons	-3832
▁perm	-3833
▁Sl	-3834
▁UN	-3835
▁vs	-3836
▁Are	-3837
rences	-3838
▁names	-3839
▁trial	-3840
orthern	-3841
▁records	-3842
▁writing	-3843
▁necessary	-3844
osh	-3845
80	-3846
▁AM	-3847
anche	-3848
▁caption	-3849
▁usually	-3850
mas	-3851
▁emb	-3852
atever	-3853
▁Media	-3854
▁negoti	-3855
11	-3856
net	-3857
▁lif	-3858
▁Game	-3859
▁Found	-3860
▁daily	-3861
▁enter	-3862
▁solar	-3863
▁Supreme	-3864
noon	-3865
▁Bern	-3866
▁feet	-3867
het	-3868
▁PC	-3869
▁survey	-3870
▁planned	-3871
▁planning	-3872
▁altern	-3873
▁winning	-3874
▁Group	-3875
▁integr	-3876
▁injured	-3877
▁challeng	-3878
rick	-3879
inger	-3880
▁talks	-3881
▁thinking	-3882
iller	-3883
▁shared	-3884
put	-3885
▁Thom	-3886
▁competition	-3887
▁Uk	-3888
▁amaz	-3889
▁Association	-3890
▁vac	-3891
▁refe	-3892
icip	-3893
▁Sur	-3894
▁eye	-3895
vere	-3896
▁adult	-3897
▁joined	-3898
▁dollars	-3899
▁nine	-3900
real	-3901
▁offers	-3902
ipl	-3903
oses	-3904
▁Que	-3905
▁interested	-3906
bon	-3907
enty	-3908
▁Bur	-3909
ocking	-3910
▁condition	-3911
add	-3912
bour	-3913
▁BBC	-3914
▁Fore	-3915
▁grad	-3916
▁Carol	-3917
▁Commun	-3918
▁highly	-3919
▁https	-3920
▁GOP	-3921
▁parties	-3922
▁accident	-3923
▁identified	-3924
IL	-3925
▁central	-3926
▁coverage	-3927
▁individuals	-3928
▁Upd	-3929
urance	-3930
za	-3931
gers	-3932
part	-3933
▁ut	-3934
▁spend	-3935
▁Palest	-3936
-4	-3937
▁wild	-3938
season	-3939
▁society	-3940
PD	-3941
▁opposition	-3942
▁Jose	-3943
eration	-3944
▁activity	-3945
▁physical	-3946
▁commission	-3947
weet	-3948
▁Tra	-3949
▁runs	-3950
▁uses	-3951
▁Public	-3952
▁choose	-3953
▁status	-3954
▁afternoon	-3955
▁transport	-3956
▁fat	-3957
▁ice	-3958
▁pow	-3959
▁newsp	-3960
owl	-3961
▁FC	-3962
▁Any	-3963
twitter	-3964
▁intelligence	-3965
▁80	-3966
▁serve	-3967
oes	-3968
ancy	-3969
sych	-3970
▁ruling	-3971
▁scientists	-3972
3,	-3973
rs	-3974
▁Leg	-3975
▁bal	-3976
ented	-3977
orrow	-3978
▁lines	-3979
▁places	-3980
▁yesterday	-3981
▁Rock	-3982
▁chem	-3983
▁advoc	-3984
acing	-3985
▁Ukrain	-3986
▁stated	-3987
▁culture	-3988
▁patients	-3989
▁Christian	-3990
▁sometimes	-3991
EM	-3992
iance	-3993
▁jail	-3994
▁speak	-3995
▁complex	-3996
▁mist	-3997
▁knows	-3998
▁freedom	-3999
▁deg	-4000
▁trou	-4001
▁alone	-4002
▁correct	-4003
▁Tre	-4004
▁maybe	-4005
▁votes	-4006
▁surround	-4007
aith	-4008
▁Joe	-4009
▁write	-4010
▁characters	-4011
▁wat	-4012
▁dark	-4013
makers	-4014
▁secret	-4015
Ch	-4016
▁Another	-4017
▁responsible	-4018
TV	-4019
▁attend	-4020
▁90	-4021
▁north	-4022
PA	-4023
igned	-4024
▁Ter	-4025
▁announcement	-4026
▁kick	-4027
▁prec	-4028
▁streng	-4029
▁effects	-4030
▁transfer	-4031
▁virt	-4032
▁Because	-4033
▁path	-4034
▁notice	-4035
▁29	-4036
ront	-4037
▁Show	-4038
▁successful	-4039
▁iPh	-4040
witch	-4041
▁fresh	-4042
▁decades	-4043
▁willing	-4044
illa	-4045
adium	-4046
▁Louis	-4047
▁commercial	-4048
▁ign	-4049
▁Good	-4050
▁radio	-4051
▁raise	-4052
▁daughter	-4053
▁television	-4054
▁application	-4055
▁Mel	-4056
▁Pri	-4057
▁rule	-4058
▁voice	-4059
▁construction	-4060
gar	-4061
town	-4062
▁caught	-4063
▁clearly	-4064
dom	-4065
term	-4066
▁rare	-4067
onents	-4068
▁Virgin	-4069
▁straight	-4070
▁mission	-4071
▁determin	-4072
▁businesses	-4073
org	-4074
cing	-4075
▁reflect	-4076
▁$4	-4077
▁defe	-4078
▁pros	-4079
▁Those	-4080
EL	-4081
:30	-4082
▁san	-4083
▁spoke	-4084
night	-4085
▁Stud	-4086
▁powerful	-4087
▁scheduled	-4088
▁teac	-4089
▁homes	-4090
▁Island	-4091
▁normal	-4092
▁concept	-4093
▁investment	-4094
illing	-4095
▁items	-4096
▁remember	-4097
▁Government	-4098
▁amb	-4099
▁absolute	-4100
person	-4101
▁Secretary	-4102
▁Camp	-4103
▁notes	-4104
▁Bush	-4105
▁refuge	-4106
▁hundreds	-4107
/2	-4108
▁Both	-4109
▁adop	-4110
▁70	-4111
▁heavy	-4112
▁putting	-4113
▁provides	-4114
nel	-4115
▁dism	-4116
▁fired	-4117
▁animals	-4118
more	-4119
▁retail	-4120
▁yourself	-4121
ining	-4122
▁Once	-4123
▁Road	-4124
▁removed	-4125
cul	-4126
ikes	-4127
▁advant	-4128
▁exclus	-4129
▁hus	-4130
▁rise	-4131
▁Great	-4132
▁incred	-4133
▁Britain	-4134
▁Share	-4135
▁girls	-4136
▁millions	-4137
▁dangerous	-4138
▁reporters	-4139
▁candidates	-4140
▁difference	-4141
▁Sing	-4142
▁creating	-4143
▁separate	-4144
arr	-4145
▁Jones	-4146
▁council	-4147
▁served	-4148
▁conflic	-4149
▁copyright	-4150
▁migr	-4151
ipp	-4152
▁onto	-4153
wise	-4154
▁sale	-4155
▁fourth	-4156
▁Ev	-4157
▁reduce	-4158
▁meaning	-4159
▁suggested	-4160
just	-4161
atively	-4162
cher	-4163
known	-4164
▁debt	-4165
▁veter	-4166
▁Syrian	-4167
otten	-4168
▁hasn	-4169
▁Robert	-4170
bing	-4171
ctors	-4172
rency	-4173
▁hopes	-4174
▁experim	-4175
▁allowing	-4176
▁Inter	-4177
▁detect	-4178
▁reject	-4179
▁bomb	-4180
bol	-4181
gun	-4182
▁color	-4183
▁controll	-4184
▁Kim	-4185
iring	-4186
00,000	-4187
▁apparently	-4188
iser	-4189
▁Images	-4190
▁Israeli	-4191
sen	-4192
▁Who	-4193
▁easily	-4194
▁independent	-4195
▁et	-4196
ivity	-4197
▁print	-4198
dd	-4199
▁suit	-4200
▁vill	-4201
▁Despite	-4202
OM	-4203
▁Ac	-4204
▁CNN	-4205
▁warning	-4206
▁traditional	-4207
outhern	-4208
▁weight	-4209
▁seeking	-4210
▁waiting	-4211
▁allegedly	-4212
azine	-4213
▁scen	-4214
iverse	-4215
ghan	-4216
iful	-4217
kin	-4218
ucky	-4219
▁flow	-4220
friend	-4221
▁Instead	-4222
TC	-4223
▁Cle	-4224
onald	-4225
▁cuts	-4226
▁south	-4227
▁deliver	-4228
▁definitely	-4229
▁teen	-4230
▁walk	-4231
▁Jon	-4232
▁grant	-4233
▁watching	-4234
▁professional	-4235
rey	-4236
▁larger	-4237
▁eyes	-4238
▁Thomas	-4239
icit	-4240
▁thanks	-4241
▁learned	-4242
▁analysis	-4243
▁gar	-4244
ategy	-4245
▁Frank	-4246
▁throw	-4247
▁ship	-4248
▁Thanks	-4249
▁Nov	-4250
andon	-4251
▁lose	-4252
cribe	-4253
▁funds	-4254
▁audience	-4255
▁measures	-4256
▁35	-4257
▁arrived	-4258
▁produced	-4259
▁offering	-4260
If	-4261
gu	-4262
There	-4263
acity	-4264
▁cancer	-4265
▁double	-4266
▁placed	-4267
▁Spr	-4268
cription	-4269
▁produce	-4270
see	-4271
▁Atl	-4272
▁voted	-4273
▁amazing	-4274
▁becoming	-4275
ario	-4276
▁male	-4277
▁providing	-4278
rd	-4279
▁Lab	-4280
▁Plan	-4281
▁Service	-4282
▁excited	-4283
ste	-4284
▁Den	-4285
▁Ken	-4286
▁Down	-4287
▁hero	-4288
▁existing	-4289
▁returned	-4290
?"	-4291
icated	-4292
▁batter	-4293
▁attorney	-4294
▁committed	-4295
well	-4296
▁defend	-4297
▁Francisco	-4298
mar	-4299
eline	-4300
icians	-4301
▁limit	-4302
▁style	-4303
▁Year	-4304
▁holding	-4305
▁vehicles	-4306
▁Institute	-4307
pri	-4308
ups	-4309
▁critical	-4310
▁active	-4311
▁iPhone	-4312
▁Mexico	-4313
▁Richard	-4314
▁stopped	-4315
▁extremely	-4316
zen	-4317
▁Fe	-4318
ader	-4319
win	-4320
icide	-4321
▁church	-4322
ortunately	-4323
oston	-4324
▁crew	-4325
▁About	-4326
▁sports	-4327
▁Cur	-4328
▁Steve	-4329
▁taxes	-4330
▁evening	-4331
▁NBC	-4332
▁2018	-4333
▁seek	-4334
▁mount	-4335
▁obtain	-4336
▁repeated	-4337
▁Mass	-4338
ae	-4339
▁Prem	-4340
▁catch	-4341
▁immigration	-4342
ORE	-4343
rial	-4344
ashed	-4345
▁Back	-4346
mine	-4347
▁ded	-4348
▁episode	-4349
▁concerned	-4350
ada	-4351
ano	-4352
▁gra	-4353
▁partner	-4354
▁31	-4355
▁Team	-4356
ifying	-4357
▁wearing	-4358
▁politics	-4359
chan	-4360
▁som	-4361
▁figures	-4362
▁husband	-4363
DA	-4364
500	-4365
ien	-4366
....	-4367
▁Mur	-4368
▁mer	-4369
▁pil	-4370
▁debut	-4371
▁Sports	-4372
▁nature	-4373
▁witness	-4374
bre	-4375
icon	-4376
iation	-4377
▁ML	-4378
ania	-4379
▁Peter	-4380
▁drivers	-4381
lor	-4382
▁bag	-4383
▁Afghan	-4384
▁greater	-4385
▁supported	-4386
▁MP	-4387
▁syn	-4388
ength	-4389
▁responded	-4390
▁32	-4391
▁prosecut	-4392
ribution	-4393
▁ton	-4394
esters	-4395
▁benefit	-4396
▁exchange	-4397
OL	-4398
ests	-4399
▁fit	-4400
▁harm	-4401
▁Palestin	-4402
amb	-4403
▁Martin	-4404
▁dropped	-4405
▁pair	-4406
▁stock	-4407
▁supposed	-4408
house	-4409
▁upcoming	-4410
itz	-4411
▁Ir	-4412
▁frequ	-4413
estival	-4414
▁approved	-4415
▁resources	-4416
ka	-4417
▁Jew	-4418
▁arm	-4419
▁fuel	-4420
reens	-4421
▁disco	-4422
▁injuries	-4423
▁tack	-4424
▁lawsuit	-4425
▁Research	-4426
You	-4427
▁lay	-4428
▁Scot	-4429
▁drugs	-4430
▁bottom	-4431
▁housing	-4432
lymp	-4433
▁abuse	-4434
▁react	-4435
▁Western	-4436
As	-4437
onym	-4438
▁Top	-4439
www	-4440
▁Open	-4441
▁apps	-4442
icious	-4443
▁Journal	-4444
▁happens	-4445
▁privacy	-4446
▁bringing	-4447
▁leadership	-4448
ker	-4449
▁developers	-4450
gl	-4451
ading	-4452
▁editor	-4453
▁helping	-4454
▁Sol	-4455
ictions	-4456
▁rough	-4457
▁purchase	-4458
▁Time	-4459
▁Author	-4460
ocol	-4461
▁Australian	-4462
▁Mean	-4463
▁mostly	-4464
▁steps	-4465
99	-4466
ilty	-4467
▁floor	-4468
▁strike	-4469
▁emergency	-4470
kins	-4471
rupt	-4472
▁beer	-4473
▁trip	-4474
ih	-4475
antly	-4476
▁feeling	-4477
useum	-4478
▁tough	-4479
▁unlike	-4480
ENT	-4481
▁spir	-4482
endment	-4483
▁myself	-4484
▁Carolina	-4485
▁suggests	-4486
PS	-4487
▁Ve	-4488
ties	-4489
▁Braz	-4490
▁Andrew	-4491
▁denied	-4492
▁testing	-4493
run	-4494
▁Rad	-4495
▁Prof	-4496
▁Olymp	-4497
▁princ	-4498
▁domestic	-4499
enger	-4500
▁unit	-4501
▁ideas	-4502
▁trend	-4503
▁conservative	-4504
▁neighborhood	-4505
isted	-4506
▁accounts	-4507
▁strategy	-4508
▁introduced	-4509
prof	-4510
▁born	-4511
▁flight	-4512
▁section	-4513
▁management	-4514
▁x	-4515
mail	-4516
▁ele	-4517
▁Swed	-4518
▁whom	-4519
▁Romney	-4520
▁Seattle	-4521
▁learning	-4522
▁proposal	-4523
semb	-4524
▁faith	-4525
▁opinion	-4526
stitution	-4527
▁Ty	-4528
oted	-4529
▁Ari	-4530
▁Cop	-4531
▁Sal	-4532
▁bul	-4533
axy	-4534
▁li	-4535
arant	-4536
ighter	-4537
ortion	-4538
▁Thank	-4539
▁banks	-4540
▁Christmas	-4541
70	-4542
elled	-4543
itation	-4544
▁refused	-4545
oms	-4546
▁solution	-4547
▁newspaper	-4548
▁AT	-4549
▁Web	-4550
▁map	-4551
▁killing	-4552
dit	-4553
ideo	-4554
life	-4555
▁Lee	-4556
▁Nor	-4557
▁graph	-4558
▁sleep	-4559
▁temper	-4560
▁offensive	-4561
▁confirm	-4562
▁managed	-4563
▁Ze	-4564
▁Bus	-4565
ribute	-4566
▁located	-4567
▁telling	-4568
lets	-4569
inking	-4570
▁2015,	-4571
▁Boston	-4572
▁slight	-4573
▁justice	-4574
elly	-4575
▁Click	-4576
▁Out	-4577
ipping	-4578
▁broadcast	-4579
cohol	-4580
▁comfort	-4581
▁Bob	-4582
▁bed	-4583
▁basis	-4584
▁decade	-4585
▁century	-4586
▁advantage	-4587
5.	-4588
alse	-4589
▁Bet	-4590
▁sun	-4591
▁purs	-4592
▁Color	-4593
▁Paris	-4594
▁affected	-4595
ev	-4596
ulf	-4597
▁rat	-4598
▁Sign	-4599
▁aware	-4600
▁broke	-4601
▁keeping	-4602
▁Rem	-4603
▁2009	-4604
▁Free	-4605
▁whatever	-4606
▁Mary	-4607
▁emot	-4608
▁appoint	-4609
▁suffered	-4610
▁baby	-4611
▁facing	-4612
▁regarding	-4613
▁communities	-4614
▁applications	-4615
lyn	-4616
▁USA	-4617
▁basic	-4618
▁behavior	-4619
▁Charl	-4620
▁streets	-4621
▁Story	-4622
▁truth	-4623
▁views	-4624
▁Barack	-4625
:00	-4626
▁VR	-4627
▁Pet	-4628
▁warned	-4629
▁operating	-4630
UT	-4631
point	-4632
▁Japanese	-4633
iest	-4634
▁fol	-4635
▁YouT	-4636
▁panel	-4637
▁plays	-4638
aded	-4639
▁occas	-4640
▁actual	-4641
▁Central	-4642
▁finding	-4643
▁worse	-4644
▁videos	-4645
▁essential	-4646
▁establish	-4647
▁Ma	-4648
▁chec	-4649
icy	-4650
onn	-4651
▁appl	-4652
▁paying	-4653
▁Wal	-4654
▁eth	-4655
▁tast	-4656
▁Their	-4657
isation	-4658
▁seemed	-4659
▁dream	-4660
▁Ra	-4661
iliar	-4662
▁Michigan	-4663
aine	-4664
▁surprise	-4665
▁consumers	-4666
rees	-4667
▁updates	-4668
odes	-4669
ucks	-4670
▁pulled	-4671
▁Federal	-4672
▁agencies	-4673
▁Lin	-4674
▁Cru	-4675
▁initi	-4676
▁species	-4677
▁activities	-4678
▁appearance	-4679
idel	-4680
▁Mem	-4681
▁psych	-4682
▁operation	-4683
▁protection	-4684
outs	-4685
▁sup	-4686
▁Guard	-4687
▁solid	-4688
▁stars	-4689
▁memory	-4690
▁considering	-4691
▁2.	-4692
know	-4693
ords	-4694
▁wish	-4695
▁spl	-4696
ection	-4697
▁doubt	-4698
▁finished	-4699
▁conducted	-4700
▁connection	-4701
▁DN	-4702
▁Force	-4703
▁guilty	-4704
▁seasons	-4705
kes	-4706
ials	-4707
▁tim	-4708
▁1.	-4709
▁45	-4710
▁ang	-4711
▁Lake	-4712
▁shop	-4713
atically	-4714
arp	-4715
ius	-4716
▁NAS	-4717
▁Yes	-4718
▁farm	-4719
▁Africa	-4720
▁admitted	-4721
ST	-4722
▁dire	-4723
▁revenue	-4724
work	-4725
▁sport	-4726
▁estimated	-4727
elling	-4728
▁cells	-4729
▁score	-4730
▁island	-4731
ita	-4732
▁eat	-4733
▁blue	-4734
▁load	-4735
issions	-4736
▁3,	-4737
▁animal	-4738
▁window	-4739
▁achieve	-4740
▁AC	-4741
no	-4742
▁occurred	-4743
▁Foundation	-4744
itude	-4745
woman	-4746
▁canc	-4747
▁corner	-4748
▁YouTube	-4749
▁consult	-4750
▁smaller	-4751
1.	-4752
▁ir	-4753
▁bike	-4754
▁College	-4755
▁conclud	-4756
▁ongoing	-4757
▁Director	-4758
▁Virginia	-4759
▁speaking	-4760
ooth	-4761
▁196	-4762
▁Prot	-4763
▁Walk	-4764
▁Check	-4765
▁carried	-4766
▁recorded	-4767
▁Meanwhile	-4768
▁Fed	-4769
▁Ohio	-4770
▁Mot	-4771
ronic	-4772
▁Games	-4773
▁equip	-4774
▁union	-4775
▁worst	-4776
▁effective	-4777
oyal	-4778
▁Space	-4779
▁tells	-4780
▁capacity	-4781
ef	-4782
acks	-4783
▁Mos	-4784
▁Sky	-4785
▁Win	-4786
oh	-4787
resp	-4788
▁Put	-4789
▁THE	-4790
▁net	-4791
▁hair	-4792
▁guess	-4793
▁contain	-4794
▁surface	-4795
▁allegations	-4796
ula	-4797
▁rally	-4798
▁signs	-4799
▁afford	-4800
▁pictures	-4801
▁completed	-4802
▁knowledge	-4803
7.	-4804
FP	-4805
▁vir	-4806
▁2015.	-4807
istered	-4808
▁developing	-4809
uke	-4810
▁cards	-4811
▁easier	-4812
HL	-4813
VER	-4814
▁terrorist	-4815
▁fle	-4816
▁Week	-4817
▁subm	-4818
▁older	-4819
▁thank	-4820
▁gender	-4821
▁reporting	-4822
▁Live	-4823
ivered	-4824
▁originally	-4825
izes	-4826
▁Army	-4827
▁Email	-4828
▁Rod	-4829
istics	-4830
▁twice	-4831
▁Reuters	-4832
▁der	-4833
▁Brad	-4834
ooking	-4835
▁weather	-4836
▁PM	-4837
▁seat	-4838
▁shel	-4839
▁guard	-4840
▁ordered	-4841
ears	-4842
ruit	-4843
They	-4844
▁Hou	-4845
lywood	-4846
▁categ	-4847
▁aircraft	-4848
▁declined	-4849
▁2014.	-4850
▁generation	-4851
mond	-4852
raud	-4853
▁2014,	-4854
▁sides	-4855
▁requires	-4856
▁recommend	-4857
TA	-4858
▁Met	-4859
▁Squ	-4860
▁tun	-4861
eless	-4862
iling	-4863
▁exerc	-4864
▁African	-4865
met	-4866
anda	-4867
enses	-4868
place	-4869
▁ISIS	-4870
▁hate	-4871
ighters	-4872
▁Brazil	-4873
▁voting	-4874
▁chemical	-4875
ador	-4876
ooks	-4877
onent	-4878
▁false	-4879
▁destroy	-4880
▁studies	-4881
▁collection	-4882
▁disappoint	-4883
▁prime	-4884
▁somew	-4885
▁parking	-4886
▁agent	-4887
▁truly	-4888
▁Church	-4889
▁identity	-4890
▁defensive	-4891
udd	-4892
▁unp	-4893
▁heat	-4894
▁Techn	-4895
▁renew	-4896
▁tests	-4897
vention	-4898
▁contest	-4899
▁markets	-4900
▁secretary	-4901
▁sche	-4902
▁depart	-4903
▁Develop	-4904
▁experts	-4905
▁delivered	-4906
▁starts	-4907
▁boost	-4908
▁effic	-4909
▁secure	-4910
▁machine	-4911
rig	-4912
▁rum	-4913
▁earth	-4914
▁sector	-4915
▁appropri	-4916
▁Aut	-4917
▁Social	-4918
▁elections	-4919
▁insurance	-4920
▁Saudi	-4921
▁disease	-4922
▁focused	-4923
▁newslet	-4924
▁variety	-4925
umn	-4926
▁GM	-4927
▁Ol	-4928
aming	-4929
▁tend	-4930
ibrary	-4931
▁glass	-4932
▁expressed	-4933
ani	-4934
▁Haw	-4935
▁impl	-4936
anging	-4937
▁setting	-4938
▁bought	-4939
▁Project	-4940
▁conversation	-4941
15	-4942
rid	-4943
▁Str	-4944
inate	-4945
▁Club	-4946
▁Grand	-4947
▁acknow	-4948
▁nomine	-4949
▁covered	-4950
▁pattern	-4951
ait	-4952
itect	-4953
▁Davis	-4954
related	-4955
▁linked	-4956
▁beautiful	-4957
▁skin	-4958
ingly	-4959
▁Gree	-4960
▁models	-4961
▁Conserv	-4962
▁presence	-4963
rant	-4964
▁die	-4965
▁Enter	-4966
▁healthy	-4967
▁organizations	-4968
▁innov	-4969
ournament	-4970
▁equipment	-4971
rastructure	-4972
▁kid	-4973
▁decide	-4974
▁lawyer	-4975
):	-4976
erous	-4977
▁giant	-4978
▁tools	-4979
▁package	-4980
RA	-4981
lig	-4982
rier	-4983
▁bigger	-4984
▁Av	-4985
▁Earlier	-4986
▁Ok	-4987
▁motor	-4988
▁Daniel	-4989
▁Turkey	-4990
▁appeal	-4991
▁fellow	-4992
▁signing	-4993
LE	-4994
ato	-4995
pool	-4996
isher	-4997
orage	-4998
▁discl	-4999
▁Invest	-5000
▁sounds	-5001
12	-5002
▁squad	-5003
nab	-5004
▁pit	-5005
▁sust	-5006
--------	-5007
▁professor	-5008
Sh	-5009
▁Sum	-5010
▁Georg	-5011
▁comed	-5012
▁plane	-5013
▁losing	-5014
▁stores	-5015
▁bitcoin	-5016
▁prospect	-5017
▁remaining	-5018
▁discussion	-5019
MA	-5020
▁enem	-5021
▁standards	-5022
gn	-5023
▁fant	-5024
▁centre	-5025
▁prompt	-5026
▁Jackson	-5027
▁strateg	-5028
▁absolutely	-5029
ocr	-5030
pired	-5031
▁Penn	-5032
▁mechan	-5033
do	-5034
vey	-5035
ship	-5036
▁Human	-5037
▁novel	-5038
▁emails	-5039
osure	-5040
▁mayor	-5041
▁controversial	-5042
▁guns	-5043
ancing	-5044
anchester	-5045
▁associated	-5046
▁plus	-5047
reland	-5048
ressive	-5049
▁Jewish	-5050
▁artist	-5051
▁assess	-5052
obe	-5053
ours	-5054
atures	-5055
▁circum	-5056
▁Wik	-5057
▁2016.	-5058
▁listen	-5059
▁alcohol	-5060
▁possibly	-5061
▁province	-5062
▁Vict	-5063
▁upgr	-5064
▁files	-5065
▁Science	-5066
▁closer	-5067
▁selling	-5068
ERS	-5069
ati	-5070
ini	-5071
▁River	-5072
▁Aff	-5073
▁rid	-5074
▁Home	-5075
▁units	-5076
▁messages	-5077
▁AD	-5078
▁ST	-5079
lines	-5080
▁aggress	-5081
▁prepared	-5082
▁Manchester	-5083
,'	-5084
IP	-5085
▁resc	-5086
▁scored	-5087
▁possibility	-5088
▁grab	-5089
▁rich	-5090
▁compar	-5091
ext	-5092
oma	-5093
▁Ukraine	-5094
▁elected	-5095
▁guarant	-5096
▁protests	-5097
▁confident	-5098
▁Ant	-5099
▁Avenue	-5100
▁minute	-5101
▁Related	-5102
▁potentially	-5103
▁ing	-5104
oices	-5105
▁clot	-5106
isters	-5107
ulated	-5108
▁purpose	-5109
▁familiar	-5110
▁restaurant	-5111
6.	-5112
ios	-5113
▁fly	-5114
▁sea	-5115
usion	-5116
▁quarterback	-5117
-5	-5118
AA	-5119
OW	-5120
wing	-5121
▁max	-5122
▁2016,	-5123
▁colle	-5124
▁planet	-5125
▁Houston	-5126
▁university	-5127
rep	-5128
▁Real	-5129
uct	-5130
▁(3	-5131
▁4,	-5132
▁Ins	-5133
▁proud	-5134
▁yards	-5135
▁remove	-5136
standing	-5137
▁pointed	-5138
asy	-5139
law	-5140
oly	-5141
▁Dou	-5142
▁tom	-5143
▁Wars	-5144
▁hurt	-5145
▁soldiers	-5146
▁happening	-5147
▁Whe	-5148
▁sad	-5149
▁franch	-5150
▁supply	-5151
▁standing	-5152
▁opportunities	-5153
lo	-5154
▁Gra	-5155
ampion	-5156
▁Columb	-5157
▁finish	-5158
▁influence	-5159
DP	-5160
gins	-5161
▁Bell	-5162
lished	-5163
▁weapon	-5164
▁customer	-5165
▁decisions	-5166
vant	-5167
▁bug	-5168
▁deploy	-5169
▁Wood	-5170
▁territ	-5171
formation	-5172
▁Ros	-5173
▁Tay	-5174
▁apply	-5175
▁explos	-5176
▁Stephen	-5177
▁Colorado	-5178
icking	-5179
▁Three	-5180
▁protesters	-5181
▁Cruz	-5182
▁faces	-5183
▁teach	-5184
▁Ireland	-5185
▁accur	-5186
▁Boy	-5187
▁belief	-5188
etroit	-5189
▁feels	-5190
▁chairman	-5191
▁entertain	-5192
But	-5193
▁Gar	-5194
▁Attorney	-5195
▁3.	-5196
▁ge	-5197
▁Die	-5198
▁Hel	-5199
▁din	-5200
occer	-5201
▁Though	-5202
▁deaths	-5203
▁investors	-5204
erry	-5205
unte	-5206
▁bid	-5207
stein	-5208
▁vice	-5209
▁Video	-5210
▁largely	-5211
▁entirely	-5212
▁infrastructure	-5213
▁delay	-5214
▁prefer	-5215
▁analyst	-5216
▁intended	-5217
▁AN	-5218
▁Fil	-5219
▁Jul	-5220
orial	-5221
▁tele	-5222
▁understanding	-5223
2.	-5224
aza	-5225
xual	-5226
▁CBS	-5227
▁NBA	-5228
▁que	-5229
agues	-5230
▁scale	-5231
▁expert	-5232
▁direction	-5233
▁MORE	-5234
ansion	-5235
▁discrim	-5236
▁treated	-5237
▁facility	-5238
▁responsibility	-5239
▁Van	-5240
▁wealth	-5241
▁proceed	-5242
▁governor	-5243
▁identify	-5244
▁Hollywood	-5245
▁Call	-5246
▁pled	-5247
▁missed	-5248
▁failure	-5249
▁conflict	-5250
sea	-5251
antic	-5252
ially	-5253
tered	-5254
ulate	-5255
▁Best	-5256
▁Korean	-5257
▁advert	-5258
▁writer	-5259
3.	-5260
inct	-5261
agram	-5262
▁Blue	-5263
▁netw	-5264
▁wear	-5265
▁liter	-5266
▁apprec	-5267
▁argued	-5268
▁skills	-5269
vis	-5270
iami	-5271
▁Far	-5272
andom	-5273
▁Four	-5274
▁Judge	-5275
▁ruled	-5276
▁dismiss	-5277
▁involve	-5278
▁NY	-5279
ption	-5280
▁rank	-5281
▁occup	-5282
▁monitor	-5283
▁religion	-5284
▁boss	-5285
▁fraud	-5286
▁stick	-5287
▁listed	-5288
▁session	-5289
▁updated	-5290
And	-5291
▁click	-5292
▁crash	-5293
IV	-5294
▁ESP	-5295
▁Power	-5296
abin	-5297
▁Tal	-5298
▁UFC	-5299
▁Medic	-5300
▁armed	-5301
▁Agency	-5302
▁broken	-5303
foot	-5304
▁Lat	-5305
▁sho	-5306
▁2013,	-5307
▁Women	-5308
▁youth	-5309
▁apolog	-5310
▁movies	-5311
▁spring	-5312
▁tweeted	-5313
▁resolution	-5314
rif	-5315
ffee	-5316
▁Nick	-5317
▁rape	-5318
porary	-5319
▁medic	-5320
▁length	-5321
▁expensive	-5322
iate	-5323
▁Wat	-5324
▁coast	-5325
▁withd	-5326
▁worry	-5327
equ	-5328
andal	-5329
nergy	-5330
▁labor	-5331
▁famous	-5332
▁findings	-5333
oos	-5334
▁$6	-5335
west	-5336
aints	-5337
oving	-5338
▁rail	-5339
ruption	-5340
▁Premier	-5341
▁sitting	-5342
▁manufacture	-5343
▁Sar	-5344
hered	-5345
▁Wild	-5346
ounded	-5347
▁drink	-5348
▁nearby	-5349
▁becomes	-5350
▁seconds	-5351
imal	-5352
▁vul	-5353
▁types	-5354
ography	-5355
▁picked	-5356
▁Detroit	-5357
can	-5358
▁Card	-5359
▁Board	-5360
▁serving	-5361
▁carrying	-5362
▁mentioned	-5363
▁Su	-5364
▁Ten	-5365
▁Eric	-5366
▁Xbox	-5367
▁spons	-5368
▁Report	-5369
▁plenty	-5370
▁switch	-5371
▁lawmakers	-5372
iot	-5373
top	-5374
▁fif	-5375
▁Kevin	-5376
illance	-5377
▁campus	-5378
▁walking	-5379
▁complaint	-5380
▁background	-5381
cont	-5382
iable	-5383
▁Contin	-5384
▁Scotland	-5385
▁Exp	-5386
state	-5387
▁Jord	-5388
▁tech	-5389
▁Middle	-5390
▁determine	-5391
▁Ill	-5392
▁Kar	-5393
▁Way	-5394
▁anc	-5395
▁crimes	-5396
orse	-5397
▁snow	-5398
▁penal	-5399
▁alternative	-5400
▁ath	-5401
▁Each	-5402
▁truck	-5403
▁humans	-5404
▁challenges	-5405
▁supporting	-5406
erate	-5407
▁Miami	-5408
▁struck	-5409
isf	-5410
▁cou	-5411
▁thr	-5412
▁Ariz	-5413
▁burn	-5414
▁lots	-5415
▁winner	-5416
▁express	-5417
▁magazine	-5418
▁activists	-5419
▁confidence	-5420
Tr	-5421
ils	-5422
▁Pac	-5423
▁lob	-5424
▁gather	-5425
▁unless	-5426
▁minimum	-5427
▁cart	-5428
▁brows	-5429
▁hoping	-5430
▁hardware	-5431
4.	-5432
GBT	-5433
gas	-5434
▁Hy	-5435
▁Gov	-5436
anged	-5437
odies	-5438
enture	-5439
▁plants	-5440
▁stress	-5441
▁generally	-5442
▁highlight	-5443
▁determined	-5444
oves	-5445
allas	-5446
▁army	-5447
▁core	-5448
▁Mayor	-5449
▁crack	-5450
▁declared	-5451
▁criticism	-5452
▁environmental	-5453
▁Ann	-5454
▁Fam	-5455
iplom	-5456
▁resist	-5457
CH	-5458
▁Ro	-5459
road	-5460
▁leads	-5461
▁Former	-5462
▁command	-5463
▁announce	-5464
▁officially	-5465
lay	-5466
anes	-5467
▁Mic	-5468
▁Elect	-5469
▁Still	-5470
▁surprising	-5471
aser	-5472
▁500	-5473
angers	-5474
▁storm	-5475
▁ticket	-5476
▁structure	-5477
agn	-5478
gypt	-5479
ogan	-5480
▁mal	-5481
ademy	-5482
chers	-5483
▁films	-5484
▁studio	-5485
▁NE	-5486
ding	-5487
▁ast	-5488
▁cold	-5489
sembly	-5490
▁turns	-5491
▁imagine	-5492
▁TO	-5493
▁nor	-5494
▁View	-5495
▁helps	-5496
▁belong	-5497
▁troops	-5498
45	-5499
how	-5500
ansas	-5501
athan	-5502
▁2013.	-5503
▁breaking	-5504
▁attempted	-5505
Le	-5506
ogue	-5507
▁ride	-5508
▁Network	-5509
▁spokesperson	-5510
mm	-5511
care	-5512
▁etc	-5513
▁Walker	-5514
▁classic	-5515
▁internal	-5516
▁slightly	-5517
▁presented	-5518
▁ID	-5519
▁Sams	-5520
hew	-5521
ola	-5522
ograp	-5523
▁gain	-5524
imb	-5525
▁DC	-5526
gery	-5527
Photo	-5528
▁blow	-5529
▁none	-5530
▁convention	-5531
cean	-5532
ensions	-5533
▁publicly	-5534
awn	-5535
free	-5536
idden	-5537
▁arms	-5538
▁cook	-5539
ducing	-5540
cos	-5541
▁36	-5542
▁transl	-5543
▁shouldn	-5544
▁underst	-5545
▁changing	-5546
▁alongside	-5547
▁specifically	-5548
22	-5549
burg	-5550
ench	-5551
▁Josh	-5552
weight	-5553
▁Mount	-5554
▁micro	-5555
▁Energy	-5556
▁established	-5557
▁Adam	-5558
▁Dead	-5559
▁ESPN	-5560
▁tight	-5561
▁pieces	-5562
▁proced	-5563
▁unable	-5564
▁violent	-5565
▁featured	-5566
▁2012,	-5567
▁welcome	-5568
▁seriously	-5569
ss	-5570
▁van	-5571
▁flav	-5572
▁mand	-5573
▁lands	-5574
ributed	-5575
▁Jordan	-5576
▁registered	-5577
▁Afghanistan	-5578
▁cas	-5579
▁assum	-5580
▁resol	-5581
▁nominee	-5582
▁negative	-5583
90	-5584
▁$7	-5585
chen	-5586
sell	-5587
▁pra	-5588
verse	-5589
▁Serv	-5590
▁doctor	-5591
▁handle	-5592
▁connected	-5593
▁Lib	-5594
▁ped	-5595
▁Fort	-5596
▁Egypt	-5597
▁sought	-5598
▁explain	-5599
▁footage	-5600
awa	-5601
▁33	-5602
ican	-5603
▁Jav	-5604
▁links	-5605
▁Before	-5606
▁Steven	-5607
▁collabor	-5608
▁obviously	-5609
oles	-5610
oking	-5611
intend	-5612
▁shots	-5613
▁Senator	-5614
uster	-5615
▁Kelly	-5616
▁cloud	-5617
▁coord	-5618
▁Samsung	-5619
▁Business	-5620
▁receiving	-5621
olit	-5622
▁Ram	-5623
▁Next	-5624
urning	-5625
▁Disney	-5626
▁Wilson	-5627
▁values	-5628
▁doctors	-5629
▁storage	-5630
▁interact	-5631
▁Mu	-5632
▁PS	-5633
mont	-5634
olic	-5635
rive	-5636
Donald	-5637
ocracy	-5638
▁stret	-5639
▁remained	-5640
▁sentence	-5641
▁strength	-5642
ady	-5643
▁48	-5644
▁NASA	-5645
ossible	-5646
▁Source	-5647
▁button	-5648
▁battery	-5649
▁AL	-5650
▁Kh	-5651
gent	-5652
▁Tes	-5653
▁fish	-5654
▁currency	-5655
▁relatively	-5656
▁governments	-5657
▁constitution	-5658
▁Kn	-5659
rist	-5660
▁sem	-5661
ancou	-5662
icken	-5663
▁Sony	-5664
▁spect	-5665
▁Valley	-5666
▁politicians	-5667
hand	-5668
nabis	-5669
arters	-5670
▁Georgia	-5671
▁Pan	-5672
inals	-5673
▁lived	-5674
▁buildings	-5675
▁suspended	-5676
ket	-5677
razy	-5678
▁sud	-5679
▁Cath	-5680
▁Only	-5681
▁cooper	-5682
IM	-5683
edia	-5684
abled	-5685
▁Arch	-5686
▁2017.	-5687
ception	-5688
▁Galaxy	-5689
▁vulner	-5690
▁initially	-5691
▁surprised	-5692
essor	-5693
upport	-5694
▁chart	-5695
▁($	-5696
rawn	-5697
▁Turk	-5698
Reuters	-5699
▁widely	-5700
▁Fer	-5701
▁Foot	-5702
▁boys	-5703
▁trig	-5704
inating	-5705
▁Dallas	-5706
▁mental	-5707
▁Jr	-5708
▁Yet	-5709
under	-5710
▁shape	-5711
▁myster	-5712
abilities	-5713
▁consumer	-5714
ye	-5715
esy	-5716
▁IN	-5717
▁Oak	-5718
elect	-5719
gment	-5720
▁faster	-5721
▁follows	-5722
eds	-5723
och	-5724
ora	-5725
▁ABC	-5726
▁2000	-5727
▁Santa	-5728
▁error	-5729
▁consequ	-5730
▁passing	-5731
▁investigating	-5732
ena	-5733
ias	-5734
iger	-5735
yers	-5736
▁iOS	-5737
ulture	-5738
▁useful	-5739
▁princip	-5740
PU	-5741
oked	-5742
▁lit	-5743
ellow	-5744
▁dogs	-5745
▁marg	-5746
astern	-5747
▁breat	-5748
▁prohib	-5749
ications	-5750
▁Long	-5751
▁Brian	-5752
▁square	-5753
ancouver	-5754
▁iP	-5755
utch	-5756
▁rain	-5757
▁McCain	-5758
▁Update	-5759
▁honest	-5760
▁statements	-5761
▁increasingly	-5762
-8	-5763
esome	-5764
▁Ford	-5765
▁joint	-5766
▁severe	-5767
▁attacked	-5768
▁schedule	-5769
▁$10	-5770
▁aid	-5771
▁dat	-5772
apers	-5773
eland	-5774
▁diplom	-5775
▁Italian	-5776
▁opposed	-5777
▁transition	-5778
oken	-5779
▁Snow	-5780
▁desk	-5781
▁elim	-5782
essions	-5783
▁stands	-5784
▁thinks	-5785
▁Arizona	-5786
▁Muslims	-5787
▁argument	-5788
▁percentage	-5789
▁surrounding	-5790
phy	-5791
zer	-5792
▁turning	-5793
▁numerous	-5794
obody	-5795
▁wire	-5796
▁earned	-5797
▁channel	-5798
▁partnership	-5799
▁Ul	-5800
▁hat	-5801
▁dram	-5802
▁sequ	-5803
▁actor	-5804
▁repeatedly	-5805
25	-5806
long	-5807
▁Hot	-5808
▁Italy	-5809
▁honor	-5810
▁script	-5811
▁Championship	-5812
uate	-5813
usal	-5814
▁fees	-5815
called	-5816
stream	-5817
▁Night	-5818
▁weren	-5819
▁Rights	-5820
▁agents	-5821
▁buying	-5822
▁vision	-5823
▁Sheriff	-5824
▁threats	-5825
▁commitment	-5826
lete	-5827
icing	-5828
mates	-5829
lusion	-5830
▁combined	-5831
▁Associated	-5832
▁parliament	-5833
da	-5834
vy	-5835
ION	-5836
anish	-5837
▁banned	-5838
▁sudden	-5839
▁obvious	-5840
▁trouble	-5841
▁petition	-5842
▁versions	-5843
▁Palestinian	-5844
rison	-5845
▁adds	-5846
▁loved	-5847
▁captured	-5848
▁thoughts	-5849
▁otherwise	-5850
rich	-5851
ynam	-5852
▁Vol	-5853
▁cup	-5854
▁Life	-5855
▁adjust	-5856
TS	-5857
aug	-5858
onna	-5859
▁Hen	-5860
▁Jun	-5861
▁Kent	-5862
▁thus	-5863
▁rapid	-5864
▁Defense	-5865
▁artists	-5866
▁Vancouver	-5867
▁interests	-5868
rible	-5869
▁ends	-5870
ologies	-5871
▁Marvel	-5872
▁roughly	-5873
▁franchise	-5874
▁spokeswoman	-5875
IF	-5876
IG	-5877
▁Wi	-5878
orry	-5879
▁Its	-5880
▁exhib	-5881
▁Jersey	-5882
aped	-5883
inch	-5884
▁Fall	-5885
▁LGBT	-5886
▁Radio	-5887
▁aspect	-5888
▁theory	-5889
▁winter	-5890
▁trading	-5891
▁volunte	-5892
▁approval	-5893
▁locations	-5894
ivery	-5895
encing	-5896
▁equal	-5897
▁Miller	-5898
▁balance	-5899
▁sharing	-5900
▁claiming	-5901
▁corporate	-5902
!"	-5903
ette	-5904
▁wake	-5905
▁Polit	-5906
owa	-5907
▁kil	-5908
▁Tony	-5909
▁Young	-5910
▁brings	-5911
▁developer	-5912
▁technical	-5913
▁ultimately	-5914
IR	-5915
uzz	-5916
▁Gi	-5917
▁Pay	-5918
▁license	-5919
▁champion	-5920
▁employee	-5921
ns	-5922
▁Dig	-5923
▁Phot	-5924
▁server	-5925
rad	-5926
▁Centre	-5927
▁forget	-5928
▁talked	-5929
sex	-5930
▁Gall	-5931
▁vast	-5932
▁apart	-5933
▁faced	-5934
▁polls	-5935
▁frustr	-5936
▁Nations	-5937
▁entered	-5938
▁explains	-5939
▁refugees	-5940
▁surveillance	-5941
▁Luc	-5942
▁McG	-5943
▁unus	-5944
▁hotel	-5945
▁pitch	-5946
▁carbon	-5947
▁Administr	-5948
▁authority	-5949
hem	-5950
That	-5951
▁Copy	-5952
▁flood	-5953
▁adults	-5954
▁talent	-5955
▁playoff	-5956
▁reaction	-5957
▁Bat	-5958
▁egg	-5959
▁Bowl	-5960
ht	-5961
wan	-5962
iner	-5963
▁regional	-5964
asp	-5965
▁odd	-5966
nings	-5967
▁Asia	-5968
▁heav	-5969
▁ment	-5970
ashion	-5971
▁degree	-5972
▁advance	-5973
▁dedicated	-5974
▁Bru	-5975
▁Tit	-5976
▁Second	-5977
▁targeted	-5978
▁apartment	-5979
▁architect	-5980
gender	-5981
uts	-5982
▁Dar	-5983
▁Mat	-5984
ockey	-5985
▁2012.	-5986
▁spirit	-5987
▁immigrants	-5988
ez	-5989
▁4.	-5990
▁Rs	-5991
▁Robin	-5992
▁heads	-5993
resents	-5994
▁Taylor	-5995
▁northern	-5996
▁significantly	-5997
▁Rev	-5998
▁Vis	-5999
▁moves	-6000
▁prove	-6001
▁surgery	-6002
▁reporter	-6003
▁materials	-6004
DS	-6005
LA	-6006
▁Det	-6007
▁hun	-6008
▁Cy	-6009
hens	-6010
▁Ell	-6011
inder	-6012
▁fake	-6013
employ	-6014
▁suppl	-6015
▁combat	-6016
▁virtual	-6017
▁abortion	-6018
ala	-6019
ache	-6020
▁arr	-6021
▁bon	-6022
▁yes	-6023
▁Carl	-6024
▁Rick	-6025
▁tournament	-6026
va	-6027
▁IT	-6028
asts	-6029
mosp	-6030
▁Rub	-6031
▁tag	-6032
aland	-6033
ayers	-6034
▁Putin	-6035
▁label	-6036
▁instit	-6037
▁matters	-6038
▁suicide	-6039
▁rejected	-6040
▁perman	-6041
▁predict	-6042
PR	-6043
ua	-6044
▁Men	-6045
▁weak	-6046
▁phones	-6047
▁founder	-6048
▁penalty	-6049
▁plastic	-6050
▁promised	-6051
hab	-6052
oty	-6053
▁cry	-6054
▁Come	-6055
lights	-6056
▁cerem	-6057
▁creation	-6058
▁division	-6059
▁OS	-6060
▁Inf	-6061
▁Old	-6062
▁Take	-6063
▁craft	-6064
▁master	-6065
▁remind	-6066
▁married	-6067
▁payments	-6068
▁terrorism	-6069
OC	-6070
abb	-6071
bec	-6072
▁Jes	-6073
▁Max	-6074
agers	-6075
▁Atlanta	-6076
▁circumst	-6077
▁household	-6078
bn	-6079
.99	-6080
rip	-6081
host	-6082
▁pool	-6083
▁Organ	-6084
▁advice	-6085
▁discussed	-6086
▁positions	-6087
cow	-6088
izz	-6089
adel	-6090
redit	-6091
▁Major	-6092
▁entry	-6093
idelines	-6094
▁attempts	-6095
▁continuing	-6096
▁explo	-6097
▁sharp	-6098
▁pushed	-6099
▁Services	-6100
▁inspired	-6101
▁expansion	-6102
▁scr	-6103
▁Pict	-6104
▁zone	-6105
Americ	-6106
ourney	-6107
▁route	-6108
▁approx	-6109
▁leaves	-6110
▁rising	-6111
▁matches	-6112
▁reference	-6113
-7	-6114
▁Sn	-6115
▁300	-6116
arden	-6117
▁Chel	-6118
▁Land	-6119
▁Marc	-6120
▁icon	-6121
▁mode	-6122
▁ties	-6123
▁complic	-6124
▁custody	-6125
▁targets	-6126
▁ads	-6127
▁suc	-6128
▁Asian	-6129
▁Tesla	-6130
▁Where	-6131
uration	-6132
▁favour	-6133
▁symbol	-6134
▁abandon	-6135
▁exciting	-6136
aze	-6137
tic	-6138
▁MS	-6139
▁loan	-6140
▁Labor	-6141
▁Labour	-6142
▁roster	-6143
▁Society	-6144
▁causing	-6145
▁Hospital	-6146
▁Ministry	-6147
▁experienced	-6148
▁49	-6149
▁5,	-6150
▁Ha	-6151
▁IC	-6152
▁Dun	-6153
▁Anth	-6154
▁Iowa	-6155
▁batt	-6156
▁holiday	-6157
ATE	-6158
ixt	-6159
▁bath	-6160
▁bird	-6161
▁sending	-6162
▁therefore	-6163
▁worldwide	-6164
▁posts	-6165
▁retire	-6166
▁Foreign	-6167
▁Special	-6168
▁congress	-6169
▁downtown	-6170
▁electricity	-6171
▁communications	-6172
▁37	-6173
▁Di	-6174
▁enh	-6175
otted	-6176
▁bond	-6177
▁gang	-6178
▁unlikely	-6179
spe	-6180
▁Hun	-6181
▁east	-6182
▁Coast	-6183
▁facts	-6184
▁titles	-6185
▁Spanish	-6186
▁exclusive	-6187
▁installed	-6188
▁selection	-6189
▁appropriate	-6190
pan	-6191
phas	-6192
▁Stan	-6193
▁Turn	-6194
▁songs	-6195
▁System	-6196
▁filled	-6197
▁resign	-6198
▁visual	-6199
▁acknowled	-6200
▁immediate	-6201
▁intention	-6202
rog	-6203
▁auth	-6204
▁clin	-6205
▁condem	-6206
▁cameras	-6207
▁regulations	-6208
▁SC	-6209
▁Cam	-6210
▁bat	-6211
overy	-6212
uties	-6213
▁accom	-6214
▁shares	-6215
▁Company	-6216
▁sick	-6217
▁Maybe	-6218
▁writes	-6219
▁Turkish	-6220
▁involving	-6221
▁LA	-6222
▁Sk	-6223
asure	-6224
lands	-6225
▁Somet	-6226
▁gaming	-6227
▁Speaking	-6228
▁represents	-6229
▁brew	-6230
▁Charles	-6231
▁totally	-6232
▁anywhere	-6233
▁marketing	-6234
▁practices	-6235
boy	-6236
▁38	-6237
born	-6238
▁Div	-6239
▁kit	-6240
itors	-6241
▁fifth	-6242
▁pilot	-6243
▁Global	-6244
▁impossible	-6245
▁Ah	-6246
▁PR	-6247
whel	-6248
▁nar	-6249
▁edge	-6250
▁owned	-6251
▁bodies	-6252
▁capable	-6253
▁passion	-6254
▁Instagram	-6255
▁Jac	-6256
▁Have	-6257
▁deputy	-6258
▁satell	-6259
fortunately	-6260
▁contributed	-6261
ima	-6262
wor	-6263
oria	-6264
▁elig	-6265
▁Liver	-6266
▁crypt	-6267
▁shift	-6268
▁tickets	-6269
▁directed	-6270
▁suspects	-6271
▁protected	-6272
▁threatened	-6273
▁fee	-6274
▁waste	-6275
▁struct	-6276
▁noticed	-6277
▁exercise	-6278
▁selected	-6279
apter	-6280
ishes	-6281
▁grew	-6282
▁wood	-6283
▁Brook	-6284
▁analy	-6285
▁newly	-6286
▁Market	-6287
▁anonym	-6288
▁random	-6289
▁remarks	-6290
▁assistant	-6291
17	-6292
enda	-6293
▁rein	-6294
▁wins	-6295
▁Minnes	-6296
▁compete	-6297
▁nations	-6298
▁patient	-6299
▁shortly	-6300
▁returning	-6301
▁impressive	-6302
▁scientific	-6303
bel	-6304
hat	-6305
fire	-6306
star	-6307
▁Note	-6308
▁Orig	-6309
▁lock	-6310
▁Again	-6311
▁aimed	-6312
▁holds	-6313
▁metal	-6314
▁intent	-6315
▁scheme	-6316
II	-6317
izon	-6318
lock	-6319
▁Sea	-6320
▁pod	-6321
ington	-6322
▁bills	-6323
▁comic	-6324
▁cyber	-6325
▁dress	-6326
▁forms	-6327
▁behavi	-6328
▁Stadium	-6329
▁cannabis	-6330
▁improved	-6331
keep	-6332
▁tip	-6333
▁clubs	-6334
▁Bernie	-6335
▁coffee	-6336
▁accompl	-6337
▁viewers	-6338
▁cultural	-6339
▁row	-6340
▁inqu	-6341
▁folks	-6342
▁seats	-6343
▁regime	-6344
▁promote	-6345
▁instance	-6346
▁networks	-6347
▁southern	-6348
▁Following	-6349
▁colleagues	-6350
14	-6351
For	-6352
▁Hist	-6353
▁native	-6354
▁punish	-6355
▁village	-6356
▁elements	-6357
▁requests	-6358
SS	-6359
icul	-6360
illy	-6361
▁Lew	-6362
▁mut	-6363
▁Delhi	-6364
▁awesome	-6365
▁pushing	-6366
alo	-6367
olen	-6368
unning	-6369
▁Beach	-6370
▁begins	-6371
▁veteran	-6372
▁sanctions	-6373
▁Parliament	-6374
▁possession	-6375
▁Dam	-6376
▁swe	-6377
▁bench	-6378
▁accepted	-6379
ami	-6380
▁Love	-6381
▁fill	-6382
▁1,000	-6383
▁incidents	-6384
▁tact	-6385
▁Jason	-6386
▁detailed	-6387
UR	-6388
pire	-6389
▁cru	-6390
erves	-6391
which	-6392
▁hall	-6393
apping	-6394
▁Irish	-6395
▁cable	-6396
▁athlet	-6397
▁remote	-6398
▁teacher	-6399
);	-6400
▁Metro	-6401
▁likes	-6402
▁satisf	-6403
▁closely	-6404
▁readers	-6405
▁reduced	-6406
▁unknown	-6407
▁coalition	-6408
-6	-6409
▁IP	-6410
▁flat	-6411
▁gall	-6412
▁Linux	-6413
▁pages	-6414
▁pregn	-6415
oil	-6416
▁Food	-6417
▁meat	-6418
▁tiny	-6419
▁tree	-6420
▁Right	-6421
▁deleg	-6422
▁motiv	-6423
▁Chelsea	-6424
▁univers	-6425
▁supports	-6426
TON	-6427
hus	-6428
▁Os	-6429
▁sky	-6430
▁tow	-6431
▁Greg	-6432
▁bail	-6433
▁zero	-6434
▁Below	-6435
▁Music	-6436
▁herself	-6437
▁Balt	-6438
▁gift	-6439
▁airport	-6440
▁context	-6441
▁greatest	-6442
▁encourage	-6443
comm	-6444
onom	-6445
rell	-6446
▁warm	-6447
fficient	-6448
▁Minnesota	-6449
▁Camer	-6450
▁Diego	-6451
▁fewer	-6452
▁eating	-6453
▁experiment	-6454
▁GT	-6455
▁era	-6456
5,000	-6457
ijing	-6458
oster	-6459
▁ring	-6460
▁crazy	-6461
▁ending	-6462
ulations	-6463
▁returns	-6464
▁instruct	-6465
▁Community	-6466
Get	-6467
pet	-6468
▁CH	-6469
orders	-6470
▁split	-6471
▁Square	-6472
▁Patrick	-6473
▁unclear	-6474
▁typically	-6475
13	-6476
LC	-6477
yo	-6478
▁Jam	-6479
▁nav	-6480
print	-6481
▁fort	-6482
50,000	-6483
engers	-6484
▁Bloom	-6485
▁incor	-6486
▁usual	-6487
▁atmosp	-6488
▁Zealand	-6489
▁Liverpool	-6490
▁convicted	-6491
▁facilities	-6492
acle	-6493
▁mort	-6494
▁west	-6495
▁Child	-6496
▁subsid	-6497
▁Academy	-6498
itable	-6499
▁legit	-6500
▁taste	-6501
▁Econom	-6502
▁incredible	-6503
ko	-6504
game	-6505
▁alt	-6506
▁cert	-6507
▁Moscow	-6508
▁Beijing	-6509
▁payment	-6510
▁delivery	-6511
▁Hu	-6512
aire	-6513
dney	-6514
phia	-6515
▁ven	-6516
▁www	-6517
onsin	-6518
regon	-6519
▁Care	-6520
▁stab	-6521
pective	-6522
▁client	-6523
▁tracks	-6524
isconsin	-6525
▁factors	-6526
▁basically	-6527
▁everybody	-6528
24	-6529
An	-6530
tle	-6531
ums	-6532
▁forg	-6533
▁basket	-6534
▁bright	-6535
▁harass	-6536
▁informed	-6537
16	-6538
▁sch	-6539
scribe	-6540
▁paint	-6541
▁stood	-6542
▁overse	-6543
▁Constitution	-6544
▁negotiations	-6545
▁Administration	-6546
▁Ba	-6547
chain	-6548
sters	-6549
▁2007	-6550
▁Anthony	-6551
▁advanced	-6552
▁historic	-6553
▁smartphone	-6554
▁Development	-6555
▁institutions	-6556
roc	-6557
burgh	-6558
ocolate	-6559
▁enable	-6560
▁stations	-6561
uce	-6562
war	-6563
pass	-6564
▁Mid	-6565
▁Head	-6566
▁liqu	-6567
▁plug	-6568
▁task	-6569
ounger	-6570
▁urged	-6571
▁depend	-6572
adelphia	-6573
▁suspected	-6574
▁investigators	-6575
po	-6576
▁34	-6577
▁Er	-6578
▁Ron	-6579
anges	-6580
everal	-6581
▁county	-6582
▁journey	-6583
▁tonight	-6584
▁substant	-6585
▁increases	-6586
▁industrial	-6587
mes	-6588
▁sav	-6589
▁Justin	-6590
▁dollar	-6591
▁orders	-6592
▁promise	-6593
▁attended	-6594
Is	-6595
▁AR	-6596
▁rent	-6597
▁recall	-6598
▁missile	-6599
▁offense	-6600
▁Independ	-6601
eah	-6602
▁Ep	-6603
▁Ut	-6604
senal	-6605
▁risks	-6606
▁tested	-6607
▁Wisconsin	-6608
▁participants	-6609
adow	-6610
etic	-6611
▁rus	-6612
uable	-6613
▁Bang	-6614
abinet	-6615
▁Among	-6616
▁alive	-6617
▁ministry	-6618
▁championship	-6619
flix	-6620
▁10,	-6621
force	-6622
osite	-6623
▁Sher	-6624
enders	-6625
igation	-6626
▁Joseph	-6627
▁liberal	-6628
▁NC	-6629
etts	-6630
▁150	-6631
▁Book	-6632
▁Circ	-6633
▁dial	-6634
▁Water	-6635
▁cited	-6636
▁quiet	-6637
▁rival	-6638
▁Oregon	-6639
▁producer	-6640
23	-6641
▁acts	-6642
▁unve	-6643
iences	-6644
▁chain	-6645
▁datab	-6646
▁spark	-6647
▁Reddit	-6648
▁Football	-6649
▁journalists	-6650
ho	-6651
era	-6652
▁outr	-6653
▁sweet	-6654
▁acting	-6655
▁flying	-6656
▁remark	-6657
▁sentenced	-6658
▁suffering	-6659
azi	-6660
▁Spain	-6661
▁valid	-6662
▁defeat	-6663
▁ourselves	-6664
▁Unfortunately	-6665
▁Cat	-6666
▁Hay	-6667
▁Ont	-6668
▁Rand	-6669
▁Class	-6670
▁audio	-6671
▁multi	-6672
▁reveal	-6673
▁Medical	-6674
▁circumstances	-6675
▁5.	-6676
▁11,	-6677
▁hur	-6678
▁Oper	-6679
▁taxp	-6680
unction	-6681
▁motion	-6682
▁powers	-6683
▁tackle	-6684
iversary	-6685
▁visited	-6686
▁approximately	-6687
erm	-6688
iat	-6689
▁Py	-6690
▁ham	-6691
▁Sydney	-6692
▁affili	-6693
▁fairly	-6694
▁contains	-6695
▁overwhel	-6696
▁visitors	-6697
▁permission	-6698
▁Philadelphia	-6699
bo	-6700
hy	-6701
ded	-6702
▁42	-6703
▁Educ	-6704
▁2011,	-6705
▁explore	-6706
▁tomorrow	-6707
isan	-6708
rome	-6709
imore	-6710
▁Hard	-6711
▁diss	-6712
▁optim	-6713
▁excell	-6714
▁handed	-6715
▁screens	-6716
▁warrant	-6717
▁obtained	-6718
▁Hom	-6719
▁Rog	-6720
itter	-6721
▁sees	-6722
▁Anton	-6723
▁argue	-6724
▁Austin	-6725
▁worried	-6726
▁creative	-6727
dy	-6728
anny	-6729
aron	-6730
zens	-6731
▁sam	-6732
ician	-6733
inent	-6734
▁clar	-6735
▁mere	-6736
▁Series	-6737
▁assets	-6738
▁Several	-6739
▁experiences	-6740
cho	-6741
post	-6742
▁Six	-6743
▁mir	-6744
▁situ	-6745
▁Chair	-6746
▁indeed	-6747
▁compens	-6748
▁distance	-6749
▁replaced	-6750
ta	-6751
▁u	-6752
uros	-6753
▁mail	-6754
▁Light	-6755
▁deals	-6756
respond	-6757
▁salary	-6758
8.	-6759
BO	-6760
bar	-6761
▁drag	-6762
▁Moore	-6763
▁blame	-6764
▁theme	-6765
▁Albert	-6766
▁emphas	-6767
▁cutting	-6768
▁terrorists	-6769
▁Cub	-6770
▁lie	-6771
iform	-6772
▁Cast	-6773
▁tall	-6774
▁Local	-6775
▁grown	-6776
▁factor	-6777
▁legend	-6778
uted	-6779
iscal	-6780
intendo	-6781
▁licens	-6782
▁subsequ	-6783
▁confront	-6784
▁transgender	-6785
otic	-6786
power	-6787
▁termin	-6788
▁joining	-6789
▁fundament	-6790
▁performed	-6791
▁comfortable	-6792
▁43	-6793
iana	-6794
inem	-6795
oral	-6796
with	-6797
▁Bull	-6798
▁applied	-6799
▁defence	-6800
▁featuring	-6801
▁investigate	-6802
bro	-6803
▁Ca	-6804
ilton	-6805
rooms	-6806
ureau	-6807
▁Program	-6808
▁browser	-6809
▁dealing	-6810
▁neither	-6811
▁raising	-6812
▁unusual	-6813
▁younger	-6814
▁Portland	-6815
▁drinking	-6816
▁entering	-6817
▁recovery	-6818
ali	-6819
ria	-6820
▁Make	-6821
▁busy	-6822
▁passengers	-6823
ba	-6824
▁(4	-6825
▁AS	-6826
▁ju	-6827
irty	-6828
▁pounds	-6829
▁authors	-6830
1]	-6831
ey	-6832
▁NSA	-6833
achus	-6834
ounced	-6835
▁Field	-6836
▁racist	-6837
iti	-6838
▁ET	-6839
▁ON	-6840
▁Ult	-6841
▁Alab	-6842
▁earn	-6843
▁fighters	-6844
▁8,	-6845
eman	-6846
ouch	-6847
▁Pitt	-6848
▁Rose	-6849
▁bear	-6850
▁hits	-6851
▁hitting	-6852
▁Northern	-6853
▁Bas	-6854
▁bac	-6855
▁ske	-6856
phones	-6857
▁trick	-6858
ionally	-6859
▁strongly	-6860
▁photograph	-6861
▁Fair	-6862
▁fashion	-6863
▁scoring	-6864
▁extension	-6865
▁recording	-6866
%.	-6867
nic	-6868
emen	-6869
▁pip	-6870
front	-6871
▁amid	-6872
▁bound	-6873
▁withdraw	-6874
▁requirements	-6875
mad	-6876
▁OK	-6877
▁SH	-6878
▁af	-6879
ocket	-6880
water	-6881
▁pace	-6882
ration	-6883
▁laugh	-6884
▁quant	-6885
▁extrem	-6886
▁recipe	-6887
▁stolen	-6888
▁ancient	-6889
▁watched	-6890
▁unemploy	-6891
▁competitive	-6892
Al	-6893
pat	-6894
▁$8	-6895
▁Dog	-6896
▁Ren	-6897
ielder	-6898
▁Build	-6899
▁urban	-6900
▁agenda	-6901
▁lights	-6902
▁walked	-6903
▁Netflix	-6904
▁library	-6905
▁assistance	-6906
▁Information	-6907
DC	-6908
No	-6909
erts	-6910
▁20,	-6911
▁Bol	-6912
acked	-6913
class	-6914
earing	-6915
▁referend	-6916
▁referred	-6917
▁Copyright	-6918
▁Subscribe	-6919
▁democracy	-6920
uan	-6921
▁6,	-6922
itar	-6923
▁Ash	-6924
▁Kir	-6925
▁Ret	-6926
acking	-6927
ounter	-6928
▁chose	-6929
▁veget	-6930
▁Family	-6931
▁Online	-6932
▁Sweden	-6933
▁mistake	-6934
▁Baltimore	-6935
▁revolution	-6936
ugg	-6937
sole	-6938
▁tied	-6939
▁wage	-6940
idency	-6941
veland	-6942
▁Civil	-6943
▁cheap	-6944
▁anticip	-6945
MP	-6946
▁Bo	-6947
▁Ott	-6948
▁eval	-6949
▁hell	-6950
▁Store	-6951
▁recip	-6952
▁conven	-6953
▁rating	-6954
▁Addition	-6955
▁streaming	-6956
18	-6957
▁Lu	-6958
amac	-6959
▁Pen	-6960
heast	-6961
itals	-6962
stone	-6963
▁cream	-6964
▁finds	-6965
▁courts	-6966
▁profile	-6967
▁subscrib	-6968
▁purchased	-6969
▁participate	-6970
▁15,	-6971
▁bra	-6972
▁mine	-6973
▁sets	-6974
▁Getty	-6975
▁sugar	-6976
ologist	-6977
▁Credit	-6978
▁backed	-6979
▁behalf	-6980
▁explan	-6981
▁regularly	-6982
▁NEW	-6983
bling	-6984
pected	-6985
▁Sound	-6986
▁causes	-6987
▁gotten	-6988
▁manage	-6989
▁default	-6990
▁heading	-6991
▁recover	-6992
▁feedback	-6993
▁teachers	-6994
▁effectively	-6995
ylv	-6996
▁je	-6997
▁flo	-6998
▁tor	-6999
▁Dark	-7000
▁iPad	-7001
▁puts	-7002
▁Oakland	-7003
▁Nintendo	-7004
▁controversy	-7005
19	-7006
▁7,	-7007
▁Lt	-7008
▁Mah	-7009
▁Line	-7010
▁exec	-7011
▁Cross	-7012
▁amounts	-7013
▁celebrate	-7014
GO	-7015
TIS	-7016
What	-7017
osen	-7018
ylum	-7019
▁Arm	-7020
▁Did	-7021
▁Ted	-7022
▁Brew	-7023
▁mixed	-7024
athered	-7025
▁maximum	-7026
▁properly	-7027
When	-7028
aska	-7029
▁Dom	-7030
EMENT	-7031
-9	-7032
-10	-7033
word	-7034
▁Mir	-7035
found	-7036
▁Cook	-7037
▁Kong	-7038
▁Kurd	-7039
▁Intel	-7040
▁Execut	-7041
▁Morgan	-7042
▁somebody	-7043
55	-7044
lan	-7045
▁wed	-7046
▁Price	-7047
▁ballot	-7048
▁exposed	-7049
▁strikes	-7050
▁collected	-7051
lah	-7052
ura	-7053
icket	-7054
▁tank	-7055
▁aside	-7056
▁oblig	-7057
amacare	-7058
▁Scient	-7059
▁column	-7060
▁deeply	-7061
▁endorse	-7062
▁heavily	-7063
achusetts	-7064
▁photograp	-7065
▁1990	-7066
▁Work	-7067
▁Alabama	-7068
▁Current	-7069
▁letters	-7070
▁contrast	-7071
▁transform	-7072
▁advertising	-7073
▁discrimination	-7074
acc	-7075
aly	-7076
iro	-7077
▁Keep	-7078
▁Town	-7079
▁tort	-7080
quarters	-7081
▁lawyers	-7082
▁migrants	-7083
▁Amendment	-7084
▁territory	-7085
col	-7086
uls	-7087
greg	-7088
kings	-7089
▁Hell	-7090
VERTIS	-7091
▁Broad	-7092
▁moments	-7093
▁stretch	-7094
▁extended	-7095
▁festival	-7096
▁priority	-7097
▁emissions	-7098
▁requested	-7099
▁differences	-7100
aka	-7101
orne	-7102
▁13,	-7103
ashes	-7104
▁Trib	-7105
profit	-7106
▁Which	-7107
▁adapt	-7108
▁roads	-7109
viously	-7110
▁Anderson	-7111
▁ceremony	-7112
▁websites	-7113
▁Technology	-7114
So	-7115
▁Ur	-7116
hour	-7117
▁AFP	-7118
▁Tro	-7119
ework	-7120
▁2010,	-7121
▁Leader	-7122
▁enthus	-7123
▁chances	-7124
▁finance	-7125
▁register	-7126
▁Cleveland	-7127
▁concluded	-7128
▁Ak	-7129
fall	-7130
ille	-7131
owed	-7132
▁hyp	-7133
oured	-7134
▁estate	-7135
▁rescue	-7136
▁sister	-7137
▁decline	-7138
▁distribution	-7139
▁Massachusetts	-7140
ether	-7141
▁Cost	-7142
asters	-7143
ylvania	-7144
▁inspir	-7145
▁radical	-7146
▁electronic	-7147
▁$9	-7148
month	-7149
▁Penns	-7150
▁Place	-7151
▁Start	-7152
▁comedy	-7153
▁extend	-7154
▁headed	-7155
▁ranked	-7156
▁reward	-7157
redients	-7158
▁ADVERTIS	-7159
▁communication	-7160
▁representative	-7161
ilipp	-7162
▁Belg	-7163
▁fasc	-7164
▁stem	-7165
▁Stand	-7166
▁decre	-7167
▁keeps	-7168
▁falling	-7169
▁contacted	-7170
▁importance	-7171
▁settlement	-7172
Im	-7173
amin	-7174
otal	-7175
▁tips	-7176
orough	-7177
▁2011.	-7178
▁conce	-7179
actions	-7180
▁desper	-7181
▁Olympic	-7182
▁sustain	-7183
▁controls	-7184
▁Obamacare	-7185
▁referring	-7186
▁correspond	-7187
▁restrictions	-7188
▁75	-7189
/201	-7190
▁Ale	-7191
▁boot	-7192
▁hole	-7193
▁disag	-7194
▁drawn	-7195
▁wheel	-7196
utation	-7197
▁desire	-7198
▁concent	-7199
▁conspir	-7200
▁Catholic	-7201
▁comparison	-7202
▁incredibly	-7203
obs	-7204
▁44	-7205
▁64	-7206
▁Na	-7207
▁Mun	-7208
ensus	-7209
essed	-7210
▁Full	-7211
▁Link	-7212
▁Plus	-7213
▁accus	-7214
▁frame	-7215
▁guide	-7216
▁wides	-7217
▁eastern	-7218
▁activist	-7219
▁articles	-7220
▁shopping	-7221
▁construct	-7222
▁excellent	-7223
arry	-7224
▁Bry	-7225
pread	-7226
▁Ever	-7227
▁Allen	-7228
▁realize	-7229
▁referendum	-7230
▁suggesting	-7231
ilit	-7232
▁MLS	-7233
▁Tai	-7234
▁Hind	-7235
▁enjoyed	-7236
▁methods	-7237
▁consequences	-7238
▁automatically	-7239
urb	-7240
▁WW	-7241
▁Ray	-7242
Getty	-7243
rical	-7244
▁shif	-7245
ternal	-7246
▁mouth	-7247
▁sight	-7248
▁Ontario	-7249
▁emerged	-7250
▁baseball	-7251
▁personnel	-7252
NBC	-7253
▁Lo	-7254
agan	-7255
list	-7256
Trump	-7257
▁Cust	-7258
▁Sean	-7259
rehens	-7260
▁academ	-7261
▁forest	-7262
▁portion	-7263
▁Columbia	-7264
▁stronger	-7265
▁neighbour	-7266
▁temperature	-7267
▁194	-7268
▁NHL	-7269
iency	-7270
level	-7271
▁Hong	-7272
▁bull	-7273
▁spin	-7274
▁Connect	-7275
▁capture	-7276
▁relevant	-7277
▁Education	-7278
▁consistent	-7279
▁properties	-7280
▁embr	-7281
▁2017,	-7282
▁Harry	-7283
▁Short	-7284
▁bunch	-7285
areness	-7286
▁Mexican	-7287
▁meetings	-7288
ifications	-7289
▁Entertain	-7290
On	-7291
bu	-7292
▁Id	-7293
▁ble	-7294
▁nut	-7295
▁rub	-7296
▁Bron	-7297
▁sand	-7298
▁Howard	-7299
▁quoted	-7300
▁transp	-7301
inations	-7302
▁Iranian	-7303
▁degrees	-7304
▁stadium	-7305
▁Governor	-7306
▁Montreal	-7307
▁estimates	-7308
▁complaints	-7309
35	-7310
▁39	-7311
appy	-7312
▁sac	-7313
▁2006	-7314
▁Dave	-7315
▁Pass	-7316
▁Vegas	-7317
▁edition	-7318
▁Conference	-7319
▁atmosphere	-7320
▁programming	-7321
pty	-7322
rav	-7323
▁Pot	-7324
▁Tok	-7325
▁Ross	-7326
▁Pacific	-7327
▁emotional	-7328
▁perspective	-7329
▁technologies	-7330
bell	-7331
▁16,	-7332
▁blast	-7333
▁Arabia	-7334
▁Little	-7335
▁strange	-7336
▁discover	-7337
▁Professor	-7338
▁efficient	-7339
ja	-7340
xit	-7341
door	-7342
oric	-7343
▁Ali	-7344
▁cruc	-7345
▁doors	-7346
▁dozen	-7347
▁forth	-7348
▁stuck	-7349
▁Further	-7350
▁scandal	-7351
▁trailer	-7352
▁indicated	-7353
▁opponents	-7354
▁widespread	-7355
▁Pennsylvania	-7356
▁Entertainment	-7357
har	-7358
core	-7359
maker	-7360
riers	-7361
▁Barc	-7362
▁Navy	-7363
▁pure	-7364
▁Never	-7365
▁asylum	-7366
▁driven	-7367
▁category	-7368
▁eligible	-7369
▁anniversary	-7370
My	-7371
eda	-7372
▁HD	-7373
lder	-7374
olis	-7375
▁bom	-7376
▁2020	-7377
▁List	-7378
▁Marsh	-7379
▁firms	-7380
ographic	-7381
▁clients	-7382
:0	-7383
mate	-7384
umer	-7385
▁Prince	-7386
▁config	-7387
▁fiscal	-7388
▁Perhaps	-7389
▁western	-7390
▁reserved	-7391
▁Executive	-7392
▁violation	-7393
▁Environment	-7394
▁47	-7395
▁9,	-7396
▁14,	-7397
▁End	-7398
utral	-7399
▁accomp	-7400
▁uniform	-7401
▁permanent	-7402
▁corruption	-7403
▁ADVERTISEMENT	-7404
away	-7405
unes	-7406
▁10-	-7407
▁Las	-7408
ppers	-7409
▁Jews	-7410
▁clip	-7411
▁plot	-7412
▁critics	-7413
▁granted	-7414
▁aggressive	-7415
▁criticized	-7416
▁employment	-7417
▁entertainment	-7418
CS	-7419
zy	-7420
pret	-7421
▁Lyn	-7422
▁hyd	-7423
▁diet	-7424
▁lies	-7425
▁Stone	-7426
oration	-7427
▁Museum	-7428
▁noting	-7429
▁worker	-7430
▁Transport	-7431
▁appearances	-7432
Un	-7433
but	-7434
▁Gun	-7435
isers	-7436
▁Girl	-7437
▁goods	-7438
▁upset	-7439
▁Warren	-7440
▁Matthew	-7441
▁retired	-7442
▁disaster	-7443
▁struggle	-7444
EA	-7445
▁DNA	-7446
▁Has	-7447
▁Sir	-7448
▁gal	-7449
umber	-7450
▁duty	-7451
▁guest	-7452
▁museum	-7453
▁gathered	-7454
▁struggling	-7455
aco	-7456
esh	-7457
▁Cra	-7458
assador	-7459
▁astron	-7460
▁counts	-7461
▁succeed	-7462
▁controlled	-7463
▁du	-7464
▁Jay	-7465
▁cro	-7466
ropri	-7467
▁Khan	-7468
▁Viet	-7469
▁hosted	-7470
▁senator	-7471
▁opposite	-7472
▁computers	-7473
▁involvement	-7474
▁Da	-7475
ella	-7476
▁dim	-7477
▁unw	-7478
▁clim	-7479
▁reads	-7480
▁chosen	-7481
▁retain	-7482
▁Arsenal	-7483
▁comprom	-7484
▁Festival	-7485
▁evolution	-7486
▁extensive	-7487
▁basketball	-7488
esc	-7489
nam	-7490
▁Vi	-7491
▁gap	-7492
▁Core	-7493
▁dynam	-7494
Station	-7495
▁Kansas	-7496
▁marked	-7497
▁Kingdom	-7498
▁Whether	-7499
▁recognize	-7500
▁7.	-7501
▁22,	-7502
igare	-7503
iques	-7504
olved	-7505
▁Tech	-7506
▁Test	-7507
▁funny	-7508
▁harder	-7509
▁operate	-7510
▁temporary	-7511
▁personally	-7512
ASH	-7513
dri	-7514
owe	-7515
uer	-7516
▁id	-7517
▁Cre	-7518
▁anx	-7519
▁Lind	-7520
▁recru	-7521
▁engage	-7522
▁monthly	-7523
▁posting	-7524
▁Authority	-7525
▁contracts	-7526
▁combination	-7527
▁consumption	-7528
ela	-7529
lad	-7530
▁Hit	-7531
▁Hor	-7532
▁Roy	-7533
▁flu	-7534
▁aver	-7535
▁Andre	-7536
▁Oklah	-7537
▁drone	-7538
▁calcul	-7539
▁infect	-7540
▁inquir	-7541
▁Philipp	-7542
▁blocked	-7543
▁citizen	-7544
▁transit	-7545
▁SP	-7546
atre	-7547
▁dry	-7548
▁Find	-7549
▁bare	-7550
▁angry	-7551
▁dates	-7552
▁Battle	-7553
▁stable	-7554
▁captain	-7555
▁insisted	-7556
▁passenger	-7557
style	-7558
▁solve	-7559
▁bridge	-7560
▁string	-7561
▁Affairs	-7562
▁Freedom	-7563
ila	-7564
ser	-7565
News	-7566
asks	-7567
▁Fre	-7568
ivals	-7569
▁deadly	-7570
▁spotted	-7571
▁platforms	-7572
▁providers	-7573
▁newsletter	-7574
▁essentially	-7575
xy	-7576
▁Es	-7577
▁Box	-7578
upper	-7579
▁trib	-7580
onnell	-7581
▁Staff	-7582
▁proof	-7583
fielder	-7584
osexual	-7585
▁excess	-7586
▁manner	-7587
▁Indiana	-7588
▁awarded	-7589
▁invited	-7590
▁PlayStation	-7591
FA	-7592
log	-7593
▁55	-7594
▁OF	-7595
▁PD	-7596
eler	-7597
▁rot	-7598
abeth	-7599
▁wave	-7600
▁drama	-7601
▁fixed	-7602
▁kilomet	-7603
▁regions	-7604
▁fantastic	-7605
▁solutions	-7606
▁submitted	-7607
▁discussions	-7608
▁manufacturing	-7609
2]	-7610
cies	-7611
lers	-7612
otes	-7613
▁17,	-7614
▁30,	-7615
▁Sus	-7616
eller	-7617
lando	-7618
verty	-7619
▁sole	-7620
minute	-7621
▁input	-7622
▁Harris	-7623
▁narrow	-7624
▁signal	-7625
▁amendment	-7626
JP	-7627
arms	-7628
itol	-7629
▁Abd	-7630
▁Ext	-7631
▁Tri	-7632
▁Pack	-7633
bourne	-7634
▁march	-7635
▁marks	-7636
▁height	-7637
▁visiting	-7638
▁41	-7639
▁Key	-7640
▁Fund	-7641
▁boat	-7642
▁jury	-7643
▁anyway	-7644
▁dozens	-7645
▁racial	-7646
▁counsel	-7647
▁element	-7648
▁poverty	-7649
▁Southern	-7650
▁organized	-7651
umes	-7652
▁Boe	-7653
ffect	-7654
itled	-7655
opher	-7656
▁2005	-7657
▁milk	-7658
▁Steam	-7659
▁enemy	-7660
▁Graham	-7661
▁leaked	-7662
▁Finally	-7663
▁replacement	-7664
▁Use	-7665
▁Inte	-7666
▁Lord	-7667
▁smoke	-7668
▁formal	-7669
▁generate	-7670
▁advertise	-7671
▁attempting	-7672
def	-7673
▁ok	-7674
writ	-7675
▁25,	-7676
▁400	-7677
▁Son	-7678
▁Hope	-7679
▁phil	-7680
usalem	-7681
▁depth	-7682
▁Season	-7683
▁answers	-7684
▁Oklahoma	-7685
TE	-7686
inte	-7687
uated	-7688
▁Henry	-7689
▁fears	-7690
▁flash	-7691
▁innoc	-7692
▁phase	-7693
▁registr	-7694
▁destroyed	-7695
▁components	-7696
yr	-7697
▁195	-7698
▁Ast	-7699
inois	-7700
▁flex	-7701
▁Action	-7702
▁Warner	-7703
ferences	-7704
▁Snowden	-7705
▁anymore	-7706
▁knowing	-7707
▁shipping	-7708
▁Champions	-7709
▁constitutional	-7710
MS	-7711
▁SE	-7712
▁Sat	-7713
▁mel	-7714
▁tox	-7715
▁Fred	-7716
▁shall	-7717
▁weigh	-7718
▁console	-7719
▁initiative	-7720
▁prosecutors	-7721
/0	-7722
Man	-7723
▁AMD	-7724
▁spr	-7725
▁1980	-7726
▁Could	-7727
▁Review	-7728
▁allies	-7729
▁devast	-7730
▁Through	-7731
▁constit	-7732
▁Jerusalem	-7733
▁wonderful	-7734
▁approached	-7735
ls	-7736
imp	-7737
▁$20	-7738
▁dub	-7739
▁god	-7740
▁mob	-7741
▁Form	-7742
▁knee	-7743
▁Denver	-7744
▁hidden	-7745
▁scenes	-7746
▁routine	-7747
▁successfully	-7748
▁Pir	-7749
▁fel	-7750
adesh	-7751
itage	-7752
▁Moham	-7753
▁Singh	-7754
▁houses	-7755
▁profit	-7756
▁Officer	-7757
▁Brooklyn	-7758
▁discovery	-7759
bow	-7760
ika	-7761
bors	-7762
▁Bon	-7763
▁jun	-7764
▁pal	-7765
UTERS	-7766
lined	-7767
prise	-7768
▁pump	-7769
▁Iraqi	-7770
▁Design	-7771
▁Silver	-7772
▁escape	-7773
▁mainly	-7774
▁volume	-7775
American	-7776
▁chicken	-7777
▁accurate	-7778
▁awareness	-7779
▁civilians	-7780
▁highlights	-7781
▁HT	-7782
ocur	-7783
▁Mrs	-7784
▁Tax	-7785
▁mos	-7786
inter	-7787
utter	-7788
▁Ball	-7789
▁Coll	-7790
▁Dutch	-7791
▁gonna	-7792
▁inaug	-7793
▁nobody	-7794
▁failing	-7795
▁premium	-7796
▁database	-7797
▁promises	-7798
▁resulted	-7799
▁valuable	-7800
▁behaviour	-7801
▁proposals	-7802
▁acknowledged	-7803
gor	-7804
▁FO	-7805
mann	-7806
▁wid	-7807
cover	-7808
▁Sant	-7809
▁Given	-7810
▁Motor	-7811
▁Roman	-7812
▁Indust	-7813
▁formed	-7814
▁Kentucky	-7815
▁Bloomberg	-7816
▁Represent	-7817
▁preparing	-7818
▁somewhere	-7819
She	-7820
akh	-7821
▁SU	-7822
cons	-7823
uous	-7824
▁27,	-7825
▁rig	-7826
iment	-7827
▁Uber	-7828
▁Dream	-7829
▁diagn	-7830
▁overt	-7831
▁covers	-7832
▁incent	-7833
▁limits	-7834
▁premie	-7835
▁Eastern	-7836
▁describe	-7837
▁?	-7838
▁BM	-7839
Star	-7840
raid	-7841
sels	-7842
▁Abb	-7843
▁Pop	-7844
PDATE	-7845
▁chat	-7846
▁Point	-7847
▁Sarah	-7848
▁habit	-7849
▁lobby	-7850
ultural	-7851
▁decent	-7852
▁Without	-7853
▁demands	-7854
▁necessarily	-7855
ML	-7856
azz	-7857
rete	-7858
▁12,	-7859
▁18,	-7860
▁Bad	-7861
▁Tem	-7862
▁rose	-7863
▁Exper	-7864
▁Heart	-7865
▁Patri	-7866
▁topic	-7867
izabeth	-7868
▁Channel	-7869
▁Roberts	-7870
rum	-7871
athy	-7872
iary	-7873
rena	-7874
ules	-7875
yard	-7876
▁Som	-7877
rated	-7878
▁Conf	-7879
▁Vice	-7880
▁Queen	-7881
ogether	-7882
▁passes	-7883
▁friendly	-7884
▁mainstream	-7885
▁violations	-7886
▁engineering	-7887
▁transportation	-7888
uma	-7889
▁29,	-7890
▁Rap	-7891
▁Java	-7892
active	-7893
change	-7894
▁empty	-7895
▁closing	-7896
▁coaches	-7897
▁recommended	-7898
Fi	-7899
ca	-7900
isa	-7901
▁(5	-7902
▁65	-7903
inks	-7904
▁rif	-7905
anted	-7906
▁logo	-7907
mented	-7908
▁knife	-7909
▁citing	-7910
▁soccer	-7911
▁REUTERS	-7912
▁attached	-7913
▁examples	-7914
▁minority	-7915
▁universe	-7916
▁interviews	-7917
hop	-7918
rac	-7919
▁CO	-7920
rors	-7921
▁Hur	-7922
▁Tour	-7923
▁king	-7924
▁salt	-7925
▁saved	-7926
▁ridicul	-7927
▁Illinois	-7928
▁dismissed	-7929
▁Conservative	-7930
▁relationships	-7931
imm	-7932
ito	-7933
▁46	-7934
▁CS	-7935
atar	-7936
look	-7937
▁cos	-7938
etary	-7939
▁begun	-7940
▁Golden	-7941
▁fallen	-7942
▁fundra	-7943
▁sample	-7944
▁donations	-7945
▁vulnerable	-7946
olph	-7947
▁Adv	-7948
▁Equ	-7949
amber	-7950
eding	-7951
owned	-7952
▁bars	-7953
▁Pitts	-7954
▁Royal	-7955
▁Friend	-7956
▁medium	-7957
▁repeal	-7958
▁objects	-7959
▁wounded	-7960
▁generated	-7961
▁reputation	-7962
▁explanation	-7963
▁Ap	-7964
▁Rh	-7965
▁McK	-7966
▁Saf	-7967
▁Sov	-7968
▁hang	-7969
aching	-7970
▁shell	-7971
▁threw	-7972
▁Batman	-7973
▁fought	-7974
▁lineup	-7975
▁containing	-7976
▁foundation	-7977
▁frequently	-7978
▁restaurants	-7979
86	-7980
HS	-7981
NC	-7982
sm	-7983
aun	-7984
car	-7985
▁DO	-7986
▁tap	-7987
▁Gaza	-7988
rolled	-7989
▁Award	-7990
▁Craig	-7991
ocation	-7992
▁Spring	-7993
▁horror	-7994
▁opponent	-7995
▁somewhat	-7996
▁campaigns	-7997
▁journalist	-7998
▁situations	-7999
▁Rac	-8000
world	-8001
▁gear	-8002
▁surf	-8003
▁Bruce	-8004
▁arrive	-8005
aturally	-8006
▁classes	-8007
▁deadline	-8008
▁detained	-8009
▁6.	-8010
▁PH	-8011
anna	-8012
heim	-8013
page	-8014
▁Ark	-8015
bound	-8016
▁Buff	-8017
▁Gary	-8018
▁Leon	-8019
uction	-8020
▁shout	-8021
▁sorry	-8022
iveness	-8023
▁choices	-8024
▁dispute	-8025
▁Division	-8026
▁forecast	-8027
▁overseas	-8028
▁purposes	-8029
▁programme	-8030
li	-8031
ihad	-8032
▁21,	-8033
▁rook	-8034
▁cycle	-8035
▁stead	-8036
▁sympt	-8037
limited	-8038
▁therap	-8039
▁weekly	-8040
▁Orlando	-8041
▁encrypt	-8042
▁prepare	-8043
▁targeting	-8044
▁nomination	-8045
Ar	-8046
Our	-8047
▁gif	-8048
▁Modi	-8049
▁entr	-8050
▁iron	-8051
▁isol	-8052
▁loud	-8053
▁hired	-8054
▁engaged	-8055
▁elsewhere	-8056
▁militants	-8057
▁improvements	-8058
▁drew	-8059
▁hint	-8060
▁typical	-8061
▁Assembly	-8062
▁subscribe	-8063
via	-8064
ugby	-8065
▁Tel	-8066
,000.	-8067
▁$100	-8068
▁thick	-8069
▁dinner	-8070
▁instru	-8071
▁Cameron	-8072
▁factory	-8073
▁terrible	-8074
▁advocates	-8075
33	-8076
PM	-8077
wr	-8078
App	-8079
▁Kr	-8080
pton	-8081
▁19,	-8082
▁23,	-8083
▁26,	-8084
▁Hon	-8085
▁Raj	-8086
▁Set	-8087
berry	-8088
▁laid	-8089
▁luck	-8090
inator	-8091
▁divor	-8092
▁upper	-8093
▁Brexit	-8094
▁smooth	-8095
▁crucial	-8096
▁deficit	-8097
▁farmers	-8098
▁replied	-8099
▁graphics	-8100
200	-8101
bal	-8102
oen	-8103
-201	-8104
enny	-8105
rene	-8106
▁CIA	-8107
▁Wel	-8108
cious	-8109
ennis	-8110
▁Using	-8111
▁kinds	-8112
▁slowly	-8113
▁tweets	-8114
▁upgrade	-8115
▁Hamilton	-8116
▁birthday	-8117
▁reasonable	-8118
▁publication	-8119
],	-8120
inity	-8121
▁READ	-8122
▁fled	-8123
ernand	-8124
▁trees	-8125
▁charity	-8126
▁offices	-8127
▁touchdown	-8128
'.	-8129
1)	-8130
esty	-8131
▁avo	-8132
▁bes	-8133
▁Mill	-8134
▁Front	-8135
▁Tokyo	-8136
▁brown	-8137
▁voter	-8138
▁finger	-8139
▁output	-8140
▁covering	-8141
▁addressed	-8142
▁chocolate	-8143
▁sensitive	-8144
▁protecting	-8145
BM	-8146
ni	-8147
ATED	-8148
olds	-8149
uits	-8150
dered	-8151
shire	-8152
▁Expl	-8153
▁Look	-8154
▁Greek	-8155
▁toler	-8156
▁borrow	-8157
▁settle	-8158
▁drawing	-8159
▁smoking	-8160
▁satellite	-8161
▁encouraged	-8162
▁UC	-8163
▁28,	-8164
▁Eag	-8165
break	-8166
erted	-8167
rific	-8168
▁ages	-8169
INGTON	-8170
dering	-8171
ication	-8172
▁cheese	-8173
ublished	-8174
▁Article	-8175
▁pleased	-8176
▁releases	-8177
▁Elizabeth	-8178
▁prominent	-8179
▁regardless	-8180
▁threatening	-8181
!)	-8182
26	-8183
amm	-8184
▁360	-8185
ordon	-8186
▁aims	-8187
▁menu	-8188
▁rear	-8189
orship	-8190
▁Death	-8191
▁Edward	-8192
▁mining	-8193
▁proved	-8194
▁outrage	-8195
▁Jonathan	-8196
▁understood	-8197
▁investigations	-8198
TH	-8199
assy	-8200
▁coc	-8201
usive	-8202
▁obst	-8203
▁fruit	-8204
▁lying	-8205
▁races	-8206
▁ranks	-8207
▁Engine	-8208
▁provin	-8209
▁machines	-8210
▁resulting	-8211
▁questioned	-8212
▁overwhelming	-8213
jo	-8214
▁IR	-8215
▁Kat	-8216
▁wra	-8217
etime	-8218
elfare	-8219
▁uncon	-8220
▁barrel	-8221
▁relief	-8222
▁thrown	-8223
ologists	-8224
▁Liberal	-8225
▁illustr	-8226
▁Scottish	-8227
▁association	-8228
▁independence	-8229
77	-8230
ads	-8231
▁Dur	-8232
▁Pel	-8233
▁pin	-8234
▁sid	-8235
apore	-8236
merce	-8237
ommod	-8238
wered	-8239
▁Does	-8240
▁Stat	-8241
▁bowl	-8242
▁info	-8243
▁neck	-8244
▁Crime	-8245
▁domin	-8246
▁10,000	-8247
▁firing	-8248
▁upload	-8249
▁Capitol	-8250
▁Download	-8251
▁indicate	-8252
▁realized	-8253
▁reducing	-8254
▁contained	-8255
▁demanding	-8256
▁blockchain	-8257
EP	-8258
▁Ka	-8259
▁10.	-8260
▁cha	-8261
▁Film	-8262
amework	-8263
▁afraid	-8264
ibilities	-8265
▁demanded	-8266
▁episodes	-8267
gs	-8268
▁(6	-8269
▁Ly	-8270
▁Dev	-8271
ifies	-8272
▁Utah	-8273
▁auto	-8274
▁joke	-8275
▁vacc	-8276
▁Event	-8277
▁lucky	-8278
▁Bureau	-8279
▁fields	-8280
▁lowest	-8281
▁spaces	-8282
▁survive	-8283
▁producing	-8284
▁Pittsburgh	-8285
▁disappointed	-8286
ira	-8287
apse	-8288
iano	-8289
izza	-8290
upid	-8291
▁Bul	-8292
▁Main	-8293
▁Prov	-8294
▁hide	-8295
▁phen	-8296
▁Lewis	-8297
▁Common	-8298
▁Cooper	-8299
▁Corpor	-8300
▁blocks	-8301
▁funded	-8302
▁guests	-8303
▁locked	-8304
▁prosec	-8305
▁seized	-8306
▁Updated	-8307
▁visible	-8308
▁Guardian	-8309
▁cryptocur	-8310
▁represented	-8311
▁corporations	-8312
▁representatives	-8313
RL	-8314
▁DV	-8315
held	-8316
▁Bal	-8317
▁Der	-8318
istol	-8319
uting	-8320
▁Raid	-8321
▁deem	-8322
▁displ	-8323
▁horse	-8324
▁liked	-8325
▁sixth	-8326
▁Having	-8327
▁Policy	-8328
▁Station	-8329
▁clothes	-8330
▁expanded	-8331
▁receiver	-8332
Pro	-8333
ean	-8334
argo	-8335
stal	-8336
▁120	-8337
erald	-8338
worth	-8339
▁2019	-8340
▁Beck	-8341
▁Pent	-8342
ompson	-8343
▁agric	-8344
▁Player	-8345
▁beating	-8346
▁normally	-8347
▁hopefully	-8348
▁challenging	-8349
100	-8350
agh	-8351
hal	-8352
ucus	-8353
▁shr	-8354
▁brut	-8355
▁porn	-8356
▁roof	-8357
▁couples	-8358
▁founded	-8359
▁accommod	-8360
▁headquarters	-8361
bian	-8362
oval	-8363
▁Ban	-8364
luding	-8365
▁2010.	-8366
▁drove	-8367
▁overs	-8368
▁conver	-8369
▁primarily	-8370
▁producers	-8371
▁conspiracy	-8372
▁contribute	-8373
▁complicated	-8374
▁speculation	-8375
',	-8376
EST	-8377
▁tie	-8378
alties	-8379
▁Final	-8380
▁Wales	-8381
▁uncom	-8382
▁Madrid	-8383
▁gained	-8384
▁latter	-8385
▁waters	-8386
▁affairs	-8387
▁handling	-8388
▁historical	-8389
▁profession	-8390
mo	-8391
uine	-8392
▁Sab	-8393
▁mun	-8394
▁Print	-8395
▁ideal	-8396
▁anybody	-8397
▁banking	-8398
▁recognized	-8399
▁newsletters	-8400
▁recognition	-8401
▁unemployment	-8402
▁contributions	-8403
▁FA	-8404
aven	-8405
case	-8406
fast	-8407
▁(19	-8408
▁Bow	-8409
▁NOT	-8410
there	-8411
watch	-8412
▁Data	-8413
isting	-8414
▁Comey	-8415
▁probe	-8416
▁exceed	-8417
▁spoken	-8418
▁Control	-8419
▁intense	-8420
▁addresses	-8421
27	-8422
AG	-8423
▁Pa	-8424
▁24,	-8425
▁Gab	-8426
▁Such	-8427
▁erup	-8428
annels	-8429
▁2009,	-8430
▁shock	-8431
▁ethnic	-8432
▁propag	-8433
▁summit	-8434
▁handful	-8435
▁outlets	-8436
▁privile	-8437
▁ratings	-8438
▁homeless	-8439
▁thousand	-8440
▁veterans	-8441
▁inflation	-8442
▁searching	-8443
▁harassment	-8444
RI	-8445
abs	-8446
mir	-8447
▁Hal	-8448
▁choos	-8449
▁robot	-8450
▁Greece	-8451
▁robber	-8452
▁designs	-8453
▁outcome	-8454
▁Maryland	-8455
▁suddenly	-8456
▁existence	-8457
▁introduce	-8458
▁reduction	-8459
▁appreciate	-8460
▁guidelines	-8461
pa	-8462
dem	-8463
▁Li	-8464
iece	-8465
▁Reds	-8466
▁aged	-8467
▁lets	-8468
▁swim	-8469
ixture	-8470
▁Libya	-8471
▁Stock	-8472
▁ocean	-8473
▁Nation	-8474
▁Soviet	-8475
▁extent	-8476
▁viewed	-8477
▁flights	-8478
▁illness	-8479
▁legally	-8480
▁Singapore	-8481
▁improving	-8482
▁perfectly	-8483
28	-8484
:5	-8485
kee	-8486
nedy	-8487
▁NAT	-8488
▁Obs	-8489
▁Run	-8490
▁stim	-8491
▁unex	-8492
▁loyal	-8493
▁manip	-8494
▁recre	-8495
▁stake	-8496
▁walls	-8497
▁courtesy	-8498
▁attacking	-8499
▁literally	-8500
▁predicted	-8501
▁conclusion	-8502
3]	-8503
CC	-8504
don	-8505
iev	-8506
▁SS	-8507
agen	-8508
ouri	-8509
▁YOU	-8510
▁fed	-8511
elson	-8512
usted	-8513
▁tape	-8514
▁dance	-8515
▁Person	-8516
▁Wright	-8517
▁permit	-8518
▁serves	-8519
▁Antonio	-8520
▁reaching	-8521
▁regulation	-8522
▁documentary	-8523
▁expectations	-8524
PP	-8525
▁Ub	-8526
irts	-8527
▁raw	-8528
umble	-8529
▁dump	-8530
author	-8531
▁Jesus	-8532
▁clock	-8533
▁hoped	-8534
▁plate	-8535
▁guitar	-8536
▁inspect	-8537
▁somehow	-8538
▁warming	-8539
▁Investig	-8540
▁everywhere	-8541
▁Independent	-8542
abies	-8543
cling	-8544
▁Simon	-8545
▁grass	-8546
ulating	-8547
▁Harper	-8548
▁observ	-8549
▁prepar	-8550
▁Edition	-8551
▁Swedish	-8552
▁arguing	-8553
▁arrange	-8554
▁reviews	-8555
▁Robinson	-8556
▁depending	-8557
▁techniques	-8558
hum	-8559
rer	-8560
▁31,	-8561
▁util	-8562
▁Carter	-8563
▁Murray	-8564
▁landsc	-8565
▁tablet	-8566
▁Verizon	-8567
▁damaged	-8568
▁discount	-8569
▁trillion	-8570
▁arguments	-8571
▁ownership	-8572
▁releasing	-8573
▁struggled	-8574
Con	-8575
aki	-8576
des	-8577
pow	-8578
cott	-8579
ifer	-8580
oker	-8581
▁Imm	-8582
▁Five	-8583
▁Vill	-8584
▁wing	-8585
▁casual	-8586
▁checks	-8587
▁panels	-8588
▁Digital	-8589
▁History	-8590
▁creates	-8591
▁expects	-8592
▁Thompson	-8593
▁Melbourne	-8594
▁respectively	-8595
mod	-8596
▁ow	-8597
then	-8598
▁Rus	-8599
▁Disc	-8600
▁elev	-8601
▁recon	-8602
▁proven	-8603
▁scream	-8604
▁yellow	-8605
▁earthqu	-8606
▁grounds	-8607
▁ministers	-8608
▁encouraging	-8609
.-	-8610
dr	-8611
ugh	-8612
▁Az	-8613
▁Bud	-8614
▁Cow	-8615
iated	-8616
▁fulf	-8617
▁Sport	-8618
▁fault	-8619
▁prize	-8620
▁vital	-8621
▁UPDATE	-8622
▁cancel	-8623
▁seemingly	-8624
▁membership	-8625
▁description	-8626
hr	-8627
htt	-8628
▁Imp	-8629
▁Pow	-8630
agger	-8631
reced	-8632
▁Hart	-8633
▁Vlad	-8634
▁inev	-8635
▁patch	-8636
▁sauce	-8637
▁strip	-8638
▁theft	-8639
▁rocket	-8640
▁Contact	-8641
▁Kennedy	-8642
▁aspects	-8643
▁stepped	-8644
▁acquired	-8645
▁prompted	-8646
▁abandoned	-8647
▁describes	-8648
▁guarantee	-8649
▁52	-8650
bury	-8651
▁Prop	-8652
▁distr	-8653
▁steel	-8654
▁Tennes	-8655
▁Unlike	-8656
▁constant	-8657
▁observed	-8658
▁phenomen	-8659
▁throwing	-8660
recedented	-8661
▁uncertain	-8662
▁depression	-8663
▁retirement	-8664
▁conservatives	-8665
37	-8666
49	-8667
enez	-8668
iety	-8669
shot	-8670
▁Bra	-8671
▁Nev	-8672
▁butt	-8673
▁puzz	-8674
▁anger	-8675
▁gains	-8676
▁index	-8677
▁ships	-8678
▁simpl	-8679
▁Access	-8680
▁Ottawa	-8681
▁iconic	-8682
▁losses	-8683
▁racism	-8684
▁submit	-8685
▁trigger	-8686
▁suspension	-8687
endar	-8688
▁1970	-8689
▁2004	-8690
▁Mail	-8691
▁Priv	-8692
▁Stew	-8693
▁crop	-8694
▁Lions	-8695
▁virus	-8696
▁Giants	-8697
▁Mobile	-8698
▁titled	-8699
▁transm	-8700
▁implemented	-8701
rez	-8702
▁Toy	-8703
▁dad	-8704
▁Mess	-8705
▁ally	-8706
▁dish	-8707
▁eggs	-8708
▁narr	-8709
▁Aaron	-8710
▁skill	-8711
million	-8712
▁Bridge	-8713
▁Editor	-8714
▁presum	-8715
▁rebels	-8716
▁enemies	-8717
ASHINGTON	-8718
▁patterns	-8719
▁monitoring	-8720
▁resistance	-8721
▁fundamental	-8722
▁representing	-8723
38	-8724
sa	-8725
fund	-8726
aters	-8727
aware	-8728
▁Lear	-8729
▁legs	-8730
making	-8731
▁Firef	-8732
▁Jerem	-8733
▁butter	-8734
▁philos	-8735
▁strict	-8736
▁Brother	-8737
▁Mississ	-8738
▁beliefs	-8739
▁servers	-8740
▁innocent	-8741
▁pollution	-8742
▁statistics	-8743
▁institution	-8744
▁manufacturers	-8745
rett	-8746
umin	-8747
▁fab	-8748
▁ves	-8749
▁Burn	-8750
▁Iron	-8751
▁Latin	-8752
▁opens	-8753
▁Malays	-8754
▁taught	-8755
▁equival	-8756
▁analysts	-8757
▁channels	-8758
▁interpret	-8759
▁Protection	-8760
▁constantly	-8761
▁residential	-8762
▁conversations	-8763
%,	-8764
Hz	-8765
oli	-8766
▁3-	-8767
▁Ga	-8768
bles	-8769
brid	-8770
hatt	-8771
leans	-8772
▁hadn	-8773
▁hook	-8774
▁Arena	-8775
▁Asked	-8776
▁endors	-8777
▁liquid	-8778
▁suffer	-8779
▁suspic	-8780
ospitals	-8781
▁Support	-8782
▁backing	-8783
▁defender	-8784
▁Iv	-8785
▁WH	-8786
▁sne	-8787
Image	-8788
ounce	-8789
▁Gulf	-8790
▁river	-8791
▁roles	-8792
▁exists	-8793
▁racing	-8794
▁Alberta	-8795
▁Orleans	-8796
▁adviser	-8797
▁deliber	-8798
▁equality	-8799
▁supplies	-8800
▁tracking	-8801
▁WASHINGTON	-8802
▁54	-8803
bled	-8804
▁USB	-8805
udios	-8806
▁Kick	-8807
▁magn	-8808
▁blind	-8809
▁prote	-8810
▁reven	-8811
▁branch	-8812
▁format	-8813
▁invent	-8814
▁margin	-8815
▁assists	-8816
▁writers	-8817
▁Chairman	-8818
▁brothers	-8819
▁distinct	-8820
▁exposure	-8821
▁complained	-8822
▁expression	-8823
▁compensation	-8824
▁congressional	-8825
ji	-8826
▁mo	-8827
abet	-8828
arsh	-8829
isms	-8830
rary	-8831
▁Gil	-8832
▁Lam	-8833
▁tent	-8834
▁2008,	-8835
▁elite	-8836
▁lanes	-8837
▁speaks	-8838
interest	-8839
▁symptoms	-8840
▁unveiled	-8841
▁ingredients	-8842
▁Advertisements	-8843
adi	-8844
▁8.	-8845
▁III	-8846
▁Mitt	-8847
▁keen	-8848
▁moon	-8849
▁drunk	-8850
▁enorm	-8851
▁fatal	-8852
▁lunch	-8853
▁rural	-8854
▁beauty	-8855
▁breaks	-8856
▁musical	-8857
▁wireless	-8858
▁diversity	-8859
▁gathering	-8860
▁innovation	-8861
▁Intelligence	-8862
UN	-8863
▁DJ	-8864
▁PA	-8865
▁Fal	-8866
▁bol	-8867
angel	-8868
▁Fact	-8869
▁poly	-8870
ensity	-8871
orable	-8872
▁Drive	-8873
▁Tower	-8874
▁bonus	-8875
▁loves	-8876
▁schol	-8877
▁swing	-8878
▁Michel	-8879
▁stance	-8880
▁rapidly	-8881
▁Everyone	-8882
▁clothing	-8883
▁violated	-8884
▁attending	-8885
▁Commissioner	-8886
/4	-8887
Bl	-8888
All	-8889
aver	-8890
▁hal	-8891
inced	-8892
itary	-8893
▁mini	-8894
▁jumped	-8895
▁recruit	-8896
▁Tennessee	-8897
▁carefully	-8898
▁strategic	-8899
▁nationwide	-8900
▁improvement	-8901
▁establishment	-8902
oz	-8903
isk	-8904
▁53	-8905
▁fro	-8906
▁gig	-8907
▁mic	-8908
▁Area	-8909
▁dict	-8910
▁depos	-8911
▁merch	-8912
▁Argent	-8913
▁Summer	-8914
▁rounds	-8915
▁relative	-8916
▁Christopher	-8917
▁outstanding	-8918
Sp	-8919
aga	-8920
▁CL	-8921
ahoo	-8922
oning	-8923
▁Andy	-8924
▁tail	-8925
Mobile	-8926
apolis	-8927
istant	-8928
itarian	-8929
▁pending	-8930
▁podcast	-8931
▁shocked	-8932
▁Alexander	-8933
▁cooperation	-8934
IO	-8935
ione	-8936
▁Opp	-8937
▁cul	-8938
▁Mach	-8939
▁Page	-8940
▁chip	-8941
▁flaw	-8942
▁semi	-8943
ancell	-8944
hentic	-8945
orious	-8946
▁Quest	-8947
▁rooms	-8948
▁toxic	-8949
▁weird	-8950
through	-8951
▁pedest	-8952
▁Capital	-8953
▁genuine	-8954
▁sparked	-8955
rehensive	-8956
▁pointing	-8957
▁convinced	-8958
▁functions	-8959
▁investments	-8960
▁organisation	-8961
▁temperatures	-8962
4)	-8963
Cl	-8964
].	-8965
iy	-8966
▁BJP	-8967
▁Tam	-8968
▁roc	-8969
▁Pres	-8970
▁Rest	-8971
▁owns	-8972
icipal	-8973
ported	-8974
▁alarm	-8975
▁Master	-8976
▁judges	-8977
▁stages	-8978
▁Reserve	-8979
▁adopted	-8980
▁rolling	-8981
▁definition	-8982
isp	-8983
week	-8984
eries	-8985
▁ease	-8986
orneys	-8987
▁waves	-8988
▁Posted	-8989
▁hiring	-8990
▁insult	-8991
▁desktop	-8992
▁forever	-8993
▁Victoria	-8994
▁appointed	-8995
▁Christians	-8996
▁accessible	-8997
ags	-8998
die	-8999
fol	-9000
▁sty	-9001
aimed	-9002
asury	-9003
▁Want	-9004
▁scan	-9005
▁contem	-9006
▁disagree	-9007
▁scenario	-9008
▁shoulder	-9009
▁Sometimes	-9010
▁assessment	-9011
▁legitimate	-9012
▁presidency	-9013
2)	-9014
RC	-9015
agic	-9016
▁Gre	-9017
▁Hey	-9018
▁Lau	-9019
lower	-9020
oming	-9021
thood	-9022
▁100%	-9023
▁Phill	-9024
▁lists	-9025
▁Doctor	-9026
▁patent	-9027
▁careful	-9028
▁wedding	-9029
▁welfare	-9030
▁McDonald	-9031
▁extraord	-9032
▁teaching	-9033
▁adventure	-9034
▁midfielder	-9035
▁processing	-9036
▁distributed	-9037
SW	-9038
AND	-9039
▁RT	-9040
awks	-9041
roat	-9042
▁1.5	-9043
▁Cinc	-9044
▁Huff	-9045
▁Mars	-9046
▁Creat	-9047
▁Perry	-9048
▁minds	-9049
▁Taiwan	-9050
▁Charlie	-9051
▁Product	-9052
▁dramatic	-9053
kel	-9054
▁beef	-9055
▁golf	-9056
▁tear	-9057
▁kicked	-9058
▁riding	-9059
▁rookie	-9060
▁thread	-9061
▁Speaker	-9062
▁precise	-9063
▁speaker	-9064
▁opinions	-9065
▁component	-9066
GA	-9067
eld	-9068
▁Wr	-9069
▁ru	-9070
▁Nic	-9071
▁les	-9072
▁Hung	-9073
▁exit	-9074
▁quit	-9075
▁rely	-9076
▁repro	-9077
▁shirt	-9078
▁Nevada	-9079
▁pursue	-9080
▁rarely	-9081
▁Express	-9082
▁sheriff	-9083
▁recovered	-9084
▁diplomatic	-9085
▁equivalent	-9086
▁healthcare	-9087
▁popularity	-9088
▁prosecutor	-9089
▁20-	-9090
▁Base	-9091
▁Salt	-9092
▁Shar	-9093
▁Steel	-9094
▁spell	-9095
reprene	-9096
▁abroad	-9097
igration	-9098
▁Captain	-9099
▁Rangers	-9100
▁mystery	-9101
▁entitled	-9102
▁listening	-9103
▁sufficient	-9104
▁destruction	-9105
OD	-9106
PC	-9107
made	-9108
uten	-9109
aning	-9110
innati	-9111
▁Things	-9112
▁flavor	-9113
▁singer	-9114
▁stored	-9115
▁Children	-9116
▁explosion	-9117
▁girlfriend	-9118
▁consistently	-9119
▁unprecedented	-9120
%)	-9121
UL	-9122
▁Ce	-9123
otte	-9124
▁Lim	-9125
▁phr	-9126
▁Code	-9127
▁Scar	-9128
▁evil	-9129
▁peak	-9130
▁Const	-9131
▁Phone	-9132
▁admit	-9133
▁bread	-9134
▁Queens	-9135
▁stupid	-9136
▁Univers	-9137
▁artific	-9138
▁enhance	-9139
▁enthusi	-9140
▁kitchen	-9141
▁explicit	-9142
▁interior	-9143
▁Louisiana	-9144
▁prisoners	-9145
▁Management	-9146
▁Revolution	-9147
▁registration	-9148
▁consideration	-9149
gus	-9150
▁Aud	-9151
▁Blu	-9152
LATED	-9153
▁corn	-9154
▁Trade	-9155
▁Others	-9156
▁drones	-9157
▁inches	-9158
▁reveals	-9159
▁thorough	-9160
▁technique	-9161
▁structures	-9162
▁connections	-9163
▁transactions	-9164
iffs	-9165
rets	-9166
▁Buy	-9167
▁Kas	-9168
▁jur	-9169
arity	-9170
onder	-9171
bridge	-9172
▁wider	-9173
▁actors	-9174
appropri	-9175
▁samples	-9176
▁academic	-9177
▁coaching	-9178
▁provision	-9179
▁performing	-9180
▁volunteers	-9181
▁capabilities	-9182
21	-9183
aeda	-9184
gage	-9185
▁ans	-9186
▁foss	-9187
▁ramp	-9188
gorith	-9189
rators	-9190
▁Venez	-9191
▁spots	-9192
▁Indeed	-9193
▁extract	-9194
▁hacking	-9195
▁hosting	-9196
▁settled	-9197
▁estimate	-9198
▁illegally	-9199
▁progressive	-9200
km	-9201
bul	-9202
imir	-9203
onic	-9204
teen	-9205
tery	-9206
zing	-9207
acher	-9208
▁Reid	-9209
▁deny	-9210
▁lapt	-9211
winning	-9212
▁filing	-9213
▁arrests	-9214
▁delight	-9215
▁picking	-9216
▁Olympics	-9217
▁settings	-9218
▁exception	-9219
▁neighbors	-9220
▁promoting	-9221
▁virtually	-9222
▁Cincinnati	-9223
▁collaboration	-9224
AB	-9225
ml	-9226
oca	-9227
iley	-9228
▁Alan	-9229
▁Band	-9230
▁boom	-9231
▁Evans	-9232
▁helic	-9233
▁sheet	-9234
▁wrest	-9235
ocratic	-9236
▁Alaska	-9237
▁assume	-9238
▁hardly	-9239
▁Stewart	-9240
▁Studios	-9241
▁landing	-9242
▁Missouri	-9243
▁concrete	-9244
▁mountain	-9245
▁striking	-9246
▁maintained	-9247
▁legislative	-9248
hire	-9249
oned	-9250
scale	-9251
▁Rail	-9252
▁Shel	-9253
▁decor	-9254
▁euros	-9255
▁moral	-9256
▁surge	-9257
▁usage	-9258
▁colors	-9259
▁compat	-9260
secutive	-9261
▁fighter	-9262
▁Venezuel	-9263
----------------	-9264
LU	-9265
dog	-9266
aval	-9267
▁Bir	-9268
ierce	-9269
▁cens	-9270
▁trem	-9271
▁alert	-9272
ounding	-9273
▁Berlin	-9274
▁Gordon	-9275
▁bottle	-9276
▁sevent	-9277
▁cabinet	-9278
▁chapter	-9279
▁portray	-9280
▁profits	-9281
▁ultimate	-9282
▁residence	-9283
▁affordable	-9284
34	-9285
wa	-9286
One	-9287
etch	-9288
gary	-9289
▁Pod	-9290
▁Rio	-9291
▁Corp	-9292
▁Moon	-9293
▁stir	-9294
▁Adams	-9295
▁Total	-9296
▁Trust	-9297
▁alter	-9298
tenance	-9299
▁distur	-9300
▁scores	-9301
▁superv	-9302
▁promising	-9303
▁discussing	-9304
▁regulatory	-9305
▁Authorities	-9306
96	-9307
CA	-9308
itb	-9309
▁2:	-9310
high	-9311
iban	-9312
▁Mas	-9313
▁Being	-9314
▁papers	-9315
▁Mountain	-9316
▁interface	-9317
▁substance	-9318
▁announcing	-9319
▁homosexual	-9320
▁ridiculous	-9321
▁substantial	-9322
▁implementation	-9323
36	-9324
At	-9325
▁;	-9326
iki	-9327
▁1:	-9328
annon	-9329
icate	-9330
iture	-9331
▁Gard	-9332
▁Know	-9333
▁vary	-9334
istent	-9335
▁Early	-9336
▁chips	-9337
▁hosts	-9338
▁intel	-9339
▁revel	-9340
▁bullet	-9341
▁magnet	-9342
▁Raiders	-9343
▁concert	-9344
▁helicop	-9345
▁pleaded	-9346
▁Campbell	-9347
▁achieved	-9348
▁departure	-9349
▁classified	-9350
▁celebration	-9351
lee	-9352
ras	-9353
▁da	-9354
igen	-9355
ippi	-9356
osis	-9357
rogen	-9358
▁Mult	-9359
▁Rain	-9360
▁soul	-9361
▁magic	-9362
▁hackers	-9363
▁defended	-9364
▁feelings	-9365
▁collective	-9366
▁accusations	-9367
fit	-9368
▁85	-9369
▁CD	-9370
▁Cry	-9371
▁Sud	-9372
acted	-9373
leted	-9374
oenix	-9375
▁Nort	-9376
▁soph	-9377
▁tons	-9378
lessly	-9379
▁picks	-9380
rencies	-9381
▁copies	-9382
▁oppose	-9383
▁perpet	-9384
▁traged	-9385
▁welcom	-9386
▁centers	-9387
▁divided	-9388
▁refugee	-9389
▁staying	-9390
▁shocking	-9391
▁Officials	-9392
▁Kal	-9393
▁fur	-9394
party	-9395
stock	-9396
▁Conn	-9397
▁beta	-9398
▁glad	-9399
▁keys	-9400
▁Jimmy	-9401
▁Yemen	-9402
▁boxes	-9403
legraph	-9404
▁bathroom	-9405
▁processes	-9406
oyd	-9407
olas	-9408
reek	-9409
that	-9410
▁MPs	-9411
aying	-9412
backs	-9413
immer	-9414
▁Near	-9415
▁Wolf	-9416
▁summ	-9417
arrass	-9418
screen	-9419
▁Draft	-9420
▁Griff	-9421
▁Wayne	-9422
▁brill	-9423
▁dying	-9424
▁hockey	-9425
▁neutral	-9426
▁Vladimir	-9427
▁missiles	-9428
▁expanding	-9429
▁headlines	-9430
▁hospitals	-9431
▁promotion	-9432
▁traveling	-9433
▁consecutive	-9434
To	-9435
acco	-9436
▁EPA	-9437
▁Gib	-9438
▁Jen	-9439
▁gro	-9440
▁mad	-9441
▁Hend	-9442
▁Neil	-9443
▁outs	-9444
igious	-9445
▁inbox	-9446
▁tries	-9447
▁acquis	-9448
▁awards	-9449
breaking	-9450
▁genetic	-9451
▁hopeful	-9452
▁polling	-9453
▁signals	-9454
▁diseases	-9455
▁playoffs	-9456
▁executives	-9457
▁interviewed	-9458
mal	-9459
ses	-9460
▁66	-9461
▁9.	-9462
▁NO	-9463
ctic	-9464
▁15-	-9465
▁bub	-9466
▁ori	-9467
orted	-9468
▁Barb	-9469
▁pron	-9470
▁avail	-9471
▁loose	-9472
portion	-9473
▁Forest	-9474
▁Jeremy	-9475
ancellor	-9476
▁cleared	-9477
▁prototy	-9478
▁Christie	-9479
▁charging	-9480
▁peaceful	-9481
▁talented	-9482
▁CA	-9483
alle	-9484
cles	-9485
oner	-9486
▁aer	-9487
▁lux	-9488
ighth	-9489
▁beach	-9490
▁eager	-9491
▁gamep	-9492
▁Hispan	-9493
▁merely	-9494
▁forcing	-9495
▁pulling	-9496
▁segment	-9497
▁pipeline	-9498
▁sexually	-9499
▁studying	-9500
▁anonymous	-9501
▁launching	-9502
WS	-9503
iac	-9504
inf	-9505
tra	-9506
ixed	-9507
onda	-9508
▁Drug	-9509
▁bags	-9510
▁hire	-9511
ceived	-9512
iamond	-9513
▁Custom	-9514
▁breach	-9515
▁deemed	-9516
▁inject	-9517
▁stayed	-9518
▁trains	-9519
▁Airport	-9520
▁deserve	-9521
▁praised	-9522
▁preview	-9523
▁shelter	-9524
▁Treasury	-9525
▁Researchers	-9526
▁Additionally	-9527
▁Palestinians	-9528
46	-9529
4]	-9530
edy	-9531
▁Ta	-9532
aders	-9533
▁Soft	-9534
▁dies	-9535
▁Hawai	-9536
▁Round	-9537
▁Deputy	-9538
▁module	-9539
▁pledge	-9540
▁procedure	-9541
hot	-9542
plus	-9543
▁12-	-9544
▁2.0	-9545
▁lad	-9546
asion	-9547
▁Gand	-9548
▁None	-9549
▁Todd	-9550
▁grid	-9551
▁tens	-9552
▁flour	-9553
▁forum	-9554
▁stone	-9555
▁saving	-9556
▁winners	-9557
▁Continue	-9558
▁Pentagon	-9559
▁enormous	-9560
▁Financial	-9561
▁witnesses	-9562
▁punishment	-9563
47	-9564
▁ho	-9565
news	-9566
vard	-9567
▁Sav	-9568
gered	-9569
▁jack	-9570
▁maps	-9571
estyle	-9572
▁2008.	-9573
▁Magic	-9574
▁advis	-9575
▁scrut	-9576
▁silver	-9577
▁unions	-9578
election	-9579
▁Brandon	-9580
▁burning	-9581
▁diverse	-9582
▁inquiry	-9583
▁twitter	-9584
▁answered	-9585
▁medicine	-9586
▁embarrass	-9587
▁engineers	-9588
alia	-9589
hero	-9590
▁tea	-9591
Tunes	-9592
grade	-9593
ublin	-9594
▁NATO	-9595
▁Pope	-9596
ateful	-9597
rowing	-9598
▁escal	-9599
▁Anyone	-9600
▁packages	-9601
▁tourists	-9602
▁authentic	-9603
▁followers	-9604
▁unexpected	-9605
WA	-9606
ahu	-9607
jud	-9608
▁Ho	-9609
gree	-9610
vens	-9611
▁bow	-9612
icial	-9613
▁cock	-9614
▁mole	-9615
▁rhet	-9616
▁vend	-9617
▁Cloud	-9618
▁Until	-9619
▁Yahoo	-9620
▁falls	-9621
▁Orange	-9622
▁assign	-9623
▁Theatre	-9624
▁carries	-9625
▁incorpor	-9626
▁subjects	-9627
▁encounter	-9628
bi	-9629
cut	-9630
▁''	-9631
▁Ts	-9632
With	-9633
name	-9634
rock	-9635
▁Writ	-9636
▁belt	-9637
▁leak	-9638
hattan	-9639
keeper	-9640
▁viral	-9641
▁orange	-9642
▁surviv	-9643
▁striker	-9644
▁civilian	-9645
▁external	-9646
▁senators	-9647
▁expecting	-9648
▁philosoph	-9649
▁publisher	-9650
anim	-9651
▁Age	-9652
▁Vin	-9653
▁vig	-9654
▁Arts	-9655
▁Cole	-9656
▁Load	-9657
▁lift	-9658
▁root	-9659
itbart	-9660
monton	-9661
▁Chall	-9662
▁Clark	-9663
▁Later	-9664
▁intim	-9665
▁parks	-9666
▁Senior	-9667
▁Should	-9668
▁algorith	-9669
▁billions	-9670
▁donation	-9671
▁mistakes	-9672
▁offseason	-9673
▁renewable	-9674
▁Convention	-9675
arn	-9676
vol	-9677
bits	-9678
inth	-9679
▁Oil	-9680
▁jer	-9681
▁Hamp	-9682
▁Resp	-9683
▁calm	-9684
▁wine	-9685
rition	-9686
▁Kerry	-9687
▁shoes	-9688
▁yield	-9689
▁Taliban	-9690
▁airline	-9691
▁wanting	-9692
▁taxpayers	-9693
▁participating	-9694
wo	-9695
pes	-9696
▁na	-9697
arget	-9698
hetic	-9699
▁2003	-9700
▁Coal	-9701
▁Pant	-9702
▁2009.	-9703
arently	-9704
▁repair	-9705
▁testim	-9706
▁Phoenix	-9707
▁shooter	-9708
▁Ukrainian	-9709
▁attorneys	-9710
▁employers	-9711
▁efficiency	-9712
▁transaction	-9713
▁contribution	-9714
LY	-9715
PG	-9716
▁51	-9717
▁km	-9718
udes	-9719
▁1/2	-9720
▁Non	-9721
▁Sac	-9722
▁Beng	-9723
▁alien	-9724
▁toile	-9725
starter	-9726
▁Awards	-9727
liminary	-9728
▁absence	-9729
▁reforms	-9730
▁Partners	-9731
▁lineback	-9732
▁pregnant	-9733
▁accomplish	-9734
▁procedures	-9735
▁researcher	-9736
▁58	-9737
eria	-9738
only	-9739
rate	-9740
▁$50	-9741
▁Word	-9742
▁Fight	-9743
▁Warri	-9744
▁plain	-9745
▁unfair	-9746
ceptions	-9747
▁persons	-9748
▁removal	-9749
▁Lawrence	-9750
▁involves	-9751
▁stressed	-9752
▁displayed	-9753
▁requiring	-9754
▁educational	-9755
▁exclusively	-9756
▁comprehensive	-9757
Pe	-9758
anka	-9759
ardo	-9760
▁Ian	-9761
track	-9762
▁2002	-9763
▁Gear	-9764
▁asks	-9765
▁cops	-9766
▁memo	-9767
ishers	-9768
▁Whats	-9769
▁gross	-9770
▁discip	-9771
▁Gallery	-9772
▁Morning	-9773
▁imposed	-9774
▁interse	-9775
▁everyday	-9776
▁competing	-9777
▁intellect	-9778
▁meanwhile	-9779
▁scientist	-9780
▁physically	-9781
▁Mississippi	-9782
Be	-9783
fr	-9784
gets	-9785
mart	-9786
▁HTC	-9787
▁Les	-9788
▁McD	-9789
▁sed	-9790
valid	-9791
works	-9792
▁Nich	-9793
▁myth	-9794
▁shit	-9795
▁soil	-9796
▁Would	-9797
▁layer	-9798
powered	-9799
▁borders	-9800
▁equally	-9801
▁ignored	-9802
▁torture	-9803
▁entrance	-9804
▁defending	-9805
▁telephone	-9806
▁conviction	-9807
▁Ow	-9808
vity	-9809
▁600	-9810
▁Est	-9811
▁Ice	-9812
▁SEC	-9813
elona	-9814
▁Lane	-9815
▁Sure	-9816
▁arts	-9817
▁Hotel	-9818
▁shame	-9819
▁Around	-9820
▁versus	-9821
cosystem	-9822
▁reverse	-9823
▁therapy	-9824
▁engineer	-9825
▁prospects	-9826
▁Scientists	-9827
▁instructions	-9828
29	-9829
-15	-9830
▁IG	-9831
▁Kl	-9832
▁CON	-9833
▁Deb	-9834
▁Han	-9835
ridge	-9836
▁Bear	-9837
▁Comb	-9838
▁tiss	-9839
▁tone	-9840
▁blank	-9841
▁elder	-9842
▁Marine	-9843
▁domain	-9844
▁rivals	-9845
▁Highway	-9846
▁Manhattan	-9847
▁remarkable	-9848
▁counterpart	-9849
▁smartphones	-9850
▁introduction	-9851
▁universities	-9852
88	-9853
onz	-9854
icut	-9855
▁AND	-9856
▁GMT	-9857
▁GPU	-9858
▁Rah	-9859
▁Yan	-9860
▁joy	-9861
▁Laur	-9862
▁rebu	-9863
▁birds	-9864
▁subur	-9865
▁Nether	-9866
▁Quebec	-9867
▁barely	-9868
▁exempt	-9869
▁parade	-9870
▁rushed	-9871
▁anxiety	-9872
▁damages	-9873
▁handled	-9874
▁letting	-9875
▁savings	-9876
▁windows	-9877
▁resigned	-9878
▁resource	-9879
▁narrative	-9880
▁principal	-9881
▁teammates	-9882
irm	-9883
osa	-9884
izer	-9885
ttes	-9886
▁FOR	-9887
▁Fun	-9888
▁MMA	-9889
▁Nik	-9890
igate	-9891
keley	-9892
▁Budd	-9893
Script	-9894
▁Glenn	-9895
▁Leban	-9896
▁Mario	-9897
▁overd	-9898
▁felony	-9899
▁iTunes	-9900
▁junior	-9901
▁Manager	-9902
▁Russell	-9903
▁actress	-9904
▁Edmonton	-9905
▁premiere	-9906
▁framework	-9907
▁respondents	-9908
3)	-9909
HA	-9910
oda	-9911
▁pa	-9912
elle	-9913
iler	-9914
▁Had	-9915
▁Mit	-9916
▁Occ	-9917
▁bot	-9918
chell	-9919
igers	-9920
▁Garc	-9921
▁Jean	-9922
▁slot	-9923
mental	-9924
necess	-9925
onduct	-9926
▁Niger	-9927
▁array	-9928
▁wages	-9929
▁Dublin	-9930
▁Secret	-9931
▁blamed	-9932
▁buyers	-9933
▁dating	-9934
▁ignore	-9935
▁voices	-9936
▁Library	-9937
▁advocate	-9938
▁teenager	-9939
▁landscape	-9940
osi	-9941
▁63	-9942
▁FR	-9943
ampa	-9944
fers	-9945
illo	-9946
wich	-9947
▁Dak	-9948
▁FOX	-9949
▁hip	-9950
arted	-9951
eping	-9952
olves	-9953
▁Case	-9954
▁Dick	-9955
▁Hand	-9956
▁meal	-9957
▁slam	-9958
▁toll	-9959
alling	-9960
ipedia	-9961
▁Think	-9962
▁param	-9963
▁tasks	-9964
holders	-9965
▁Tribune	-9966
▁stating	-9967
▁dropping	-9968
▁keyboard	-9969
▁Barcelona	-9970
▁retailers	-9971
▁stability	-9972
▁politically	-9973
▁250	-9974
▁30-	-9975
▁fer	-9976
named	-9977
▁bump	-9978
▁deck	-9979
▁fest	-9980
▁rush	-9981
▁Assad	-9982
▁Peace	-9983
▁Stein	-9984
▁femin	-9985
▁revers	-9986
▁trained	-9987
▁tremend	-9988
▁Atlantic	-9989
▁Remember	-9990
▁athletes	-9991
▁disorder	-9992
▁focusing	-9993
▁managing	-9994
▁momentum	-9995
▁Currently	-9996
▁signature	-9997
▁principles	-9998
▁personality	-9999
39	-10000
75	-10001
SE	-10002
DAY	-10003
new	-10004
▁Ju	-10005
beat	-10006
icer	-10007
▁Kit	-10008
▁tab	-10009
anded	-10010
▁caps	-10011
▁Larry	-10012
▁tired	-10013
▁preced	-10014
▁speeds	-10015
▁visits	-10016
ernandez	-10017
▁Harvard	-10018
▁arrival	-10019
▁broader	-10020
▁venture	-10021
▁commander	-10022
▁districts	-10023
▁mandatory	-10024
▁naturally	-10025
▁operators	-10026
▁propaganda	-10027
▁Netherlands	-10028
▁CR	-10029
▁Ku	-10030
apes	-10031
boys	-10032
▁18-	-10033
▁Gro	-10034
large	-10035
▁okay	-10036
ucking	-10037
▁2018.	-10038
▁Works	-10039
founder	-10040
▁poison	-10041
▁topics	-10042
▁Looking	-10043
▁auction	-10044
▁defined	-10045
▁Election	-10046
▁Interest	-10047
▁painting	-10048
▁artificial	-10049
▁inspiration	-10050
▁recommendations	-10051
ova	-10052
▁Gh	-10053
ante	-10054
ders	-10055
▁Bou	-10056
▁Dal	-10057
▁Ltd	-10058
third	-10059
▁Baker	-10060
▁spray	-10061
▁Safety	-10062
▁Winter	-10063
▁assass	-10064
▁brands	-10065
▁legacy	-10066
▁rumors	-10067
igarettes	-10068
▁adoption	-10069
▁ambassador	-10070
▁explaining	-10071
▁strengthen	-10072
Up	-10073
.00	-10074
ems	-10075
mel	-10076
▁AI	-10077
▁Aw	-10078
step	-10079
▁Bor	-10080
▁Osc	-10081
▁Ref	-10082
▁cho	-10083
child	-10084
isons	-10085
▁(201	-10086
▁Gill	-10087
▁Jess	-10088
▁Norm	-10089
▁Qual	-10090
▁athe	-10091
▁mile	-10092
erving	-10093
ickets	-10094
▁Citiz	-10095
▁loans	-10096
▁stops	-10097
▁Spider	-10098
▁landed	-10099
▁studied	-10100
▁wealthy	-10101
▁Building	-10102
▁Marshall	-10103
▁enjoying	-10104
▁graduate	-10105
▁judgment	-10106
▁longtime	-10107
▁stunning	-10108
▁Pakistani	-10109
▁brilliant	-10110
▁disappear	-10111
▁electrical	-10112
▁Connecticut	-10113
▁Corporation	-10114
▁Philippines	-10115
▁Transportation	-10116
▁TR	-10117
▁pm	-10118
orge	-10119
▁Dor	-10120
▁Fif	-10121
▁pig	-10122
apped	-10123
eared	-10124
ollar	-10125
▁Crit	-10126
▁Jane	-10127
▁Whit	-10128
▁cats	-10129
▁2,000	-10130
▁venue	-10131
▁whist	-10132
▁Prosecut	-10133
▁assembly	-10134
▁earnings	-10135
▁interven	-10136
▁protocol	-10137
▁wildlife	-10138
▁practical	-10139
▁entreprene	-10140
▁inappropri	-10141
▁surrounded	-10142
▁maintenance	-10143
▁professionals	-10144
lr	-10145
zed	-10146
▁(8	-10147
enna	-10148
oded	-10149
▁WWE	-10150
▁Nash	-10151
▁Supp	-10152
▁Wiki	-10153
▁demo	-10154
▁seed	-10155
▁veto	-10156
inally	-10157
▁Ocean	-10158
▁Merkel	-10159
▁buried	-10160
▁dubbed	-10161
▁pepper	-10162
▁safely	-10163
▁tables	-10164
▁collaps	-10165
▁divorce	-10166
▁graphic	-10167
▁Sessions	-10168
▁deployed	-10169
▁employed	-10170
▁moderate	-10171
▁associate	-10172
▁ecosystem	-10173
▁coordinator	-10174
48	-10175
ART	-10176
ugs	-10177
▁env	-10178
▁Luke	-10179
▁Roll	-10180
▁dual	-10181
▁yard	-10182
▁noise	-10183
▁Ronald	-10184
▁killer	-10185
▁tempor	-10186
▁Against	-10187
▁powered	-10188
▁soldier	-10189
▁tactics	-10190
▁Patriots	-10191
▁designer	-10192
▁licensing	-10193
▁penalties	-10194
▁wondering	-10195
▁industries	-10196
▁confirmation	-10197
▁Congressional	-10198
▁extraordinary	-10199
32	-10200
oa	-10201
ERE	-10202
▁Dub	-10203
▁FCC	-10204
▁Was	-10205
▁Wii	-10206
▁cow	-10207
isode	-10208
owski	-10209
▁Benn	-10210
▁Bros	-10211
▁Join	-10212
▁buck	-10213
olitan	-10214
strong	-10215
▁Based	-10216
▁Model	-10217
▁imper	-10218
▁jihad	-10219
▁pharm	-10220
▁relax	-10221
▁teeth	-10222
▁Murphy	-10223
▁Portug	-10224
▁reserv	-10225
▁advised	-10226
▁pledged	-10227
▁reserve	-10228
▁Campaign	-10229
▁emerging	-10230
▁restrict	-10231
▁McConnell	-10232
▁appointment	-10233
AF	-10234
gov	-10235
▁Ry	-10236
mind	-10237
▁DNC	-10238
▁Lie	-10239
▁Low	-10240
▁PAC	-10241
▁Corn	-10242
▁euro	-10243
▁mall	-10244
▁torn	-10245
▁Coach	-10246
▁Jerry	-10247
profile	-10248
▁Chrome	-10249
▁packed	-10250
▁Players	-10251
▁compare	-10252
▁earning	-10253
▁helpful	-10254
▁tragedy	-10255
▁utility	-10256
arenthood	-10257
▁Regional	-10258
▁engaging	-10259
▁humanity	-10260
▁tensions	-10261
▁performances	-10262
sem	-10263
pack	-10264
▁API	-10265
▁McM	-10266
▁Ven	-10267
aping	-10268
▁Farm	-10269
▁Marg	-10270
▁epic	-10271
▁fool	-10272
▁hung	-10273
▁till	-10274
▁Close	-10275
▁cease	-10276
▁crude	-10277
▁pride	-10278
▁sorts	-10279
▁Soccer	-10280
▁reader	-10281
▁Circuit	-10282
▁Invalid	-10283
▁Kurdish	-10284
▁autonom	-10285
▁infring	-10286
▁Magazine	-10287
▁expenses	-10288
▁reliable	-10289
▁appearing	-10290
▁indication	-10291
▁participation	-10292
-19	-10293
400	-10294
How	-10295
oft	-10296
rik	-10297
▁CC	-10298
lash	-10299
untu	-10300
▁2.5	-10301
▁Sad	-10302
▁bin	-10303
These	-10304
ailed	-10305
idays	-10306
▁Heat	-10307
▁Meet	-10308
▁dust	-10309
▁flee	-10310
▁solo	-10311
market	-10312
rection	-10313
▁Morris	-10314
▁Rather	-10315
▁garage	-10316
▁statue	-10317
▁insight	-10318
▁disabled	-10319
▁firearms	-10320
▁speakers	-10321
▁demonstrate	-10322
▁subscribing	-10323
PI	-10324
300	-10325
yes	-10326
▁Cla	-10327
▁rom	-10328
oding	-10329
▁Rice	-10330
▁evac	-10331
▁sits	-10332
ousing	-10333
ricane	-10334
▁Maria	-10335
▁chest	-10336
▁embed	-10337
▁Nelson	-10338
▁Economic	-10339
▁blocking	-10340
▁choosing	-10341
▁formally	-10342
▁Breitbart	-10343
▁suspicion	-10344
▁innovative	-10345
▁investigated	-10346
cr	-10347
hu	-10348
▁6-	-10349
▁Ger	-10350
▁jet	-10351
aukee	-10352
uther	-10353
▁2001	-10354
▁Doug	-10355
▁Emer	-10356
▁Crown	-10357
▁Smart	-10358
▁colour	-10359
▁drives	-10360
▁Calgary	-10361
▁Holland	-10362
▁Vietnam	-10363
▁credits	-10364
▁filming	-10365
▁gallery	-10366
▁Pictures	-10367
▁responses	-10368
▁integrated	-10369
Ex	-10370
][	-10371
-16	-10372
pha	-10373
you	-10374
▁95	-10375
▁EX	-10376
stan	-10377
ught	-10378
ophob	-10379
▁Conc	-10380
▁Crim	-10381
▁Help	-10382
▁Left	-10383
▁True	-10384
▁sued	-10385
▁Danny	-10386
▁Jacob	-10387
▁shops	-10388
▁Abbott	-10389
▁Hunter	-10390
▁Parker	-10391
▁Commons	-10392
▁frequent	-10393
▁operator	-10394
▁supporter	-10395
▁testimony	-10396
▁prosecution	-10397
▁requirement	-10398
▁sustainable	-10399
/10	-10400
▁BC	-10401
▁Bi	-10402
▁Po	-10403
mers	-10404
▁800	-10405
▁Abu	-10406
▁Dod	-10407
▁Fat	-10408
▁Gay	-10409
▁Celt	-10410
▁serv	-10411
degree	-10412
estone	-10413
rupted	-10414
▁badly	-10415
▁coinc	-10416
▁firef	-10417
▁mouse	-10418
▁comics	-10419
▁robots	-10420
▁tunnel	-10421
▁delayed	-10422
▁Alliance	-10423
▁Berkeley	-10424
▁calendar	-10425
▁Charlotte	-10426
▁sustained	-10427
▁integration	-10428
▁conventional	-10429
▁demonstration	-10430
TER	-10431
enz	-10432
▁Du	-10433
ista	-10434
▁Fab	-10435
▁Tun	-10436
▁bip	-10437
ishop	-10438
▁Pear	-10439
▁rice	-10440
arency	-10441
▁skept	-10442
instein	-10443
▁burden	-10444
▁poster	-10445
▁timing	-10446
▁Firefox	-10447
▁benefic	-10448
▁dynamic	-10449
▁memories	-10450
▁delegates	-10451
▁publishing	-10452
New	-10453
▁56	-10454
abad	-10455
iffe	-10456
open	-10457
than	-10458
▁$30	-10459
▁Sex	-10460
▁Save	-10461
▁Yeah	-10462
▁cycl	-10463
▁echo	-10464
▁odds	-10465
accept	-10466
waukee	-10467
▁Princ	-10468
▁arbit	-10469
▁beaten	-10470
▁makers	-10471
▁openly	-10472
▁pocket	-10473
▁undert	-10474
▁printed	-10475
▁resolve	-10476
▁actively	-10477
▁attitude	-10478
▁rhetoric	-10479
▁unnecess	-10480
▁qualified	-10481
▁communicate	-10482
▁importantly	-10483
▁architecture	-10484
▁!	-10485
gal	-10486
▁Fu	-10487
▁vo	-10488
thon	-10489
yang	-10490
▁Ald	-10491
▁Mom	-10492
▁USD	-10493
▁los	-10494
▁une	-10495
▁1960	-10496
▁Hann	-10497
▁Jets	-10498
▁cogn	-10499
erning	-10500
▁cents	-10501
▁foods	-10502
▁seeks	-10503
▁Legisl	-10504
▁Watson	-10505
▁resort	-10506
▁rolled	-10507
▁trucks	-10508
▁Edwards	-10509
▁battles	-10510
▁carrier	-10511
▁dialogue	-10512
▁suggestions	-10513
▁underground	-10514
▁commissioner	-10515
▁cryptocurrency	-10516
SU	-10517
▁SD	-10518
thur	-10519
▁HIV	-10520
▁ric	-10521
▁Cass	-10522
▁Chen	-10523
▁Kind	-10524
▁Move	-10525
▁nurs	-10526
▁admin	-10527
▁stamp	-10528
▁Eagles	-10529
▁Mother	-10530
▁Continued	-10531
▁criminals	-10532
▁favourite	-10533
KE	-10534
NY	-10535
SL	-10536
ubs	-10537
▁Wy	-10538
▁911	-10539
▁Cos	-10540
▁Log	-10541
▁lik	-10542
▁Duke	-10543
▁Fast	-10544
▁bugs	-10545
▁plea	-10546
▁pose	-10547
arched	-10548
▁Grant	-10549
▁Tampa	-10550
▁globe	-10551
▁scope	-10552
leading	-10553
▁Photos	-10554
▁comply	-10555
▁patrol	-10556
▁traded	-10557
▁urging	-10558
▁100,000	-10559
▁Friends	-10560
▁Overall	-10561
▁consent	-10562
▁managers	-10563
▁missions	-10564
▁responding	-10565
▁transferred	-10566
▁Environmental	-10567
VP	-10568
ikh	-10569
▁ol	-10570
idal	-10571
resa	-10572
▁Hug	-10573
▁Map	-10574
▁spy	-10575
nesty	-10576
▁Dean	-10577
▁Past	-10578
▁Rome	-10579
▁bold	-10580
▁span	-10581
ingers	-10582
▁2007,	-10583
▁Chron	-10584
▁adequ	-10585
entures	-10586
▁Future	-10587
▁Harvey	-10588
▁bacter	-10589
▁destro	-10590
▁donate	-10591
▁fabric	-10592
▁phrase	-10593
friendly	-10594
security	-10595
▁Belgium	-10596
▁creator	-10597
▁mixture	-10598
▁restore	-10599
▁gameplay	-10600
▁survival	-10601
▁detention	-10602
▁Everything	-10603
▁photographs	-10604
▁protections	-10605
PL	-10606
VE	-10607
gt	-10608
aro	-10609
dam	-10610
▁99	-10611
▁BE	-10612
date	-10613
▁Hud	-10614
▁Thr	-10615
▁Kirk	-10616
▁Much	-10617
▁fold	-10618
ateral	-10619
▁Along	-10620
▁Veter	-10621
▁Visit	-10622
▁anime	-10623
▁buses	-10624
▁Hitler	-10625
▁backup	-10626
▁filter	-10627
▁garden	-10628
▁Picture	-10629
▁Vermont	-10630
▁apology	-10631
▁cheaper	-10632
▁seventh	-10633
▁Officers	-10634
▁constitu	-10635
▁occasion	-10636
▁occupied	-10637
▁operated	-10638
▁Hampshire	-10639
▁accepting	-10640
▁chemicals	-10641
▁languages	-10642
▁challenged	-10643
▁exhibition	-10644
▁guaranteed	-10645
▁developments	-10646
▁implications	-10647
CO	-10648
De	-10649
.10	-10650
bie	-10651
rah	-10652
▁DE	-10653
aley	-10654
asty	-10655
fare	-10656
▁(200	-10657
▁Pers	-10658
▁Simp	-10659
▁crus	-10660
▁frag	-10661
▁kiss	-10662
▁lane	-10663
▁nick	-10664
ocated	-10665
▁Rubio	-10666
▁Saint	-10667
▁holes	-10668
▁Forces	-10669
▁elabor	-10670
▁surely	-10671
▁Command	-10672
▁Loading	-10673
▁possess	-10674
▁Brazilian	-10675
▁municipal	-10676
▁provisions	-10677
▁preliminary	-10678
▁demonstrated	-10679
▁advertisement	-10680
▁functionality	-10681
Sc	-10682
ao	-10683
Sem	-10684
ims	-10685
tte	-10686
zes	-10687
▁68	-10688
▁ax	-10689
inho	-10690
offs	-10691
▁190	-10692
▁24-	-10693
▁Blues	-10694
▁Krist	-10695
itement	-10696
▁Hockey	-10697
▁newest	-10698
▁Stanley	-10699
▁fastest	-10700
▁grabbed	-10701
▁Milwaukee	-10702
▁collecting	-10703
▁questioning	-10704
▁unfortunately	-10705
??	-10706
Go	-10707
abe	-10708
▁3:	-10709
▁Ay	-10710
arma	-10711
arre	-10712
ixel	-10713
rike	-10714
▁Bes	-10715
▁Nex	-10716
enter	-10717
umblr	-10718
▁pill	-10719
▁swit	-10720
▁Kings	-10721
▁orbit	-10722
▁punch	-10723
▁guards	-10724
▁RELATED	-10725
▁fantasy	-10726
▁robbery	-10727
▁welcomed	-10728
▁principle	-10729
▁Parenthood	-10730
▁households	-10731
▁subsequent	-10732
▁subsequently	-10733
FO	-10734
.),	-10735
▁57	-10736
▁59	-10737
▁Erd	-10738
▁Sep	-10739
amous	-10740
guson	-10741
▁Auto	-10742
▁misc	-10743
▁toss	-10744
former	-10745
▁Block	-10746
▁ambul	-10747
▁compr	-10748
▁crore	-10749
▁quote	-10750
▁Empire	-10751
▁Studio	-10752
▁argues	-10753
▁hybrid	-10754
▁muscle	-10755
▁unanim	-10756
▁Planned	-10757
▁caution	-10758
▁enabled	-10759
▁facilit	-10760
▁fiction	-10761
▁lessons	-10762
▁secured	-10763
▁Harrison	-10764
▁checking	-10765
▁provider	-10766
▁legendary	-10767
▁acceptable	-10768
▁delivering	-10769
▁intellectual	-10770
▁manufacturer	-10771
oop	-10772
ulu	-10773
▁(7	-10774
▁Cu	-10775
▁Mi	-10776
them	-10777
▁Bah	-10778
▁Hus	-10779
▁tum	-10780
ested	-10781
▁Fant	-10782
▁reck	-10783
▁Clear	-10784
▁Flash	-10785
▁Lucas	-10786
▁Qatar	-10787
▁rebel	-10788
▁smell	-10789
ouncill	-10790
vereign	-10791
▁notion	-10792
▁automatic	-10793
▁exchanges	-10794
▁processor	-10795
▁Apparently	-10796
▁categories	-10797
▁disturbing	-10798
▁departments	-10799
▁endorsement	-10800
▁installation	-10801
mat	-10802
omy	-10803
▁72	-10804
▁DA	-10805
base	-10806
bola	-10807
fish	-10808
link	-10809
obby	-10810
▁$15	-10811
▁17-	-10812
▁AFL	-10813
▁Cas	-10814
▁mit	-10815
about	-10816
nered	-10817
▁Kash	-10818
▁Prom	-10819
▁hunt	-10820
▁lady	-10821
▁shed	-10822
outube	-10823
ronics	-10824
usting	-10825
▁burst	-10826
▁harsh	-10827
▁laser	-10828
▁stere	-10829
▁towns	-10830
▁fossil	-10831
▁indict	-10832
▁outlet	-10833
▁riders	-10834
▁briefly	-10835
▁dressed	-10836
▁hanging	-10837
▁intimid	-10838
▁Columbus	-10839
▁Egyptian	-10840
▁heritage	-10841
▁refusing	-10842
▁movements	-10843
▁prevented	-10844
▁celebrated	-10845
▁populations	-10846
▁availability	-10847
▁Communications	-10848
▁administrative	-10849
NA	-10850
NT	-10851
ais	-10852
erk	-10853
oln	-10854
▁VP	-10855
acre	-10856
flow	-10857
▁HBO	-10858
▁Nap	-10859
▁Nob	-10860
▁Try	-10861
▁Airl	-10862
▁Anal	-10863
▁Mort	-10864
▁math	-10865
father	-10866
▁Occup	-10867
▁adopt	-10868
▁cinem	-10869
▁fleet	-10870
▁hyper	-10871
aration	-10872
onymous	-10873
▁babies	-10874
▁repeat	-10875
▁checked	-10876
▁closure	-10877
▁cooking	-10878
▁Progress	-10879
▁annually	-10880
▁collapse	-10881
▁convince	-10882
▁displays	-10883
▁Wikipedia	-10884
▁delicious	-10885
▁surprisingly	-10886
GE	-10887
aya	-10888
erg	-10889
▁GO	-10890
anne	-10891
iche	-10892
▁Dri	-10893
▁Inn	-10894
Leaks	-10895
guard	-10896
▁Kyle	-10897
▁Tele	-10898
▁mart	-10899
▁recy	-10900
▁visa	-10901
incess	-10902
▁Palin	-10903
▁bombs	-10904
▁eleph	-10905
▁grade	-10906
▁safer	-10907
▁Dakota	-10908
▁planes	-10909
▁shield	-10910
▁approve	-10911
▁bombing	-10912
▁pricing	-10913
▁protein	-10914
▁startup	-10915
▁Richmond	-10916
▁commonly	-10917
▁scholars	-10918
▁survived	-10919
▁mechanism	-10920
▁concerning	-10921
▁tremendous	-10922
▁celebrating	-10923
▁experiments	-10924
▁conservation	-10925
▁presentation	-10926
ava	-10927
bes	-10928
▁BR	-10929
ethe	-10930
▁202	-10931
▁Teh	-10932
▁tut	-10933
▁Brus	-10934
▁Hans	-10935
▁Kate	-10936
▁Till	-10937
▁fate	-10938
runner	-10939
▁Order	-10940
▁inequ	-10941
igenous	-10942
▁Johnny	-10943
▁colleg	-10944
▁luxury	-10945
▁meters	-10946
▁disrupt	-10947
▁animated	-10948
▁bankrupt	-10949
▁sessions	-10950
▁indicates	-10951
▁projected	-10952
▁attractive	-10953
▁Organization	-10954
▁ts	-10955
.[1]	-10956
anth	-10957
arat	-10958
omes	-10959
▁Mov	-10960
ancer	-10961
cific	-10962
ucker	-10963
▁Less	-10964
▁NCAA	-10965
▁guid	-10966
▁toys	-10967
▁Comic	-10968
▁Hamas	-10969
▁asset	-10970
▁gifts	-10971
▁sidew	-10972
▁breath	-10973
▁figured	-10974
▁theater	-10975
forcement	-10976
▁scrutiny	-10977
▁migration	-10978
▁earthquake	-10979
▁acquisition	-10980
/11	-10981
aba	-10982
auc	-10983
haul	-10984
iden	-10985
▁Eve	-10986
▁Ing	-10987
▁Say	-10988
after	-10989
encer	-10990
media	-10991
orous	-10992
rolls	-10993
shore	-10994
▁Aven	-10995
▁Deep	-10996
▁Lock	-10997
▁Song	-10998
▁Trek	-10999
▁bone	-11000
▁rall	-11001
▁reun	-11002
▁riot	-11003
herent	-11004
▁MSNBC	-11005
▁posed	-11006
▁Norway	-11007
▁donors	-11008
▁bottles	-11009
▁handgun	-11010
▁silence	-11011
▁viewing	-11012
▁crossing	-11013
▁deputies	-11014
▁reviewed	-11015
▁attracted	-11016
▁lifestyle	-11017
▁sovereign	-11018
▁highlighted	-11019
▁preparation	-11020
▁resignation	-11021
▁photographer	-11022
5)	-11023
fi	-11024
zi	-11025
IVE	-11026
dis	-11027
erd	-11028
▁Ll	-11029
▁sy	-11030
comp	-11031
ogen	-11032
▁fut	-11033
▁pir	-11034
▁roy	-11035
▁Spot	-11036
▁Talk	-11037
▁gate	-11038
acular	-11039
▁Bangl	-11040
▁Enjoy	-11041
urities	-11042
▁Bradley	-11043
▁Buffalo	-11044
▁Manning	-11045
▁Members	-11046
▁pension	-11047
▁ranking	-11048
▁Exchange	-11049
▁lifetime	-11050
▁meantime	-11051
acceptable	-11052
▁eliminate	-11053
▁overnight	-11054
▁conducting	-11055
▁controller	-11056
▁preventing	-11057
44	-11058
MB	-11059
CNN	-11060
avor	-11061
▁700	-11062
shirt	-11063
▁Bart	-11064
▁Buzz	-11065
▁tune	-11066
govern	-11067
▁slide	-11068
▁wound	-11069
written	-11070
▁Madison	-11071
▁crashed	-11072
▁depends	-11073
▁Arkansas	-11074
▁complain	-11075
▁stopping	-11076
▁commented	-11077
▁integrity	-11078
▁agreements	-11079
▁provincial	-11080
▁anticipated	-11081
iw	-11082
-20	-11083
▁Ox	-11084
▁ec	-11085
wall	-11086
▁Exc	-11087
Every	-11088
words	-11089
▁cake	-11090
▁mask	-11091
▁tatt	-11092
▁teens	-11093
▁Hawaii	-11094
▁lesson	-11095
▁deleted	-11096
▁highway	-11097
ropolitan	-11098
▁ordinary	-11099
▁whenever	-11100
▁Assistant	-11101
▁condemned	-11102
▁Federation	-11103
▁subscription	-11104
acon	-11105
oren	-11106
▁Amy	-11107
▁DVD	-11108
asant	-11109
culus	-11110
press	-11111
▁Appe	-11112
▁Brun	-11113
▁Wang	-11114
▁anch	-11115
tarian	-11116
▁Solar	-11117
▁knock	-11118
▁marry	-11119
▁vocal	-11120
theless	-11121
▁Regard	-11122
▁Climate	-11123
▁Indones	-11124
▁instant	-11125
▁Airlines	-11126
▁defeated	-11127
▁deserves	-11128
▁murdered	-11129
▁Coalition	-11130
▁Obviously	-11131
▁boyfriend	-11132
▁cancelled	-11133
▁preferred	-11134
▁recession	-11135
▁secondary	-11136
▁democratic	-11137
▁suspicious	-11138
hou	-11139
iga	-11140
▁ED	-11141
iens	-11142
leep	-11143
otta	-11144
rien	-11145
▁Ped	-11146
▁Var	-11147
▁nan	-11148
▁Clar	-11149
▁Dawn	-11150
▁Sear	-11151
▁Side	-11152
▁Tell	-11153
▁bicy	-11154
▁gest	-11155
▁raid	-11156
▁Ebola	-11157
▁acted	-11158
▁beers	-11159
▁logic	-11160
▁Rodrig	-11161
▁Rogers	-11162
▁partly	-11163
▁scared	-11164
▁donated	-11165
▁publish	-11166
▁touched	-11167
▁accompan	-11168
▁assigned	-11169
▁certific	-11170
▁removing	-11171
▁sections	-11172
▁warnings	-11173
▁Universal	-11174
▁impressed	-11175
700	-11176
mic	-11177
▁LE	-11178
▁SN	-11179
ATCH	-11180
▁Lev	-11181
▁arc	-11182
▁sin	-11183
oween	-11184
urned	-11185
▁Luck	-11186
▁Mall	-11187
▁Mour	-11188
▁soci	-11189
▁ambit	-11190
▁boards	-11191
▁loaded	-11192
▁manual	-11193
▁powder	-11194
isations	-11195
▁formation	-11196
▁occasions	-11197
▁revealing	-11198
▁phenomenon	-11199
▁spacecraft	-11200
▁destination	-11201
!!!	-11202
pen	-11203
pol	-11204
rix	-11205
tes	-11206
oche	-11207
▁IBM	-11208
lickr	-11209
▁Sent	-11210
▁Snap	-11211
▁drum	-11212
▁fare	-11213
▁stun	-11214
amento	-11215
▁absor	-11216
▁Father	-11217
▁Tigers	-11218
▁deeper	-11219
▁delays	-11220
▁gamers	-11221
▁refund	-11222
▁reiter	-11223
▁sensor	-11224
▁Between	-11225
▁firearm	-11226
▁mandate	-11227
▁Wildlife	-11228
▁lighting	-11229
▁modified	-11230
▁replacing	-11231
▁citizenship	-11232
aph	-11233
ivan	-11234
▁Ave	-11235
books	-11236
luded	-11237
storm	-11238
unity	-11239
▁exha	-11240
▁tale	-11241
▁taxi	-11242
▁wond	-11243
anyahu	-11244
izarre	-11245
▁Urban	-11246
▁aired	-11247
▁colon	-11248
▁demol	-11249
▁Gandhi	-11250
▁orient	-11251
▁plaint	-11252
▁shadow	-11253
▁tragic	-11254
▁Century	-11255
▁hunting	-11256
▁impacts	-11257
▁tablets	-11258
▁whistle	-11259
▁examined	-11260
▁Pinterest	-11261
▁dominated	-11262
▁finishing	-11263
▁incorrect	-11264
▁nonprofit	-11265
▁attendance	-11266
▁describing	-11267
▁understands	-11268
9)	-11269
HT	-11270
SO	-11271
gi	-11272
je	-11273
-12	-11274
UST	-11275
dep	-11276
oks	-11277
▁62	-11278
▁76	-11279
▁MA	-11280
▁SA	-11281
pled	-11282
▁Amb	-11283
atoes	-11284
▁Anti	-11285
▁Dest	-11286
▁HTML	-11287
▁acid	-11288
▁lect	-11289
▁mood	-11290
▁Storm	-11291
▁inner	-11292
▁raped	-11293
ributes	-11294
▁Knight	-11295
▁drinks	-11296
▁duties	-11297
▁filmed	-11298
▁heroes	-11299
▁metres	-11300
▁Broncos	-11301
▁Similar	-11302
▁discour	-11303
▁embassy	-11304
▁greatly	-11305
▁motorcy	-11306
▁starter	-11307
▁endorsed	-11308
▁presents	-11309
▁relation	-11310
▁resolved	-11311
▁Canadians	-11312
▁batteries	-11313
▁objective	-11314
▁dramatically	-11315
En	-11316
800	-11317
▁AB	-11318
aria	-11319
ulty	-11320
▁Fro	-11321
▁GDP	-11322
▁Gas	-11323
▁McL	-11324
▁NDP	-11325
ching	-11326
orate	-11327
speed	-11328
▁Edit	-11329
▁Fans	-11330
▁bias	-11331
▁nerv	-11332
uating	-11333
▁Happy	-11334
▁fires	-11335
▁moder	-11336
▁Finance	-11337
▁Nothing	-11338
▁rewards	-11339
▁tribute	-11340
▁volunteer	-11341
stitutional	-11342
▁vegetables	-11343
▁consultation	-11344
▁demonstrations	-11345
▁5-	-11346
gate	-11347
inge	-11348
olly	-11349
▁Lad	-11350
▁oxy	-11351
atern	-11352
▁Musk	-11353
▁Need	-11354
▁Phys	-11355
▁toug	-11356
▁Bears	-11357
▁Brand	-11358
▁Glass	-11359
▁bands	-11360
▁relie	-11361
▁Dragon	-11362
▁Target	-11363
▁Victor	-11364
▁robust	-11365
▁tradem	-11366
▁Mitchell	-11367
▁Venezuela	-11368
▁desperate	-11369
▁execution	-11370
▁radiation	-11371
▁shootings	-11372
▁sponsored	-11373
▁mysterious	-11374
▁politician	-11375
▁competitors	-11376
jan	-11377
▁CBC	-11378
▁Cob	-11379
▁Fan	-11380
armed	-11381
▁Date	-11382
▁Hunt	-11383
▁Mand	-11384
▁cave	-11385
▁Chuck	-11386
▁chaos	-11387
▁dirty	-11388
▁trips	-11389
▁tuned	-11390
▁predec	-11391
▁raises	-11392
outheast	-11393
▁Reading	-11394
▁fitness	-11395
▁interim	-11396
▁offence	-11397
▁outdoor	-11398
▁attacker	-11399
▁creators	-11400
▁mortgage	-11401
▁password	-11402
▁encryption	-11403
▁engagement	-11404
▁impression	-11405
▁trafficking	-11406
/3	-11407
vo	-11408
cat	-11409
ols	-11410
ped	-11411
▁MC	-11412
▁fu	-11413
dict	-11414
half	-11415
hill	-11416
▁Nok	-11417
▁Rat	-11418
arthy	-11419
▁Beat	-11420
▁Bird	-11421
▁Jong	-11422
▁Linc	-11423
inance	-11424
▁Devil	-11425
▁Hills	-11426
▁Keith	-11427
▁Serge	-11428
▁camps	-11429
▁inval	-11430
▁maker	-11431
▁naked	-11432
▁ratio	-11433
ductive	-11434
rifying	-11435
▁Animal	-11436
▁Weekly	-11437
▁burned	-11438
▁errors	-11439
fortable	-11440
ortunate	-11441
▁closest	-11442
▁passage	-11443
▁Russians	-11444
▁Universe	-11445
▁promoted	-11446
▁sporting	-11447
▁WikiLeaks	-11448
▁distribut	-11449
▁infection	-11450
▁motivated	-11451
▁restricted	-11452
▁devastating	-11453
▁generations	-11454
▁transparency	-11455
SC	-11456
cap	-11457
lif	-11458
nan	-11459
nik	-11460
rek	-11461
▁CM	-11462
▁ug	-11463
ayed	-11464
burn	-11465
issa	-11466
thal	-11467
▁LED	-11468
oting	-11469
▁Jenn	-11470
▁Very	-11471
▁aide	-11472
▁lobb	-11473
▁snap	-11474
▁soup	-11475
▁urge	-11476
terror	-11477
▁Creek	-11478
▁cruel	-11479
▁accord	-11480
▁refuse	-11481
▁funeral	-11482
▁Brussels	-11483
▁Medicaid	-11484
▁WhatsApp	-11485
▁overcome	-11486
▁editorial	-11487
▁spreading	-11488
▁biological	-11489
▁functional	-11490
▁regulators	-11491
▁accidentally	-11492
▁intervention	-11493
FF	-11494
TO	-11495
▁$25	-11496
▁Tob	-11497
▁wet	-11498
erver	-11499
eters	-11500
jamin	-11501
otion	-11502
▁Leave	-11503
▁Touch	-11504
▁Tyler	-11505
▁annoy	-11506
▁pizza	-11507
▁screw	-11508
▁Tehran	-11509
▁Ubuntu	-11510
▁mathem	-11511
▁slated	-11512
▁courses	-11513
▁qualify	-11514
▁Military	-11515
▁investor	-11516
▁midnight	-11517
▁underway	-11518
▁Argentina	-11519
▁ambitious	-11520
▁consensus	-11521
▁helicopter	-11522
▁linebacker	-11523
▁Kickstarter	-11524
▁disappeared	-11525
oga	-11526
oof	-11527
aved	-11528
iors	-11529
rons	-11530
▁CPU	-11531
chair	-11532
icked	-11533
▁aster	-11534
▁reass	-11535
achment	-11536
▁Advent	-11537
▁archae	-11538
▁golden	-11539
▁laptop	-11540
▁oldest	-11541
▁praise	-11542
▁Natural	-11543
▁Sources	-11544
▁assumed	-11545
▁combine	-11546
▁engines	-11547
▁athletic	-11548
▁sleeping	-11549
▁Halloween	-11550
▁Netanyahu	-11551
▁Something	-11552
▁specialist	-11553
▁suggestion	-11554
▁differently	-11555
uz	-11556
ILL	-11557
uez	-11558
uto	-11559
▁Ky	-11560
left	-11561
roph	-11562
▁180	-11563
▁Own	-11564
asted	-11565
leton	-11566
lings	-11567
uerto	-11568
▁Hold	-11569
▁lone	-11570
idding	-11571
▁fines	-11572
▁meets	-11573
anguage	-11574
▁20,000	-11575
▁Change	-11576
▁Garcia	-11577
▁routes	-11578
▁wallet	-11579
▁elderly	-11580
▁fishing	-11581
▁Ferguson	-11582
▁Michelle	-11583
▁Resident	-11584
▁guidance	-11585
▁recalled	-11586
▁sometime	-11587
▁violating	-11588
▁documented	-11589
▁Representatives	-11590
SD	-11591
Rep	-11592
▁tu	-11593
arts	-11594
otto	-11595
▁Guy	-11596
▁Kin	-11597
atile	-11598
white	-11599
▁Bash	-11600
▁Jake	-11601
▁Mind	-11602
▁gent	-11603
▁intr	-11604
▁Bulls	-11605
▁Marco	-11606
▁Perez	-11607
▁catal	-11608
▁rated	-11609
artisan	-11610
▁Oculus	-11611
▁Spicer	-11612
▁Collins	-11613
▁amongst	-11614
▁minimal	-11615
▁notable	-11616
▁ranging	-11617
▁advocacy	-11618
▁applying	-11619
▁equipped	-11620
▁headline	-11621
▁licensed	-11622
▁creatures	-11623
▁compromise	-11624
▁frustrated	-11625
▁philosophy	-11626
▁signatures	-11627
▁accompanied	-11628
▁legalization	-11629
bus	-11630
fil	-11631
isb	-11632
olo	-11633
rot	-11634
urg	-11635
▁67	-11636
▁IM	-11637
umph	-11638
▁Ton	-11639
▁gym	-11640
▁mac	-11641
▁Fitz	-11642
▁Moto	-11643
▁Terry	-11644
▁rocks	-11645
western	-11646
▁Poland	-11647
▁Totten	-11648
▁insist	-11649
▁volunt	-11650
elligent	-11651
▁Cowboys	-11652
▁Lincoln	-11653
▁Mission	-11654
▁Studies	-11655
▁affects	-11656
▁appeals	-11657
▁knocked	-11658
▁nowhere	-11659
▁rebuild	-11660
▁Official	-11661
▁disclose	-11662
▁taxpayer	-11663
▁abilities	-11664
▁correctly	-11665
▁exploring	-11666
▁purchasing	-11667
▁respective	-11668
▁strategies	-11669
UC	-11670
ii	-11671
Ass	-11672
non	-11673
▁fo	-11674
ingu	-11675
iper	-11676
▁$1,	-11677
▁Bos	-11678
cedes	-11679
ouses	-11680
pound	-11681
▁Holy	-11682
▁Sacr	-11683
▁pour	-11684
▁wore	-11685
ussion	-11686
▁Barry	-11687
▁Hindu	-11688
▁Nokia	-11689
▁Swiss	-11690
▁jokes	-11691
▁sizes	-11692
▁smile	-11693
▁steal	-11694
olphins	-11695
▁Puerto	-11696
▁condemn	-11697
▁Medicare	-11698
▁dominant	-11699
▁grateful	-11700
▁imprison	-11701
▁preserve	-11702
▁rankings	-11703
▁Telegraph	-11704
▁directions	-11705
▁organizers	-11706
▁underlying	-11707
▁temporarily	-11708
▁Investigators	-11709
Can	-11710
uki	-11711
rait	-11712
▁gut	-11713
▁vit	-11714
ierre	-11715
organ	-11716
trans	-11717
▁Cold	-11718
▁Lady	-11719
▁Morm	-11720
▁PHOT	-11721
▁Shan	-11722
▁dece	-11723
▁flew	-11724
caster	-11725
giving	-11726
ultane	-11727
▁Oscar	-11728
▁Susan	-11729
▁Titan	-11730
▁Trail	-11731
▁rehab	-11732
▁scary	-11733
develop	-11734
▁Colomb	-11735
▁Duncan	-11736
▁crowds	-11737
▁garlic	-11738
▁steady	-11739
▁verify	-11740
▁crossed	-11741
▁singing	-11742
▁overhaul	-11743
▁references	-11744
▁billionaire	-11745
▁unfortunate	-11746
▁unnecessary	-11747
▁inappropriate	-11748
agu	-11749
cur	-11750
mid	-11751
▁(0	-11752
ello	-11753
ilst	-11754
math	-11755
omic	-11756
omin	-11757
sect	-11758
▁25-	-11759
▁Hig	-11760
▁IRS	-11761
▁Sox	-11762
▁toy	-11763
charg	-11764
ifier	-11765
liest	-11766
sized	-11767
▁Pick	-11768
▁Type	-11769
▁nose	-11770
▁Spurs	-11771
▁crews	-11772
▁fract	-11773
▁reign	-11774
▁shake	-11775
inction	-11776
isexual	-11777
istance	-11778
▁Dennis	-11779
▁Pelosi	-11780
▁depict	-11781
▁reluct	-11782
▁expense	-11783
▁malware	-11784
▁Benjamin	-11785
▁clicking	-11786
▁electoral	-11787
▁pregnancy	-11788
▁unlimited	-11789
▁optimistic	-11790
▁initiatives	-11791
▁operational	-11792
Not	-11793
pre	-11794
▁Hi	-11795
enge	-11796
hner	-11797
▁Sem	-11798
angle	-11799
bered	-11800
▁Virt	-11801
▁bulk	-11802
▁furn	-11803
▁scar	-11804
backed	-11805
uterte	-11806
▁Money	-11807
▁Parks	-11808
▁Stars	-11809
▁males	-11810
▁rifle	-11811
▁Nature	-11812
▁Saints	-11813
▁mirror	-11814
▁regret	-11815
▁Duterte	-11816
▁chamber	-11817
▁Original	-11818
▁astronaut	-11819
▁permitted	-11820
▁Immigration	-11821
5]	-11822
85	-11823
87	-11824
Fr	-11825
Or	-11826
REE	-11827
▁MB	-11828
idem	-11829
ques	-11830
▁Ent	-11831
▁Hop	-11832
▁lun	-11833
▁por	-11834
▁tob	-11835
▁Cand	-11836
▁Cond	-11837
▁Gene	-11838
▁Pink	-11839
▁Swit	-11840
▁adap	-11841
▁bund	-11842
outing	-11843
▁Nexus	-11844
▁backs	-11845
▁bears	-11846
▁sanct	-11847
▁vowed	-11848
▁Motors	-11849
▁Oliver	-11850
▁Rivers	-11851
▁Turner	-11852
▁incomp	-11853
▁stocks	-11854
▁trends	-11855
▁Rodgers	-11856
▁shipped	-11857
▁Consider	-11858
▁Memorial	-11859
▁magnetic	-11860
▁pressing	-11861
▁starring	-11862
▁container	-11863
▁privilege	-11864
▁relatives	-11865
▁screening	-11866
▁superhero	-11867
▁meaningful	-11868
▁identifying	-11869
▁proceedings	-11870
▁participated	-11871
▁unacceptable	-11872
▁Conservatives	-11873
?)	-11874
Me	-11875
IST	-11876
ogy	-11877
▁77	-11878
▁RC	-11879
grav	-11880
hips	-11881
▁16-	-11882
▁Due	-11883
amine	-11884
▁coin	-11885
▁wise	-11886
▁Armen	-11887
▁Beast	-11888
▁Cohen	-11889
▁honey	-11890
▁joins	-11891
▁tower	-11892
ongyang	-11893
▁Arthur	-11894
▁Foster	-11895
▁Zimmer	-11896
▁filling	-11897
▁Medicine	-11898
▁Students	-11899
▁damaging	-11900
▁assaulted	-11901
▁childhood	-11902
▁perceived	-11903
▁realistic	-11904
▁designated	-11905
▁passionate	-11906
▁influential	-11907
66	-11908
.25	-11909
aws	-11910
▁Ec	-11911
hist	-11912
▁3.5	-11913
▁haz	-11914
▁Blog	-11915
▁nort	-11916
castle	-11917
▁Bryan	-11918
▁Month	-11919
▁diver	-11920
▁genre	-11921
▁unlaw	-11922
▁circle	-11923
▁export	-11924
▁grants	-11925
▁prayer	-11926
aughters	-11927
▁doubled	-11928
▁exploit	-11929
▁islands	-11930
▁longest	-11931
▁wrapped	-11932
▁Sciences	-11933
▁Warriors	-11934
▁executed	-11935
▁opposing	-11936
▁pleasure	-11937
▁reflects	-11938
▁theories	-11939
▁Sacramento	-11940
1:	-11941
pin	-11942
van	-11943
▁BB	-11944
▁EV	-11945
olve	-11946
ulse	-11947
▁$40	-11948
▁Aqu	-11949
▁Fly	-11950
▁tel	-11951
Semit	-11952
athon	-11953
block	-11954
story	-11955
▁Shah	-11956
▁dash	-11957
▁fits	-11958
▁2007.	-11959
▁5,000	-11960
▁Beaut	-11961
▁Costa	-11962
▁Pence	-11963
▁dealt	-11964
▁rugby	-11965
lington	-11966
▁Employ	-11967
▁Greens	-11968
▁assert	-11969
▁suprem	-11970
▁Goldman	-11971
including	-11972
▁carriers	-11973
▁pursuing	-11974
▁suitable	-11975
▁triggered	-11976
▁acknowledge	-11977
▁fascinating	-11978
▁experiencing	-11979
DR	-11980
omi	-11981
▁Il	-11982
▁Ko	-11983
▁Agr	-11984
▁awa	-11985
udeau	-11986
umbai	-11987
▁$500	-11988
▁1000	-11989
▁Rico	-11990
▁Winn	-11991
▁barg	-11992
assion	-11993
▁Small	-11994
▁bases	-11995
▁crown	-11996
▁juice	-11997
▁leaks	-11998
▁remem	-11999
attered	-12000
rolling	-12001
verning	-12002
▁Julian	-12003
▁Nathan	-12004
▁builds	-12005
▁resume	-12006
▁applies	-12007
▁bizarre	-12008
▁nervous	-12009
▁paralle	-12010
▁Hispanic	-12011
▁measured	-12012
▁explosive	-12013
▁purchases	-12014
▁Bangladesh	-12015
▁addressing	-12016
▁difficulty	-12017
▁excitement	-12018
EE	-12019
ori	-12020
▁DU	-12021
acts	-12022
omed	-12023
ovic	-12024
wear	-12025
will	-12026
▁Ath	-12027
▁BMW	-12028
▁Ele	-12029
▁Rol	-12030
▁Wol	-12031
▁duo	-12032
osaur	-12033
▁Kill	-12034
▁Viol	-12035
▁bans	-12036
▁chap	-12037
▁mice	-12038
▁pink	-12039
abetes	-12040
inding	-12041
mother	-12042
▁Billy	-12043
▁galaxy	-12044
▁impose	-12045
▁nights	-12046
▁stimul	-12047
▁Austria	-12048
▁buttons	-12049
▁convert	-12050
▁courage	-12051
▁fingers	-12052
▁portfol	-12053
▁renewed	-12054
▁tobacco	-12055
▁bacteria	-12056
▁spectrum	-12057
▁Tottenham	-12058
▁disclosed	-12059
▁instances	-12060
▁sentences	-12061
▁adaptation	-12062
▁bipartisan	-12063
▁convenient	-12064
▁inevitable	-12065
▁organisations	-12066
CE	-12067
NS	-12068
OH	-12069
Te	-12070
amo	-12071
byn	-12072
eor	-12073
▁2-	-12074
gged	-12075
odox	-12076
▁12.	-12077
▁50%	-12078
▁Row	-12079
▁Late	-12080
▁Zach	-12081
▁irre	-12082
itudes	-12083
▁Prior	-12084
▁fence	-12085
▁Native	-12086
▁brutal	-12087
▁excuse	-12088
▁oxygen	-12089
▁beloved	-12090
▁insists	-12091
▁Islamist	-12092
▁backlash	-12093
▁employer	-12094
▁searched	-12095
▁subsidies	-12096
▁criticised	-12097
▁downloaded	-12098
▁journalism	-12099
▁minorities	-12100
▁travelling	-12101
▁interaction	-12102
▁orientation	-12103
()	-12104
aa	-12105
eck	-12106
who	-12107
▁OR	-12108
girl	-12109
rics	-12110
▁Ess	-12111
▁Fle	-12112
▁Nad	-12113
▁cab	-12114
▁unt	-12115
acles	-12116
zilla	-12117
▁Luis	-12118
▁Nazi	-12119
▁Stay	-12120
▁glob	-12121
▁halt	-12122
▁sons	-12123
arians	-12124
▁Activ	-12125
▁Girls	-12126
▁Lynch	-12127
▁Minor	-12128
▁amend	-12129
▁balls	-12130
▁burgl	-12131
▁coins	-12132
▁persu	-12133
▁roots	-12134
▁setup	-12135
zerland	-12136
▁Comics	-12137
▁breast	-12138
▁desert	-12139
▁hearts	-12140
▁Assange	-12141
▁Country	-12142
▁Liberty	-12143
▁Schumer	-12144
▁Thunder	-12145
▁Trudeau	-12146
▁organic	-12147
▁trapped	-12148
▁Breaking	-12149
▁invested	-12150
▁thrilled	-12151
▁traveled	-12152
▁vacation	-12153
▁Pyongyang	-12154
▁affiliate	-12155
▁conscious	-12156
▁investing	-12157
▁prototype	-12158
▁reviewing	-12159
▁witnessed	-12160
▁uncomfortable	-12161
Do	-12162
isd	-12163
pic	-12164
uru	-12165
glas	-12166
hard	-12167
▁Dra	-12168
▁Too	-12169
coins	-12170
piece	-12171
letter	-12172
orking	-12173
▁3,000	-12174
▁Blood	-12175
▁Domin	-12176
▁Learn	-12177
▁Maine	-12178
▁flags	-12179
thereum	-12180
▁Fisher	-12181
▁Classic	-12182
▁Montana	-12183
▁editors	-12184
▁focuses	-12185
▁kicking	-12186
▁multipl	-12187
criptions	-12188
▁Whatever	-12189
▁isolated	-12190
▁playback	-12191
▁revenues	-12192
▁timeline	-12193
▁confusion	-12194
▁simultane	-12195
▁compliance	-12196
▁recruiting	-12197
▁contributing	-12198
DE	-12199
NE	-12200
AFP	-12201
Now	-12202
gie	-12203
▁4:	-12204
▁BP	-12205
▁HP	-12206
▁IV	-12207
stra	-12208
▁Sgt	-12209
▁Cher	-12210
▁Ging	-12211
▁Gonz	-12212
▁Stop	-12213
▁Ward	-12214
erated	-12215
▁Chand	-12216
▁Jamie	-12217
▁WATCH	-12218
▁bikes	-12219
▁Ashley	-12220
▁Pirate	-12221
▁invite	-12222
▁Boehner	-12223
▁acceler	-12224
▁costume	-12225
▁examine	-12226
▁Electric	-12227
▁Malaysia	-12228
▁compound	-12229
▁outbreak	-12230
▁apologize	-12231
▁collapsed	-12232
▁designers	-12233
▁reactions	-12234
▁JavaScript	-12235
▁commentary	-12236
▁Switzerland	-12237
▁maintaining	-12238
OK	-12239
OST	-12240
▁61	-12241
grad	-12242
▁11.	-12243
▁Cut	-12244
▁RBI	-12245
▁Tea	-12246
duces	-12247
eling	-12248
oline	-12249
opard	-12250
vious	-12251
▁Fish	-12252
▁Leaf	-12253
▁Soul	-12254
▁cute	-12255
arents	-12256
insula	-12257
▁Tweet	-12258
▁Corbyn	-12259
▁Legend	-12260
▁Nearly	-12261
▁Planet	-12262
▁tissue	-12263
▁Records	-12264
▁chronic	-12265
▁curious	-12266
▁embrace	-12267
▁sensors	-12268
▁invasion	-12269
▁Published	-12270
▁preseason	-12271
▁universal	-12272
▁disclosure	-12273
▁incentives	-12274
▁qualifying	-12275
65	-12276
ahl	-12277
▁LG	-12278
eway	-12279
http	-12280
tail	-12281
▁193	-12282
▁FDA	-12283
ellar	-12284
irmed	-12285
▁dign	-12286
master	-12287
▁Corps	-12288
▁Fried	-12289
▁Honda	-12290
▁Track	-12291
▁medal	-12292
▁pound	-12293
▁tears	-12294
▁vigil	-12295
looking	-12296
ordable	-12297
prising	-12298
▁fights	-12299
▁jailed	-12300
▁solely	-12301
▁trials	-12302
etheless	-12303
▁Welcome	-12304
▁debates	-12305
▁Jennifer	-12306
▁animation	-12307
▁champions	-12308
▁computing	-12309
▁excessive	-12310
▁sophistic	-12311
▁strongest	-12312
▁spectacular	-12313
▁occasionally	-12314
6)	-12315
?'	-12316
Jo	-12317
RO	-12318
ITY	-12319
cor	-12320
cup	-12321
addy	-12322
from	-12323
oret	-12324
team	-12325
text	-12326
▁IGN	-12327
▁Tan	-12328
eness	-12329
raham	-12330
uates	-12331
ullah	-12332
▁Baby	-12333
▁Half	-12334
▁Pred	-12335
▁bell	-12336
▁libr	-12337
▁whis	-12338
▁yeah	-12339
effect	-12340
▁2006,	-12341
▁Roger	-12342
▁TODAY	-12343
▁genes	-12344
▁Carlos	-12345
▁Carson	-12346
▁Garden	-12347
▁Mumbai	-12348
▁Reagan	-12349
▁Sprint	-12350
▁Survey	-12351
▁Topics	-12352
▁Wonder	-12353
▁unrest	-12354
▁Springs	-12355
▁intends	-12356
▁verdict	-12357
▁arriving	-12358
▁Hopefully	-12359
▁cognitive	-12360
▁altogether	-12361
▁agriculture	-12362
▁constructed	-12363
▁documentation	-12364
Ad	-12365
cal	-12366
ogs	-12367
omo	-12368
oub	-12369
was	-12370
▁SF	-12371
▁Si	-12372
ulpt	-12373
▁Cox	-12374
▁Fel	-12375
▁NPR	-12376
▁Raf	-12377
▁hes	-12378
▁pup	-12379
Press	-12380
asked	-12381
being	-12382
▁Brig	-12383
▁Palm	-12384
▁Shin	-12385
▁Thus	-12386
▁impe	-12387
▁inex	-12388
▁vibr	-12389
ampton	-12390
▁Catal	-12391
▁Gates	-12392
▁Woman	-12393
▁bones	-12394
▁ghost	-12395
▁zones	-12396
▁Peters	-12397
▁abused	-12398
▁hacked	-12399
▁locals	-12400
▁Bernard	-12401
▁Cabinet	-12402
▁Defence	-12403
▁impress	-12404
▁licence	-12405
▁Liberals	-12406
▁launches	-12407
▁surveyed	-12408
▁Jefferson	-12409
▁Yesterday	-12410
▁breathing	-12411
▁delighted	-12412
▁workforce	-12413
▁Chancellor	-12414
▁inequality	-12415
▁touchdowns	-12416
▁contemporary	-12417
▁intersection	-12418
zb	-12419
600	-12420
chi	-12421
cop	-12422
▁Cz	-12423
reck	-12424
▁Nat	-12425
▁Opt	-12426
▁jew	-12427
store	-12428
▁Days	-12429
▁Fame	-12430
▁Lisa	-12431
▁Pors	-12432
▁groc	-12433
▁pays	-12434
▁vert	-12435
aments	-12436
▁Lloyd	-12437
▁bully	-12438
▁creep	-12439
▁searc	-12440
▁sends	-12441
perform	-12442
▁feared	-12443
▁lifted	-12444
▁marine	-12445
▁viable	-12446
▁Caption	-12447
▁assured	-12448
▁contrad	-12449
▁declare	-12450
▁confused	-12451
▁Resources	-12452
▁enterprise	-12453
▁publishers	-12454
▁forthcoming	-12455
Cal	-12456
enh	-12457
ere	-12458
eta	-12459
pur	-12460
▁PT	-12461
airy	-12462
cour	-12463
inst	-12464
onia	-12465
ping	-12466
quez	-12467
wind	-12468
▁140	-12469
▁Got	-12470
▁MLB	-12471
▁Pas	-12472
▁ank	-12473
▁hij	-12474
actic	-12475
space	-12476
▁Bund	-12477
▁Gray	-12478
▁obsc	-12479
borough	-12480
▁Inside	-12481
▁Linked	-12482
▁define	-12483
▁detain	-12484
▁dreams	-12485
▁rubber	-12486
▁sacrif	-12487
▁sequel	-12488
▁silent	-12489
strators	-12490
upported	-12491
▁lesbian	-12492
▁permits	-12493
▁recount	-12494
▁Franklin	-12495
▁Henderson	-12496
▁ambulance	-12497
▁kilometres	-12498
▁fundraising	-12499
▁disappointing	-12500
▁neighborhoods	-12501
Mar	-12502
VID	-12503
fan	-12504
iah	-12505
sky	-12506
▁69	-12507
▁GB	-12508
ixon	-12509
lett	-12510
rous	-12511
▁Sug	-12512
▁hub	-12513
imize	-12514
urred	-12515
▁Name	-12516
▁Room	-12517
▁Vers	-12518
▁cups	-12519
▁lake	-12520
▁lung	-12521
▁sake	-12522
▁seiz	-12523
▁worn	-12524
abling	-12525
napped	-12526
▁Ahmed	-12527
▁Autom	-12528
▁Colin	-12529
▁Forum	-12530
▁Psych	-12531
▁neuro	-12532
mingham	-12533
▁Rachel	-12534
▁Everton	-12535
▁circuit	-12536
▁drafted	-12537
▁Gingrich	-12538
▁Homeland	-12539
▁threaten	-12540
▁directors	-12541
▁forgotten	-12542
▁frequency	-12543
▁partially	-12544
▁struggles	-12545
▁autonomous	-12546
▁interference	-12547
/7	-12548
Ed	-12549
tz	-12550
mun	-12551
wal	-12552
▁DR	-12553
.[2]	-12554
bris	-12555
inez	-12556
mile	-12557
rawl	-12558
▁Arn	-12559
▁Fur	-12560
▁Kum	-12561
▁Nas	-12562
▁meg	-12563
anked	-12564
offic	-12565
yrics	-12566
▁Noah	-12567
▁monu	-12568
▁turb	-12569
Sports	-12570
▁Bible	-12571
▁Speed	-12572
▁arena	-12573
▁renov	-12574
ennials	-12575
ullivan	-12576
▁Angela	-12577
▁Occupy	-12578
▁Search	-12579
▁booked	-12580
▁helmet	-12581
▁modest	-12582
▁toilet	-12583
........	-12584
▁Comcast	-12585
▁Greater	-12586
▁Islands	-12587
▁Stevens	-12588
▁Stories	-12589
▁clinical	-12590
▁detected	-12591
▁operates	-12592
▁treating	-12593
▁Newcastle	-12594
▁Therefore	-12595
▁addiction	-12596
▁screaming	-12597
64	-12598
ICE	-12599
dad	-12600
dig	-12601
▁om	-12602
iang	-12603
▁Kan	-12604
▁LLC	-12605
▁Rou	-12606
▁dil	-12607
range	-12608
▁Chad	-12609
People	-12610
levard	-12611
▁Milan	-12612
▁Starb	-12613
▁Third	-12614
▁radar	-12615
▁trash	-12616
▁brains	-12617
▁pilots	-12618
ilateral	-12619
▁Transit	-12620
▁acquire	-12621
▁innings	-12622
▁lengthy	-12623
▁painted	-12624
▁Avengers	-12625
▁Mourinho	-12626
▁Stanford	-12627
▁theaters	-12628
▁Chronicle	-12629
▁Relations	-12630
▁audiences	-12631
▁oversight	-12632
▁teenagers	-12633
▁legislature	-12634
▁uncertainty	-12635
▁considerable	-12636
▁prescription	-12637
8)	-12638
-13	-12639
NET	-12640
aus	-12641
weg	-12642
▁Ax	-12643
▁TM	-12644
hell	-12645
▁Cav	-12646
▁Mob	-12647
ATION	-12648
▁Coin	-12649
▁buff	-12650
▁disg	-12651
▁gene	-12652
▁tsun	-12653
urches	-12654
▁Armed	-12655
▁Bills	-12656
▁clash	-12657
▁defic	-12658
▁reply	-12659
▁Detect	-12660
▁Effect	-12661
▁Either	-12662
▁Ravens	-12663
▁defect	-12664
▁deport	-12665
▁hiding	-12666
▁Kashmir	-12667
▁Pradesh	-12668
▁artwork	-12669
▁beneath	-12670
▁conclus	-12671
▁periods	-12672
▁McCarthy	-12673
▁Mercedes	-12674
▁embedded	-12675
▁financing	-12676
▁respected	-12677
▁uncovered	-12678
▁proportion	-12679
▁recreational	-12680
Ind	-12681
uri	-12682
▁py	-12683
oons	-12684
quer	-12685
▁Hub	-12686
▁RAM	-12687
isdom	-12688
ocate	-12689
orses	-12690
quest	-12691
▁Cool	-12692
▁Mana	-12693
▁scra	-12694
handed	-12695
▁Ghost	-12696
▁brave	-12697
▁chase	-12698
▁polar	-12699
respect	-12700
▁dispos	-12701
▁Details	-12702
▁Porsche	-12703
▁harmful	-12704
▁commands	-12705
▁consists	-12706
▁criteria	-12707
▁pictured	-12708
err	-12709
▁),	-12710
▁71	-12711
▁Bh	-12712
▁EP	-12713
uded	-12714
▁Hem	-12715
▁Pap	-12716
▁Pin	-12717
▁Tol	-12718
neath	-12719
rians	-12720
▁$200	-12721
▁Buck	-12722
▁Chap	-12723
▁Give	-12724
▁Poll	-12725
▁Wire	-12726
▁bite	-12727
▁bits	-12728
ailand	-12729
izable	-12730
▁Break	-12731
▁packs	-12732
▁tanks	-12733
▁winds	-12734
▁admits	-12735
▁conced	-12736
▁eighth	-12737
▁Bennett	-12738
▁Griffin	-12739
▁Insider	-12740
▁cartoon	-12741
▁dispens	-12742
▁endless	-12743
▁premier	-12744
▁teenage	-12745
▁admission	-12746
▁celebrity	-12747
▁governing	-12748
▁inauguration	-12749
▁possibilities	-12750
Ne	-12751
Net	-12752
▁(9	-12753
▁CB	-12754
Book	-12755
conf	-12756
lynn	-12757
▁Alt	-12758
▁Pok	-12759
▁Pun	-12760
▁Wiz	-12761
▁cam	-12762
▁liv	-12763
pathy	-12764
rator	-12765
▁(199	-12766
▁opio	-12767
commun	-12768
cribed	-12769
▁Lives	-12770
▁abort	-12771
▁alike	-12772
▁batch	-12773
▁hypot	-12774
▁Advert	-12775
▁Arctic	-12776
▁Flight	-12777
▁Modern	-12778
▁Walter	-12779
▁heroin	-12780
▁labels	-12781
▁subtle	-12782
▁themes	-12783
▁wishes	-12784
▁Student	-12785
▁grocery	-12786
▁monster	-12787
▁whereas	-12788
▁bisexual	-12789
▁holidays	-12790
▁notified	-12791
▁Nashville	-12792
▁centuries	-12793
▁concealed	-12794
▁daughters	-12795
▁instantly	-12796
▁Birmingham	-12797
▁supposedly	-12798
▁psychological	-12799
AK	-12800
uh	-12801
IFA	-12802
utt	-12803
▁Pi	-12804
▁SW	-12805
▁TD	-12806
orer	-12807
▁Fla	-12808
▁Tap	-12809
▁Nova	-12810
▁Ring	-12811
▁bure	-12812
▁ears	-12813
▁ugly	-12814
▁wars	-12815
income	-12816
semble	-12817
▁Mason	-12818
▁Mitch	-12819
▁Seven	-12820
▁airst	-12821
▁booth	-12822
▁greet	-12823
▁manif	-12824
▁seeds	-12825
▁Boeing	-12826
▁Shield	-12827
▁Besides	-12828
▁Crystal	-12829
▁Denmark	-12830
▁Indians	-12831
▁Village	-12832
▁boycott	-12833
▁evolved	-12834
▁existed	-12835
▁listing	-12836
▁patents	-12837
▁tackles	-12838
▁averaged	-12839
▁compiled	-12840
▁decrease	-12841
▁receives	-12842
▁reminder	-12843
▁swimming	-12844
▁capability	-12845
▁indictment	-12846
▁misconduct	-12847
▁frustration	-12848
?!	-12849
yp	-12850
aku	-12851
iox	-12852
pot	-12853
▁DM	-12854
arez	-12855
cuff	-12856
hots	-12857
stop	-12858
tech	-12859
▁Sel	-12860
▁fru	-12861
▁rib	-12862
▁unl	-12863
kward	-12864
▁Berg	-12865
▁HERE	-12866
▁buzz	-12867
▁desc	-12868
▁leaf	-12869
▁mock	-12870
string	-12871
▁Agric	-12872
▁Charg	-12873
▁Quinn	-12874
▁ought	-12875
▁utter	-12876
▁Herald	-12877
▁Racing	-12878
▁sketch	-12879
▁Brewing	-12880
▁Douglas	-12881
▁Mueller	-12882
▁clashes	-12883
▁cocaine	-12884
▁homeown	-12885
▁Politico	-12886
▁Recently	-12887
▁Software	-12888
▁Thailand	-12889
▁militant	-12890
▁restored	-12891
▁crackdown	-12892
▁reception	-12893
▁spiritual	-12894
▁connecting	-12895
▁mechanical	-12896
▁pronounced	-12897
▁accommodate	-12898
▁controlling	-12899
ds	-12900
zo	-12901
▁%	-12902
gom	-12903
ige	-12904
iva	-12905
lem	-12906
map	-12907
Some	-12908
elve	-12909
etta	-12910
html	-12911
walk	-12912
▁Daw	-12913
▁Dow	-12914
▁Fac	-12915
▁Jar	-12916
▁mph	-12917
agine	-12918
comes	-12919
names	-12920
▁Crew	-12921
▁abst	-12922
▁mamm	-12923
▁stom	-12924
asting	-12925
rendra	-12926
writer	-12927
▁Banks	-12928
▁Logan	-12929
▁Notes	-12930
▁fined	-12931
▁absurd	-12932
▁vessel	-12933
heastern	-12934
▁Erdogan	-12935
▁Working	-12936
▁escaped	-12937
▁Phillips	-12938
▁briefing	-12939
▁emotions	-12940
▁printing	-12941
▁searches	-12942
▁broadband	-12943
▁prompting	-12944
▁completion	-12945
▁newspapers	-12946
▁approaching	-12947
▁confidential	-12948
Gu	-12949
ju	-12950
qa	-12951
▁("	-12952
▁86	-12953
▁GP	-12954
▁Wa	-12955
▁13-	-12956
▁Isa	-12957
▁voc	-12958
acent	-12959
borne	-12960
ighed	-12961
▁Cart	-12962
▁Mans	-12963
▁Rush	-12964
▁SHAR	-12965
▁Webs	-12966
▁Zero	-12967
▁hood	-12968
▁lens	-12969
▁sail	-12970
▁synd	-12971
cience	-12972
gomery	-12973
▁Czech	-12974
▁awful	-12975
▁fails	-12976
▁spill	-12977
▁Almost	-12978
▁Border	-12979
▁affair	-12980
▁alerts	-12981
▁bother	-12982
▁immune	-12983
▁jurisd	-12984
▁outfit	-12985
▁sealed	-12986
▁Fantasy	-12987
▁Lebanon	-12988
▁Tickets	-12989
▁ceiling	-12990
▁dealers	-12991
▁headset	-12992
▁liberty	-12993
▁physics	-12994
▁pressed	-12995
▁summary	-12996
▁violate	-12997
▁Commerce	-12998
▁Courtesy	-12999
▁Martinez	-13000
▁ensuring	-13001
▁flexible	-13002
▁horrible	-13003
▁licenses	-13004
▁reserves	-13005
▁Cambridge	-13006
▁Challenge	-13007
▁colleague	-13008
▁privately	-13009
▁similarly	-13010
▁defendants	-13011
▁deployment	-13012
▁expressing	-13013
▁kilometers	-13014
▁transparent	-13015
IE	-13016
UM	-13017
aux	-13018
ppo	-13019
rin	-13020
▁//	-13021
▁Ni	-13022
▁si	-13023
atin	-13024
kers	-13025
kill	-13026
▁(10	-13027
▁Kab	-13028
▁hed	-13029
bably	-13030
▁Anim	-13031
▁Anna	-13032
▁mate	-13033
▁Bobby	-13034
▁Villa	-13035
atching	-13036
▁albums	-13037
▁divide	-13038
▁forums	-13039
▁mosque	-13040
▁thresh	-13041
▁Episode	-13042
▁astronom	-13043
▁barriers	-13044
▁contrary	-13045
▁diabetes	-13046
▁flagship	-13047
▁offshore	-13048
▁produces	-13049
▁conflicts	-13050
▁considers	-13051
▁expertise	-13052
▁separated	-13053
▁Affordable	-13054
▁Newsletter	-13055
▁experimental	-13056
▁humanitarian	-13057
▁parliamentary	-13058
89	-13059
lu	-13060
afe	-13061
nex	-13062
ppy	-13063
brew	-13064
path	-13065
▁Arc	-13066
▁Fig	-13067
▁lod	-13068
archy	-13069
ollah	-13070
▁Bald	-13071
▁Reed	-13072
▁oven	-13073
▁Going	-13074
▁accum	-13075
▁grave	-13076
▁shark	-13077
▁twist	-13078
▁Double	-13079
▁Hudson	-13080
▁Polish	-13081
▁Select	-13082
▁ancest	-13083
▁bubble	-13084
▁layers	-13085
▁strain	-13086
▁Belgian	-13087
▁Housing	-13088
▁Perform	-13089
▁Wallace	-13090
▁prayers	-13091
▁undergo	-13092
available	-13093
▁colleges	-13094
▁confirms	-13095
▁counties	-13096
▁sequence	-13097
▁accidents	-13098
▁breakfast	-13099
▁immigrant	-13100
▁Enforcement	-13101
▁accomplished	-13102
KS	-13103
-17	-13104
eli	-13105
kar	-13106
▁BL	-13107
▁Yu	-13108
▁rh	-13109
camp	-13110
iots	-13111
this	-13112
▁lib	-13113
chief	-13114
human	-13115
isive	-13116
▁1996	-13117
▁Bagh	-13118
▁FIFA	-13119
▁Liqu	-13120
▁Mode	-13121
▁lean	-13122
anchez	-13123
escope	-13124
▁Sudan	-13125
▁drops	-13126
▁opted	-13127
▁procl	-13128
▁vegan	-13129
▁Palace	-13130
▁aggrav	-13131
▁bitter	-13132
▁epidem	-13133
▁parked	-13134
▁avoided	-13135
▁casting	-13136
▁flavors	-13137
▁gravity	-13138
ocumented	-13139
▁Standard	-13140
▁cleaning	-13141
▁councill	-13142
▁freshman	-13143
▁lawsuits	-13144
▁stereoty	-13145
vironments	-13146
▁sidelines	-13147
▁survivors	-13148
▁authorized	-13149
▁bankruptcy	-13150
▁presumably	-13151
▁subscribers	-13152
▁transmission	-13153
Os	-13154
ALL	-13155
Tor	-13156
bin	-13157
rus	-13158
una	-13159
▁78	-13160
▁BY	-13161
▁Dw	-13162
aman	-13163
card	-13164
elli	-13165
opez	-13166
uced	-13167
vals	-13168
▁10%	-13169
▁2-1	-13170
▁Len	-13171
▁Stu	-13172
ernel	-13173
outed	-13174
▁Boys	-13175
▁Soon	-13176
▁stro	-13177
▁unre	-13178
vation	-13179
▁Globe	-13180
▁Jesse	-13181
▁Rosen	-13182
▁cargo	-13183
pection	-13184
▁Budget	-13185
▁Clarke	-13186
▁Number	-13187
▁Toyota	-13188
▁denies	-13189
▁hatred	-13190
▁wounds	-13191
▁Release	-13192
▁Reports	-13193
▁evident	-13194
▁statist	-13195
▁Creative	-13196
▁reminded	-13197
▁shutdown	-13198
DonaldTrump	-13199
▁compatible	-13200
▁satellites	-13201
▁marketplace	-13202
AST	-13203
▁).	-13204
▁15.	-13205
▁Haz	-13206
▁Inv	-13207
▁nod	-13208
▁ram	-13209
While	-13210
ansom	-13211
onies	-13212
▁Juan	-13213
▁Rams	-13214
▁Seah	-13215
▁bass	-13216
▁damn	-13217
▁haul	-13218
▁inch	-13219
▁merc	-13220
▁seal	-13221
▁slip	-13222
isbane	-13223
ocaust	-13224
▁Brend	-13225
▁Guide	-13226
▁Metal	-13227
▁aspir	-13228
▁kicks	-13229
▁showc	-13230
▁suits	-13231
▁Tumblr	-13232
▁baking	-13233
▁contam	-13234
▁lyrics	-13235
▁priest	-13236
▁streak	-13237
▁Finland	-13238
▁Workers	-13239
▁enforce	-13240
▁Ethereum	-13241
▁monetary	-13242
▁overtime	-13243
▁Montgomery	-13244
▁Richardson	-13245
▁legislators	-13246
▁transported	-13247
▁correspondent	-13248
▁sophisticated	-13249
VR	-13250
▁5:	-13251
▁gi	-13252
.[3]	-13253
call	-13254
itty	-13255
keys	-13256
kind	-13257
▁11:	-13258
▁Bab	-13259
▁Cit	-13260
▁Sor	-13261
,000-	-13262
After	-13263
amped	-13264
arios	-13265
itual	-13266
ombie	-13267
▁Dian	-13268
▁Prim	-13269
▁cord	-13270
▁quad	-13271
▁Laura	-13272
▁cheer	-13273
▁unity	-13274
▁Joshua	-13275
▁Matter	-13276
▁Record	-13277
▁opener	-13278
▁Sanchez	-13279
▁erupted	-13280
▁sponsor	-13281
▁stomach	-13282
ationally	-13283
▁Computer	-13284
▁Moreover	-13285
▁honestly	-13286
controlled	-13287
utterstock	-13288
▁Operation	-13289
▁reflected	-13290
▁workplace	-13291
▁literature	-13292
▁Legislature	-13293
▁interactive	-13294
▁configuration	-13295
realDonaldTrump	-13296
Post	-13297
enth	-13298
ocus	-13299
zone	-13300
▁(2)	-13301
▁Lex	-13302
▁bio	-13303
▁jam	-13304
aceut	-13305
arded	-13306
proof	-13307
▁Chip	-13308
▁Cuba	-13309
▁Deal	-13310
▁Koch	-13311
▁foul	-13312
agging	-13313
thodox	-13314
▁Chase	-13315
▁Gabri	-13316
▁Nancy	-13317
▁Sales	-13318
▁climb	-13319
▁steam	-13320
quality	-13321
station	-13322
▁Nobody	-13323
▁Rapids	-13324
▁Travel	-13325
▁debris	-13326
▁equity	-13327
▁fierce	-13328
▁pistol	-13329
▁plates	-13330
▁refers	-13331
▁stabil	-13332
essional	-13333
izations	-13334
▁Barbara	-13335
▁interfe	-13336
▁placing	-13337
▁referen	-13338
▁sectors	-13339
▁accuracy	-13340
▁battling	-13341
▁comedian	-13342
▁outlined	-13343
▁aftermath	-13344
▁decreased	-13345
▁diagnosed	-13346
▁attributed	-13347
▁perception	-13348
▁underneath	-13349
▁Furthermore	-13350
▁breakthrough	-13351
▁environments	-13352
Pal	-13353
▁MI	-13354
▁NJ	-13355
rint	-13356
▁Aub	-13357
▁Lum	-13358
atics	-13359
▁Dear	-13360
▁Drop	-13361
▁Face	-13362
▁Horn	-13363
▁Nine	-13364
▁dirt	-13365
▁holy	-13366
ailing	-13367
believ	-13368
▁Eight	-13369
▁Lopez	-13370
▁Voice	-13371
▁Youth	-13372
▁ninth	-13373
entials	-13374
▁Athlet	-13375
▁Living	-13376
▁Shadow	-13377
▁beings	-13378
▁crying	-13379
▁triple	-13380
▁bureauc	-13381
▁entries	-13382
▁exports	-13383
▁fulfill	-13384
▁hostile	-13385
▁planets	-13386
▁Interior	-13387
▁deciding	-13388
▁formerly	-13389
▁killings	-13390
▁countless	-13391
▁elaborate	-13392
▁spotlight	-13393
▁Additional	-13394
▁Huffington	-13395
▁conversion	-13396
▁currencies	-13397
▁goalkeeper	-13398
▁intelligent	-13399
mi	-13400
sl	-13401
ESS	-13402
USA	-13403
ahn	-13404
erb	-13405
▁4-	-13406
hess	-13407
rane	-13408
▁1.0	-13409
▁Beh	-13410
▁GPS	-13411
▁GTX	-13412
▁Sin	-13413
oulos	-13414
▁1950	-13415
▁1999	-13416
▁File	-13417
▁Gore	-13418
▁forb	-13419
▁neur	-13420
▁togg	-13421
iciary	-13422
▁Chile	-13423
▁Fresh	-13424
▁ankle	-13425
▁hasht	-13426
▁manga	-13427
▁spare	-13428
▁swift	-13429
selling	-13430
▁Bannon	-13431
▁Temple	-13432
▁Wenger	-13433
▁foster	-13434
▁quotes	-13435
▁Section	-13436
▁Silicon	-13437
▁complim	-13438
▁faculty	-13439
▁offline	-13440
▁quietly	-13441
▁trusted	-13442
▁contents	-13443
▁disputed	-13444
▁portfolio	-13445
▁satisfied	-13446
▁undermine	-13447
▁approaches	-13448
▁reflection	-13449
▁treatments	-13450
▁desperately	-13451
iar	-13452
iri	-13453
lib	-13454
psy	-13455
▁nu	-13456
kens	-13457
orig	-13458
sign	-13459
▁3.0	-13460
▁Eth	-13461
▁RSS	-13462
▁Syn	-13463
▁adj	-13464
▁unh	-13465
email	-13466
otton	-13467
polit	-13468
rants	-13469
▁Cant	-13470
▁Send	-13471
▁fame	-13472
▁ther	-13473
▁trio	-13474
atched	-13475
uccess	-13476
umbled	-13477
▁Intro	-13478
▁Legal	-13479
▁hilar	-13480
▁stint	-13481
ascript	-13482
respons	-13483
▁Holmes	-13484
▁Reform	-13485
▁banner	-13486
▁clever	-13487
▁habits	-13488
▁sculpt	-13489
▁subway	-13490
▁slammed	-13491
▁balanced	-13492
▁handcuff	-13493
▁incoming	-13494
▁regarded	-13495
▁accompany	-13496
▁nominated	-13497
▁intentions	-13498
▁Prosecutors	-13499
▁accountable	-13500
▁declaration	-13501
▁identification	-13502
▁characteristics	-13503
.:	-13504
7)	-13505
Co	-13506
Oh	-13507
gow	-13508
▁79	-13509
▁9:	-13510
▁Tu	-13511
urer	-13512
▁Kle	-13513
▁Nam	-13514
▁Naz	-13515
▁fib	-13516
apper	-13517
▁Joel	-13518
inging	-13519
leased	-13520
threat	-13521
wealth	-13522
▁Flynn	-13523
▁Muham	-13524
▁fiber	-13525
▁outer	-13526
▁retro	-13527
▁stats	-13528
▁stays	-13529
▁ultra	-13530
driving	-13531
grounds	-13532
ressing	-13533
▁Beyond	-13534
▁Browns	-13535
▁Potter	-13536
▁assemb	-13537
▁compan	-13538
▁frozen	-13539
▁labour	-13540
▁lasted	-13541
▁rapper	-13542
▁awkward	-13543
▁exhibit	-13544
▁Broadway	-13545
▁Comments	-13546
▁Criminal	-13547
▁Superman	-13548
▁founding	-13549
▁infamous	-13550
▁infected	-13551
▁memorial	-13552
▁psychiat	-13553
▁stealing	-13554
▁superior	-13555
▁watchdog	-13556
▁Indonesia	-13557
▁Queensland	-13558
▁motivation	-13559
▁productive	-13560
▁convenience	-13561
▁exploration	-13562
▁representation	-13563
CL	-13564
pg	-13565
Mus	-13566
opt	-13567
▁EA	-13568
▁UI	-13569
bage	-13570
ivic	-13571
▁130	-13572
▁Fem	-13573
▁Maj	-13574
▁Pur	-13575
quire	-13576
uming	-13577
▁Bond	-13578
▁Gate	-13579
▁Glas	-13580
▁Must	-13581
▁Nike	-13582
▁flip	-13583
▁ward	-13584
anches	-13585
around	-13586
elaide	-13587
wegian	-13588
▁Abdul	-13589
▁Blake	-13590
▁Books	-13591
▁align	-13592
▁frank	-13593
▁walks	-13594
closure	-13595
ometown	-13596
undreds	-13597
▁Terror	-13598
▁caucus	-13599
▁lately	-13600
▁puzzle	-13601
▁reboot	-13602
▁Diamond	-13603
▁Spencer	-13604
▁brewery	-13605
▁issuing	-13606
▁tourism	-13607
▁Delaware	-13608
▁Majority	-13609
▁Starting	-13610
▁judicial	-13611
▁quarters	-13612
▁rebounds	-13613
▁stepping	-13614
▁weakness	-13615
▁Political	-13616
▁apologized	-13617
▁technically	-13618
▁firefighters	-13619
31	-13620
Qu	-13621
azy	-13622
etz	-13623
has	-13624
▁8:	-13625
airo	-13626
engu	-13627
esta	-13628
geon	-13629
ghai	-13630
▁160	-13631
▁20%	-13632
▁Gam	-13633
inson	-13634
▁Beer	-13635
▁Mull	-13636
▁Spir	-13637
▁Tory	-13638
▁anth	-13639
▁glow	-13640
▁slic	-13641
ervers	-13642
school	-13643
▁Biden	-13644
▁Blair	-13645
▁Index	-13646
▁excav	-13647
▁inher	-13648
▁postp	-13649
▁sword	-13650
initely	-13651
▁Observ	-13652
▁Yellow	-13653
▁facial	-13654
▁finale	-13655
▁honour	-13656
▁lovely	-13657
▁loving	-13658
▁sticks	-13659
▁weaken	-13660
▁Jessica	-13661
▁Winnipe	-13662
▁cricket	-13663
▁leather	-13664
▁Narendra	-13665
▁Training	-13666
▁churches	-13667
▁conclude	-13668
▁teammate	-13669
▁anonymity	-13670
▁threshold	-13671
▁tolerance	-13672
▁Eventually	-13673
▁cornerback	-13674
▁prohibited	-13675
▁sentencing	-13676
▁transcript	-13677
▁certificate	-13678
▁introducing	-13679
▁willingness	-13680
▁concentration	-13681
▁demonstrators	-13682
MI	-13683
gel	-13684
lie	-13685
oku	-13686
▁87	-13687
▁Ye	-13688
▁od	-13689
Just	-13690
idth	-13691
ilot	-13692
ultz	-13693
▁$60	-13694
▁14-	-13695
▁21-	-13696
▁Ask	-13697
▁Iss	-13698
▁NSW	-13699
Qaeda	-13700
ghazi	-13701
▁Hero	-13702
▁Mons	-13703
▁noon	-13704
▁pupp	-13705
▁Moroc	-13706
▁Skype	-13707
▁flies	-13708
▁Powell	-13709
▁absent	-13710
▁reddit	-13711
▁belongs	-13712
▁corrupt	-13713
▁formula	-13714
▁glasses	-13715
▁recipes	-13716
▁regards	-13717
aceutical	-13718
▁Brisbane	-13719
▁alliance	-13720
▁catching	-13721
▁counting	-13722
▁emphasis	-13723
▁globally	-13724
▁hearings	-13725
▁infringe	-13726
▁landmark	-13727
▁Anonymous	-13728
▁Starbucks	-13729
▁algorithm	-13730
▁appealing	-13731
▁classroom	-13732
▁economist	-13733
▁happiness	-13734
▁milestone	-13735
▁Tournament	-13736
▁creativity	-13737
▁Indianapolis	-13738
▁recommendation	-13739
kg	-13740
-18	-13741
she	-13742
wer	-13743
▁74	-13744
▁VA	-13745
aste	-13746
olid	-13747
▁Jed	-13748
▁Nav	-13749
▁Rex	-13750
▁Tar	-13751
▁Vic	-13752
overs	-13753
rikes	-13754
▁bout	-13755
icides	-13756
izzard	-13757
olving	-13758
▁patri	-13759
▁Brooks	-13760
▁Munich	-13761
▁intrig	-13762
▁resemb	-13763
▁twenty	-13764
▁gaining	-13765
▁jumping	-13766
▁justify	-13767
▁vendors	-13768
▁Seahawks	-13769
▁adequate	-13770
▁unlawful	-13771
▁collision	-13772
▁identical	-13773
▁inaugural	-13774
▁publicity	-13775
▁trademark	-13776
▁applicants	-13777
▁cigarettes	-13778
▁compelling	-13779
▁delegation	-13780
▁occasional	-13781
▁reiterated	-13782
▁celebrities	-13783
▁Metropolitan	-13784
uy	-13785
big	-13786
ibo	-13787
irk	-13788
tax	-13789
vas	-13790
▁"[	-13791
▁73	-13792
▁XL	-13793
ayan	-13794
bean	-13795
eded	-13796
ente	-13797
mons	-13798
prot	-13799
rine	-13800
▁Ars	-13801
▁Cab	-13802
▁LTE	-13803
▁Nag	-13804
▁Zoo	-13805
antle	-13806
inite	-13807
plate	-13808
▁Cell	-13809
▁Fran	-13810
▁Publ	-13811
▁bust	-13812
▁masc	-13813
esting	-13814
remlin	-13815
second	-13816
▁Berry	-13817
▁aging	-13818
▁aides	-13819
▁angle	-13820
▁risen	-13821
▁Kasich	-13822
▁charts	-13823
▁clinic	-13824
▁emerge	-13825
▁freeze	-13826
▁sooner	-13827
▁treaty	-13828
▁vandal	-13829
▁Fighter	-13830
▁Machine	-13831
▁Neither	-13832
▁Nigeria	-13833
▁Privacy	-13834
▁prosper	-13835
▁shotgun	-13836
▁surpass	-13837
▁Benghazi	-13838
▁Redskins	-13839
▁mentally	-13840
▁profound	-13841
identified	-13842
▁Hernandez	-13843
▁affecting	-13844
▁inclusion	-13845
▁malicious	-13846
▁negotiate	-13847
▁sanctuary	-13848
▁Television	-13849
▁obligations	-13850
▁independently	-13851
NG	-13852
js	-13853
.15	-13854
ICK	-13855
aha	-13856
sur	-13857
▁Xi	-13858
Russ	-13859
artz	-13860
type	-13861
▁$12	-13862
▁Aur	-13863
▁Kaz	-13864
▁Mes	-13865
▁Rum	-13866
▁SAN	-13867
▁SUV	-13868
▁ber	-13869
▁pub	-13870
▁tsp	-13871
arest	-13872
▁Cape	-13873
▁Dist	-13874
▁Jama	-13875
▁Mini	-13876
▁Shop	-13877
▁Wing	-13878
▁hike	-13879
▁spar	-13880
▁unde	-13881
headed	-13882
▁Cyber	-13883
▁Rugby	-13884
▁boats	-13885
▁panic	-13886
▁Aleppo	-13887
▁Dayton	-13888
▁Gaming	-13889
▁Philip	-13890
▁alumin	-13891
▁immers	-13892
▁toggle	-13893
munition	-13894
▁Comment	-13895
▁Packers	-13896
▁barrels	-13897
▁kingdom	-13898
▁rallies	-13899
▁sisters	-13900
▁Motorola	-13901
▁Sullivan	-13902
▁comeback	-13903
▁enhanced	-13904
▁staffers	-13905
▁Boulevard	-13906
▁nutrition	-13907
▁contractor	-13908
▁negotiating	-13909
▁determination	-13910
▁neighbourhood	-13911
▁traditionally	-13912
")	-13913
68	-13914
95	-13915
Am	-13916
CR	-13917
MM	-13918
cca	-13919
▁EC	-13920
▁FL	-13921
▁14.	-13922
▁CTV	-13923
▁Git	-13924
▁NRA	-13925
▁Tib	-13926
,000,	-13927
ateur	-13928
ilder	-13929
itory	-13930
reach	-13931
▁Cort	-13932
▁Hack	-13933
▁Kend	-13934
▁Race	-13935
▁Rift	-13936
nected	-13937
▁Prize	-13938
▁dimin	-13939
▁lined	-13940
angered	-13941
▁Making	-13942
▁Samuel	-13943
▁interf	-13944
▁wheels	-13945
atherine	-13946
official	-13947
▁Chapter	-13948
▁defeats	-13949
▁devoted	-13950
▁editing	-13951
▁harvest	-13952
▁tsunami	-13953
▁Baseball	-13954
▁airports	-13955
▁drilling	-13956
▁switched	-13957
government	-13958
▁Armstrong	-13959
▁attackers	-13960
▁defendant	-13961
▁destroying	-13962
▁withdrawal	-13963
▁exceptional	-13964
▁Thanksgiving	-13965
▁agricultural	-13966
▁implementing	-13967
▁simultaneously	-13968
1-	-13969
HI	-13970
SM	-13971
cm	-13972
ARD	-13973
▁Ic	-13974
arer	-13975
onge	-13976
tics	-13977
wick	-13978
▁13.	-13979
▁Alf	-13980
▁Kos	-13981
▁Raw	-13982
▁Xia	-13983
▁ink	-13984
esity	-13985
ongue	-13986
▁Ferr	-13987
▁Reyn	-13988
▁curb	-13989
imedia	-13990
oubted	-13991
riages	-13992
▁Dynam	-13993
▁Joint	-13994
▁antib	-13995
▁fixes	-13996
▁memor	-13997
▁rings	-13998
▁shore	-13999
issance	-14000
onsense	-14001
▁Python	-14002
▁Stream	-14003
▁Stuart	-14004
▁Trophy	-14005
▁addict	-14006
▁hotels	-14007
▁Getting	-14008
▁Witness	-14009
▁ballots	-14010
▁forming	-14011
▁mothers	-14012
▁quantum	-14013
▁shifted	-14014
▁shuttle	-14015
▁streams	-14016
▁tracked	-14017
▁assaults	-14018
▁concepts	-14019
▁salaries	-14020
▁showcase	-14021
▁Hurricane	-14022
▁breakdown	-14023
▁incentive	-14024
▁libraries	-14025
▁precisely	-14026
▁wrestling	-14027
▁censorship	-14028
▁preference	-14029
▁predecessor	-14030
▁territories	-14031
▁interactions	-14032
OG	-14033
Of	-14034
di	-14035
Hub	-14036
dec	-14037
ulk	-14038
▁97	-14039
▁UA	-14040
orld	-14041
ulum	-14042
▁Boo	-14043
▁Ori	-14044
▁Sri	-14045
▁pel	-14046
▁sib	-14047
▁sue	-14048
aired	-14049
cular	-14050
icism	-14051
mouth	-14052
stage	-14053
▁Carr	-14054
▁Fury	-14055
▁Sask	-14056
ockets	-14057
▁Imper	-14058
▁Sandy	-14059
▁farms	-14060
▁grain	-14061
▁juven	-14062
▁meals	-14063
▁metro	-14064
▁scare	-14065
sharing	-14066
▁gentle	-14067
▁insane	-14068
▁render	-14069
▁rental	-14070
▁unlock	-14071
▁Shortly	-14072
▁Website	-14073
▁Citizens	-14074
▁Shanghai	-14075
▁Together	-14076
▁Winnipeg	-14077
▁floating	-14078
▁offences	-14079
▁parallel	-14080
▁Norwegian	-14081
▁additions	-14082
▁dependent	-14083
▁accounting	-14084
▁ammunition	-14085
▁generating	-14086
▁indicating	-14087
▁organizing	-14088
▁recovering	-14089
▁soundtrack	-14090
▁corporation	-14091
▁electronics	-14092
43	-14093
May	-14094
squ	-14095
▁Ja	-14096
▁Va	-14097
ools	-14098
▁18.	-14099
▁23-	-14100
▁27-	-14101
▁Dim	-14102
▁Esc	-14103
▁Pad	-14104
acter	-14105
chron	-14106
cules	-14107
eston	-14108
ulous	-14109
▁$300	-14110
▁1998	-14111
▁Exam	-14112
▁Finn	-14113
▁Unit	-14114
▁grey	-14115
rified	-14116
▁Cinem	-14117
▁Table	-14118
▁beans	-14119
▁brick	-14120
▁codes	-14121
▁midst	-14122
▁pants	-14123
▁telev	-14124
▁token	-14125
amation	-14126
▁Luther	-14127
▁Within	-14128
▁aiming	-14129
▁valued	-14130
▁Hungary	-14131
▁Walmart	-14132
▁shorter	-14133
▁Adelaide	-14134
▁Industry	-14135
▁enabling	-14136
▁laughing	-14137
authorized	-14138
▁maintains	-14139
▁routinely	-14140
▁medication	-14141
▁financially	-14142
▁multiplayer	-14143
▁questionable	-14144
42	-14145
CD	-14146
---	-14147
Gen	-14148
bot	-14149
fly	-14150
▁ox	-14151
rose	-14152
ults	-14153
▁ICE	-14154
▁IDF	-14155
▁Led	-14156
▁NYC	-14157
▁PDT	-14158
▁Pew	-14159
▁Shi	-14160
actor	-14161
eties	-14162
uffle	-14163
▁Grey	-14164
▁Hass	-14165
▁Upon	-14166
▁jets	-14167
manuel	-14168
thirds	-14169
▁Emily	-14170
▁Kumar	-14171
▁Quick	-14172
▁exped	-14173
▁handy	-14174
stanbul	-14175
▁Compet	-14176
▁Texans	-14177
▁aboard	-14178
▁chains	-14179
▁occurs	-14180
▁tattoo	-14181
▁whales	-14182
▁Collect	-14183
▁Jeffrey	-14184
▁Monster	-14185
▁Stephan	-14186
▁barrier	-14187
▁chopped	-14188
▁pitcher	-14189
▁secrets	-14190
▁secular	-14191
▁Steelers	-14192
▁arranged	-14193
▁entities	-14194
▁fraction	-14195
▁liberals	-14196
▁optional	-14197
▁abortions	-14198
▁alternate	-14199
▁notorious	-14200
▁achievement	-14201
▁businessman	-14202
▁credibility	-14203
▁alternatives	-14204
▁difficulties	-14205
Car	-14206
IDS	-14207
two	-14208
▁1-	-14209
▁8-	-14210
anto	-14211
boro	-14212
oshi	-14213
oust	-14214
ubes	-14215
▁16.	-14216
▁Alb	-14217
▁Kid	-14218
▁Mul	-14219
▁Nep	-14220
ocide	-14221
▁Chem	-14222
▁Kath	-14223
▁Vive	-14224
▁bees	-14225
▁2006.	-14226
▁Marin	-14227
▁Thous	-14228
▁Altern	-14229
▁anthem	-14230
▁catast	-14231
▁gunman	-14232
▁heated	-14233
▁insect	-14234
▁proves	-14235
▁summon	-14236
▁vacant	-14237
▁Content	-14238
▁Formula	-14239
▁Surface	-14240
▁bedroom	-14241
▁bicycle	-14242
▁circles	-14243
▁flowers	-14244
▁modules	-14245
▁weighed	-14246
▁$100,000	-14247
▁accusing	-14248
▁mistaken	-14249
▁surfaced	-14250
▁unbeliev	-14251
▁Holocaust	-14252
▁scenarios	-14253
▁sentiment	-14254
▁Advertising	-14255
IME	-14256
ORT	-14257
aho	-14258
cci	-14259
isi	-14260
mus	-14261
▁6:	-14262
▁98	-14263
▁WA	-14264
esto	-14265
opes	-14266
phis	-14267
▁1.4	-14268
▁ate	-14269
▁mol	-14270
▁shy	-14271
enson	-14272
oping	-14273
▁Bapt	-14274
▁Coun	-14275
▁Ster	-14276
▁conj	-14277
▁helm	-14278
▁unch	-14279
elfast	-14280
namese	-14281
oulder	-14282
▁4,000	-14283
▁Added	-14284
▁Advis	-14285
▁Pride	-14286
▁acres	-14287
▁grows	-14288
▁scrap	-14289
▁squee	-14290
ructive	-14291
writing	-14292
▁Mormon	-14293
▁Prison	-14294
▁Shares	-14295
▁incumb	-14296
▁worlds	-14297
oubtedly	-14298
▁Systems	-14299
▁Traffic	-14300
▁cycling	-14301
▁desired	-14302
▁drought	-14303
▁garbage	-14304
▁oversee	-14305
▁painful	-14306
▁shelves	-14307
▁unnamed	-14308
▁worship	-14309
astically	-14310
▁Manafort	-14311
▁Previous	-14312
▁flooding	-14313
▁midfield	-14314
▁precious	-14315
▁uploaded	-14316
▁Rodriguez	-14317
▁Zimmerman	-14318
▁belonging	-14319
▁economics	-14320
▁messaging	-14321
▁organised	-14322
▁testified	-14323
▁Originally	-14324
▁discipline	-14325
▁plaintiffs	-14326
▁supportive	-14327
▁Nevertheless	-14328
TR	-14329
ORK	-14330
cue	-14331
uum	-14332
whe	-14333
.[4]	-14334
amps	-14335
hyth	-14336
lude	-14337
mare	-14338
olan	-14339
▁10:	-14340
▁22-	-14341
▁DLC	-14342
▁Maz	-14343
▁Slo	-14344
▁vet	-14345
acies	-14346
▁Beta	-14347
▁Clay	-14348
▁Crow	-14349
▁Nico	-14350
▁Pros	-14351
▁Troy	-14352
▁cher	-14353
iosity	-14354
▁Wells	-14355
▁indef	-14356
▁peers	-14357
▁royal	-14358
utenant	-14359
▁Palmer	-14360
▁intend	-14361
▁unders	-14362
▁Leonard	-14363
▁labeled	-14364
▁refusal	-14365
▁revised	-14366
▁surveys	-14367
▁turnout	-14368
gregation	-14369
▁gambling	-14370
▁navigate	-14371
▁outcomes	-14372
▁Cardinals	-14373
▁Companies	-14374
▁downloads	-14375
▁extremist	-14376
▁favorites	-14377
▁occurring	-14378
▁Vietnamese	-14379
▁instrument	-14380
▁protective	-14381
▁projections	-14382
▁aggressively	-14383
FS	-14384
GM	-14385
/17	-14386
ref	-14387
▁GR	-14388
▁oh	-14389
Feed	-14390
abwe	-14391
affe	-14392
disc	-14393
drop	-14394
▁Ana	-14395
▁Bee	-14396
▁Lot	-14397
▁Ric	-14398
▁Tak	-14399
▁fet	-14400
▁hey	-14401
acket	-14402
ected	-14403
▁FREE	-14404
▁Indy	-14405
▁Pete	-14406
▁Zimb	-14407
▁chef	-14408
▁cous	-14409
▁gard	-14410
▁mild	-14411
▁peer	-14412
closed	-14413
opular	-14414
▁2018,	-14415
▁Movie	-14416
▁inhab	-14417
▁prest	-14418
▁scram	-14419
▁sneak	-14420
forward	-14421
▁Fourth	-14422
▁Holder	-14423
▁Listen	-14424
▁Patrol	-14425
▁anchor	-14426
▁boring	-14427
▁livest	-14428
▁relies	-14429
▁tenure	-14430
▁throat	-14431
▁wisdom	-14432
▁Baghdad	-14433
▁Thrones	-14434
▁banning	-14435
▁careers	-14436
▁fortune	-14437
▁Istanbul	-14438
▁appealed	-14439
▁assuming	-14440
▁avoiding	-14441
▁severely	-14442
▁magnitude	-14443
▁ordinance	-14444
▁probation	-14445
▁complexity	-14446
▁friendship	-14447
▁networking	-14448
▁contributor	-14449
▁translation	-14450
Ob	-14451
hl	-14452
Sec	-14453
oko	-14454
▁Dj	-14455
▁Oz	-14456
▁PV	-14457
fold	-14458
user	-14459
▁Cro	-14460
▁Kay	-14461
▁Lag	-14462
▁Lic	-14463
▁Spl	-14464
▁Via	-14465
roots	-14466
▁Body	-14467
▁Goth	-14468
▁Limb	-14469
▁Mend	-14470
▁Site	-14471
▁hurd	-14472
▁nail	-14473
▁tire	-14474
charge	-14475
laimed	-14476
minded	-14477
▁Flint	-14478
▁Petro	-14479
▁Randy	-14480
▁appla	-14481
▁bacon	-14482
▁hesit	-14483
▁lease	-14484
▁stack	-14485
▁stall	-14486
▁wings	-14487
▁chairs	-14488
▁clouds	-14489
▁costly	-14490
▁entity	-14491
▁fright	-14492
▁runner	-14493
▁Amnesty	-14494
▁Culture	-14495
▁counted	-14496
▁fucking	-14497
▁pursuit	-14498
▁reaches	-14499
▁tourist	-14500
▁Zimbabwe	-14501
▁climbing	-14502
▁deterior	-14503
▁generous	-14504
▁lobbying	-14505
▁rotation	-14506
▁stripped	-14507
ologically	-14508
ournaments	-14509
▁Regardless	-14510
▁disruption	-14511
▁Australians	-14512
▁Presidential	-14513
▁considerably	-14514
▁highlighting	-14515
▁Representative	-14516
▁disappointment	-14517
TP	-14518
agg	-14519
fty	-14520
▁7-	-14521
bull	-14522
inos	-14523
rise	-14524
size	-14525
▁Mix	-14526
▁lip	-14527
▁tar	-14528
alone	-14529
doing	-14530
▁Jobs	-14531
▁Karl	-14532
▁Mack	-14533
▁Rabb	-14534
▁gren	-14535
▁horm	-14536
▁pray	-14537
boards	-14538
usters	-14539
▁Agree	-14540
▁Karen	-14541
▁Strip	-14542
▁Truth	-14543
▁accel	-14544
ilation	-14545
▁Bayern	-14546
▁Better	-14547
▁Oxford	-14548
▁Return	-14549
▁clause	-14550
▁temple	-14551
▁waited	-14552
▁Vincent	-14553
▁concess	-14554
▁educate	-14555
▁shouted	-14556
▁stabbed	-14557
▁Hundreds	-14558
▁gasoline	-14559
▁proceeds	-14560
▁Palestine	-14561
▁comparing	-14562
▁footprint	-14563
▁rendering	-14564
▁sacrifice	-14565
▁committing	-14566
▁consultant	-14567
▁fundraiser	-14568
▁greenhouse	-14569
▁laboratory	-14570
▁priorities	-14571
▁appreciated	-14572
▁Christianity	-14573
▁accountability	-14574
97	-14575
RT	-14576
py	-14577
uv	-14578
afi	-14579
▁82	-14580
▁UE	-14581
Care	-14582
ahan	-14583
dale	-14584
▁1.1	-14585
▁110	-14586
▁12:	-14587
▁40-	-14588
▁Hat	-14589
▁sci	-14590
fight	-14591
owing	-14592
▁Anne	-14593
▁Emir	-14594
▁Kane	-14595
▁Lost	-14596
▁Sach	-14597
▁Sens	-14598
▁Stre	-14599
▁Trev	-14600
▁Wals	-14601
▁bloc	-14602
▁dumb	-14603
▁warn	-14604
funded	-14605
iating	-14606
▁2005,	-14607
▁Fixed	-14608
▁Jared	-14609
▁Lower	-14610
▁dated	-14611
▁kills	-14612
itional	-14613
▁Travis	-14614
▁agrees	-14615
▁dispar	-14616
▁fixing	-14617
▁hailed	-14618
▁inclus	-14619
▁jersey	-14620
▁treats	-14621
▁worthy	-14622
▁Carroll	-14623
▁Imagine	-14624
▁Kremlin	-14625
▁Legends	-14626
▁Memphis	-14627
▁Someone	-14628
▁Vikings	-14629
▁bullets	-14630
▁inmates	-14631
▁inspire	-14632
▁invalid	-14633
▁lasting	-14634
▁matched	-14635
▁notably	-14636
▁observe	-14637
▁rushing	-14638
▁Mohammed	-14639
▁Politics	-14640
▁hydrogen	-14641
▁marginal	-14642
▁retailer	-14643
▁villages	-14644
▁Architect	-14645
▁achieving	-14646
▁passwords	-14647
▁Ambassador	-14648
▁Production	-14649
▁affiliated	-14650
▁beneficial	-14651
▁completing	-14652
▁explicitly	-14653
▁solidarity	-14654
▁counterparts	-14655
BN	-14656
ICO	-14657
▁:)	-14658
chat	-14659
five	-14660
iasm	-14661
itas	-14662
kees	-14663
nell	-14664
onut	-14665
▁1.6	-14666
▁11-	-14667
▁17.	-14668
▁19-	-14669
▁AAP	-14670
▁Nar	-14671
▁Nut	-14672
▁Rud	-14673
▁dur	-14674
▁lap	-14675
build	-14676
ideos	-14677
pling	-14678
▁Dana	-14679
▁Kids	-14680
▁fond	-14681
▁trap	-14682
▁tube	-14683
ranean	-14684
▁Falls	-14685
▁blend	-14686
▁incon	-14687
▁liver	-14688
▁sells	-14689
▁teasp	-14690
olutely	-14691
opoulos	-14692
▁Conway	-14693
▁Forbes	-14694
▁commod	-14695
▁edited	-14696
▁retrie	-14697
▁unfold	-14698
▁empower	-14699
▁Consumer	-14700
▁Heritage	-14701
▁Princess	-14702
▁Veterans	-14703
▁limiting	-14704
▁romantic	-14705
▁believing	-14706
▁unsuccess	-14707
▁victories	-14708
▁obligation	-14709
▁pedestrian	-14710
▁campaigning	-14711
▁fingerprint	-14712
▁Commonwealth	-14713
▁observations	-14714
▁entrepreneurs	-14715
sk	-14716
alg	-14717
iaz	-14718
rod	-14719
▁MD	-14720
▁OP	-14721
ango	-14722
club	-14723
lamm	-14724
larg	-14725
▁20.	-14726
▁28-	-14727
▁Few	-14728
▁NRL	-14729
▁caf	-14730
▁dip	-14731
▁hen	-14732
▁luc	-14733
▁ski	-14734
▁zoo	-14735
nyder	-14736
▁Edge	-14737
▁leap	-14738
▁plag	-14739
league	-14740
▁Ahmad	-14741
▁Clean	-14742
▁Gmail	-14743
▁Level	-14744
▁Rules	-14745
▁Sweet	-14746
▁Worth	-14747
▁bless	-14748
▁congr	-14749
▁draws	-14750
▁edges	-14751
▁genet	-14752
▁gorge	-14753
minster	-14754
▁Confed	-14755
▁Durham	-14756
▁Strong	-14757
▁expend	-14758
▁finals	-14759
▁plugin	-14760
▁redist	-14761
▁serial	-14762
▁urgent	-14763
ellation	-14764
▁coastal	-14765
▁crowded	-14766
▁denying	-14767
▁immense	-14768
▁Movement	-14769
▁ideology	-14770
▁regulate	-14771
▁stranger	-14772
▁Tillerson	-14773
▁WordPress	-14774
▁converted	-14775
▁declining	-14776
▁assignment	-14777
▁confirming	-14778
▁extremists	-14779
▁Agriculture	-14780
▁broadcaster	-14781
▁examination	-14782
▁lightweight	-14783
▁deliberately	-14784
/5	-14785
6]	-14786
Col	-14787
cel	-14788
olk	-14789
▁WR	-14790
▁hi	-14791
▁um	-14792
alez	-14793
ashi	-14794
auge	-14795
avin	-14796
idia	-14797
ilia	-14798
inel	-14799
▁1.2	-14800
▁Kap	-14801
count	-14802
ulent	-14803
▁Bark	-14804
▁Host	-14805
▁vent	-14806
heimer	-14807
▁Eddie	-14808
▁Impro	-14809
▁Title	-14810
▁bonds	-14811
▁crops	-14812
▁donor	-14813
▁fancy	-14814
▁redes	-14815
▁saves	-14816
▁steep	-14817
▁Butler	-14818
▁Marcus	-14819
▁diesel	-14820
▁poorly	-14821
▁ransom	-14822
▁rifles	-14823
▁styles	-14824
ountered	-14825
▁Account	-14826
▁Virtual	-14827
▁continu	-14828
▁distant	-14829
▁enables	-14830
▁linking	-14831
▁migrant	-14832
▁sharply	-14833
▁studios	-14834
▁theoret	-14835
▁vessels	-14836
▁Muhammad	-14837
▁interrog	-14838
▁outright	-14839
▁vertical	-14840
▁wherever	-14841
generation	-14842
▁automated	-14843
▁mountains	-14844
▁travelled	-14845
▁Opposition	-14846
▁emphasized	-14847
▁indigenous	-14848
▁motorcycle	-14849
▁protesting	-14850
▁encountered	-14851
▁photography	-14852
▁unanimously	-14853
▁significance	-14854
.]	-14855
DB	-14856
Men	-14857
sub	-14858
▁00	-14859
▁AK	-14860
▁CT	-14861
▁DI	-14862
ando	-14863
avid	-14864
bone	-14865
oler	-14866
orts	-14867
pher	-14868
▁900	-14869
▁Kor	-14870
brand	-14871
group	-14872
▁Audi	-14873
▁Bing	-14874
▁Born	-14875
▁Made	-14876
▁Stra	-14877
▁folk	-14878
gments	-14879
intage	-14880
▁1,500	-14881
▁Users	-14882
▁affid	-14883
▁apple	-14884
▁fluid	-14885
▁hedge	-14886
▁swept	-14887
ouncing	-14888
▁Unless	-14889
▁corrid	-14890
▁enroll	-14891
▁locker	-14892
▁mutual	-14893
▁spying	-14894
aternity	-14895
▁Tonight	-14896
▁fleeing	-14897
▁habitat	-14898
▁hashtag	-14899
▁insider	-14900
▁reactor	-14901
▁merchand	-14902
▁ordering	-14903
▁partisan	-14904
▁Communist	-14905
▁Northwest	-14906
▁predictions	-14907
-11	-14908
Bay	-14909
OSE	-14910
roe	-14911
east	-14912
oday	-14913
pace	-14914
▁2-0	-14915
▁Kel	-14916
▁org	-14917
cient	-14918
https	-14919
image	-14920
▁Merc	-14921
▁Sale	-14922
▁Stur	-14923
direct	-14924
reated	-14925
spoken	-14926
▁Valve	-14927
▁candy	-14928
▁nerve	-14929
▁ports	-14930
▁straw	-14931
▁Herman	-14932
▁Lakers	-14933
▁Lauren	-14934
▁Saskat	-14935
▁Valent	-14936
▁hungry	-14937
▁pickup	-14938
▁Chamber	-14939
▁Mediter	-14940
▁Private	-14941
▁Weather	-14942
▁affidav	-14943
▁Deadpool	-14944
▁Senators	-14945
▁canceled	-14946
▁consoles	-14947
▁eventual	-14948
▁hometown	-14949
▁massacre	-14950
▁touching	-14951
▁upgrades	-14952
▁warrants	-14953
▁declaring	-14954
▁succeeded	-14955
▁Operations	-14956
▁aggravated	-14957
▁boundaries	-14958
▁confronted	-14959
▁invitation	-14960
▁prevention	-14961
▁recognised	-14962
▁submission	-14963
▁thoroughly	-14964
▁conclusions	-14965
▁screenshots	-14966
ND	-14967
rc	-14968
CBS	-14969
Let	-14970
asi	-14971
gon	-14972
oba	-14973
▁7:	-14974
▁ES	-14975
▁WE	-14976
beit	-14977
blog	-14978
igel	-14979
isco	-14980
mund	-14981
ushi	-14982
▁40%	-14983
▁Gor	-14984
▁Lem	-14985
▁vin	-14986
▁wip	-14987
abbit	-14988
eches	-14989
ethod	-14990
inkle	-14991
▁Chan	-14992
▁Drew	-14993
▁Edin	-14994
▁Init	-14995
▁Poke	-14996
▁Sold	-14997
▁dose	-14998
▁grip	-14999
▁wash	-15000
itches	-15001
▁abund	-15002
▁immin	-15003
▁overl	-15004
▁poses	-15005
atility	-15006
▁Jacobs	-15007
▁Snyder	-15008
▁Twenty	-15009
▁curric	-15010
▁extrad	-15011
▁offset	-15012
▁storms	-15013
▁Bristol	-15014
▁Theresa	-15015
▁centres	-15016
▁cooling	-15017
▁dangers	-15018
▁dignity	-15019
▁dragged	-15020
▁feeding	-15021
▁tougher	-15022
▁adjusted	-15023
▁asteroid	-15024
▁awaiting	-15025
▁exploded	-15026
▁troubled	-15027
▁continent	-15028
▁directing	-15029
▁extending	-15030
▁furniture	-15031
▁inventory	-15032
▁comparable	-15033
▁definitive	-15034
▁detectives	-15035
▁disrespect	-15036
▁eliminated	-15037
▁misleading	-15038
ME	-15039
Ps	-15040
VA	-15041
▁88	-15042
▁96	-15043
▁Aj	-15044
[...]
